<pad>	0
<s>	0
</s>	0
<unk>	0
,	-2.99436
。	-3.18249
的	-3.21455
▁	-3.74044
▁—	-4.48021
和	-4.4926
在	-4.95823
、	-5.00629
是	-5.3514
了	-5.41656
(	-5.43479
)	-5.47639
对	-5.67673
将	-5.72478
“	-5.74418
年	-5.75594
而	-5.84202
中	-5.92088
美国	-5.94355
中国	-6.00609
也	-6.01349
为	-6.04395
与	-6.13177
”	-6.14742
▁但	-6.15901
不	-6.27689
但	-6.29812
其	-6.29986
:	-6.3162
·	-6.34318
并	-6.37803
有	-6.39137
政府	-6.40219
以	-6.40457
经济	-6.41146
▁在	-6.44776
人	-6.45525
欧洲	-6.48296
我们	-6.48385
都	-6.48952
从	-6.49873
国家	-6.50811
他们	-6.51789
地	-6.51849
已经	-6.52783
被	-6.53182
上	-6.53404
以及	-6.54417
来	-6.55724
问题	-6.56391
需要	-6.62696
会	-6.6306
可以	-6.63495
时	-6.64048
一个	-6.64252
或	-6.66634
;	-6.6717
到	-6.71132
就	-6.71293
这一	-6.735
可能	-6.73615
政策	-6.75594
因为	-6.76101
?	-6.77361
这些	-6.78828
所	-6.79073
全球	-6.83029
新	-6.83393
增长	-6.83654
让	-6.83819
政治	-6.8427
欧盟	-6.85184
他	-6.85604
后	-6.87363
性	-6.89792
大	-6.9035
这	-6.93385
它	-6.93574
向	-6.94273
必须	-6.94549
要	-6.95161
世界	-6.95332
通过	-6.97565
支持	-6.97821
没有	-6.9948
比	-6.99525
更	-6.9954
一	-6.99696
者	-7.02422
正在	-7.05178
市场	-7.05578
能	-7.07119
—	-7.07514
等	-7.08029
▁但是	-7.08692
进行	-7.09162
还	-7.09512
投资	-7.09585
▁而	-7.09818
能够	-7.10065
实现	-7.10955
它们	-7.12124
月	-7.14056
计划	-7.14246
认为	-7.14272
用	-7.16148
包括	-7.17409
▁如果	-7.17576
最	-7.18368
应该	-7.21899
危机	-7.22343
银行	-7.22613
英国	-7.22632
▁事实上	-7.24761
提供	-7.25554
发展	-7.25663
社会	-7.27364
说	-7.27421
公司	-7.27572
于	-7.27928
影响	-7.29844
高	-7.29938
却	-7.30022
下	-7.33084
要求	-7.33272
改革	-7.33346
无法	-7.33423
20	-7.34239
GDP	-7.34707
我	-7.35351
地区	-7.3581
前	-7.36175
由	-7.36212
着	-7.36604
开始	-7.37291
给	-7.37404
成为	-7.37784
企业	-7.38341
人们	-7.39121
则	-7.39179
增加	-7.39573
现在	-7.40021
把	-7.40135
▁这	-7.40737
许多	-7.4142
▁”	-7.41461
所有	-7.41494
▁因此	-7.42032
解决	-7.42219
一些	-7.42293
导致	-7.42352
方面	-7.4238
风险	-7.4248
那些	-7.42796
其他	-7.43224
-	-7.43525
▁此外	-7.43874
多	-7.45372
如果	-7.47828
德国	-7.48145
因此	-7.48483
之	-7.48534
1	-7.49012
国际	-7.49288
目标	-7.52164
机构	-7.53982
▁%。	-7.54185
更加	-7.54903
过	-7.55915
工作	-7.55938
技术	-7.57546
债务	-7.5761
日本	-7.58002
长期	-7.58542
出	-7.58732
国	-7.59196
无	-7.59857
那么	-7.59863
希望	-7.60524
挑战	-7.60791
的国家	-7.61012
这种	-7.61228
战略	-7.62088
获得	-7.62306
又	-7.62945
甚至	-7.63532
尽管	-7.63819
这样的	-7.6388
拥有	-7.63911
任何	-7.64268
使用	-7.64287
及	-7.64813
去	-7.64909
实施	-7.64919
可	-7.65084
▁”。	-7.65276
自	-7.65323
安全	-7.65475
货币	-7.65516
俄罗斯	-7.65544
选择	-7.66355
还是	-7.66381
这个	-7.6639
就是	-7.66395
采取	-7.66451
继续	-7.66615
作为	-7.6674
合作	-7.67408
仍然	-7.67867
得	-7.68532
来说	-7.69331
印度	-7.69826
▁中国	-7.70151
民主	-7.7021
来自	-7.70446
美元	-7.7045
里	-7.70452
保护	-7.70993
决定	-7.71073
主要	-7.71574
亚洲	-7.71604
▁尽管	-7.72039
控制	-7.72674
如此	-7.72962
好	-7.73215
世纪	-7.73217
总统	-7.73231
▁%,	-7.73328
收入	-7.73669
斯	-7.73961
并且	-7.74059
欧元区	-7.7473
行动	-7.75201
改变	-7.75272
未来	-7.75331
提高	-7.75597
如何	-7.75673
金融	-7.75872
自己	-7.75893
似乎	-7.75965
一样	-7.76125
教育	-7.76252
非洲	-7.76312
的人	-7.76438
该	-7.76462
▁我们	-7.77255
而不是	-7.77297
领导人	-7.77326
措施	-7.7797
当	-7.78364
化	-7.78853
内	-7.78972
组织	-7.79819
管理	-7.80293
《	-7.80324
▁“	-7.80467
自由	-7.80489
减少	-7.80989
最终	-7.81103
目前	-7.81512
日	-7.81589
如	-7.82022
不同	-7.82033
像	-7.82118
能源	-7.824
5	-7.82657
▁他们	-7.82666
不会	-7.82677
2	-7.82748
降低	-7.83258
非	-7.83817
成本	-7.84038
一种	-7.84187
国内	-7.84194
接受	-7.84498
新的	-7.84512
战争	-7.8478
建立	-7.84803
协议	-7.84845
最近	-7.84898
)。	-7.85
只有	-7.85468
改善	-7.85665
并不	-7.8567
西方	-7.85863
出口	-7.86018
威胁	-7.86042
不是	-7.86345
而且	-7.8641
行为	-7.86855
确保	-7.86884
移民	-7.87419
存在	-7.87505
环境	-7.87888
成功	-7.88163
承诺	-7.88415
完全	-7.88779
出现	-7.88894
关系	-7.88941
更多	-7.89198
贸易	-7.89416
3	-7.89426
系统	-7.89539
因素	-7.89792
冲突	-7.89818
项目	-7.90042
特朗普	-7.90158
也是	-7.9019
一直	-7.90244
尔	-7.91125
▁这些	-7.91274
从而	-7.9142
▁美国	-7.91458
使	-7.91517
发生	-7.91629
力	-7.91833
▁比如	-7.92274
6	-7.92622
研究	-7.92666
资本	-7.92694
保持	-7.92705
同时	-7.92782
伊朗	-7.93284
城市	-7.93302
资源	-7.934
▁”,	-7.93411
制度	-7.9354
个	-7.93807
资金	-7.94062
法国	-7.94237
严重	-7.94273
非常	-7.94417
已	-7.94792
对于	-7.95771
持续	-7.96741
利用	-7.96784
家庭	-7.96811
受到	-7.97327
产生	-7.97792
重要	-7.9781
超过	-7.97814
限制	-7.98134
正	-7.98173
近	-7.985
帮助	-7.98625
水	-7.98656
需求	-7.98693
服务	-7.98965
是否	-7.99333
亿美元	-7.99368
下降	-7.99418
表明	-7.99501
不能	-7.9998
监管	-8.00116
或者	-8.0025
和其他	-8.00351
自己的	-8.00477
模式	-8.00605
▁(	-8.00732
人民	-8.00881
带来	-8.00971
推动	-8.01014
水平	-8.0122
拉	-8.01728
关注	-8.01864
s	-8.01987
具有	-8.02087
》	-8.02131
制定	-8.0241
大量	-8.02561
价格	-8.02623
▁当然	-8.02638
家	-8.0299
结果	-8.03337
之间	-8.03559
人口	-8.03674
民众	-8.0371
们	-8.03908
只是	-8.03973
创新	-8.04126
反对	-8.04127
7	-8.04239
人类	-8.04577
得到	-8.04622
变化	-8.04667
和平	-8.04806
进一步	-8.04842
历史	-8.05471
各国	-8.06036
共同	-8.06041
稳定	-8.06335
领域	-8.06805
重新	-8.06962
援助	-8.06967
气候变化	-8.0697
部门	-8.07046
都是	-8.07177
4	-8.07239
央行	-8.0737
财政	-8.07581
某些	-8.08206
关于	-8.08223
美联储	-8.08227
点	-8.08251
大部分	-8.08427
9	-8.08433
机会	-8.0853
他们的	-8.08611
选举	-8.08972
造成	-8.09201
参与	-8.09281
的经济	-8.09399
名	-8.09459
谈判	-8.09654
▁这一	-8.10114
的情况下	-8.10182
▁如今	-8.10272
投资者	-8.10507
的话	-8.10572
情况	-8.10663
经济增长	-8.10933
只	-8.11233
10	-8.11284
即	-8.11499
消费	-8.11512
事件	-8.11977
法	-8.12038
仍	-8.12313
能力	-8.12392
不断	-8.12473
中国的	-8.12489
机制	-8.12538
数据	-8.12574
希腊	-8.12703
面临	-8.12725
占	-8.12997
e	-8.13252
几乎	-8.13443
力量	-8.13752
可能会	-8.13889
▁当	-8.14033
欧元	-8.14137
利率	-8.14139
你	-8.14767
低	-8.1493
想	-8.15179
以来	-8.15506
量	-8.15573
生产	-8.1624
联盟	-8.1631
8	-8.16327
考虑	-8.16417
有效	-8.16454
应对	-8.1673
反	-8.16803
▁从	-8.16827
个人	-8.16887
小	-8.16888
维持	-8.17003
是一个	-8.17623
交易	-8.17723
之后	-8.17898
德	-8.18048
权	-8.18431
担心	-8.1871
中的	-8.1873
破坏	-8.18807
才能	-8.18842
规则	-8.19305
受	-8.19322
每年	-8.19322
年的	-8.19409
令	-8.19423
发现	-8.19606
的问题	-8.19638
行业	-8.19696
资产	-8.19771
经济学家	-8.19839
法律	-8.19842
竞争	-8.19914
作用	-8.20094
将会	-8.20095
支出	-8.20428
做	-8.2044
起	-8.20501
▁我	-8.20563
活动	-8.20687
主义	-8.20861
也许	-8.20883
而是	-8.2097
的时候	-8.21035
的政治	-8.2128
委员会	-8.21364
体系	-8.21949
之前	-8.22051
重	-8.22198
做出	-8.2237
报告	-8.22399
试图	-8.22497
价值	-8.2262
针对	-8.22635
事	-8.2269
达到	-8.22813
时间	-8.23425
融资	-8.23467
指出	-8.23473
再	-8.23604
上升	-8.23684
特别是	-8.23734
▁他	-8.23766
特	-8.24272
利益	-8.24323
总	-8.24416
全世界	-8.24476
儿童	-8.25093
▁与此同时	-8.25136
及其	-8.25275
的政策	-8.25418
乌克兰	-8.25671
年代	-8.25672
就会	-8.2573
30	-8.25867
之间的	-8.26004
上述	-8.26303
克	-8.26412
信息	-8.26639
什么	-8.26709
万	-8.27199
贷款	-8.2723
意味着	-8.27333
过去	-8.27605
扩大	-8.27694
进入	-8.27746
欧洲央行	-8.27795
这样	-8.27804
公民	-8.27889
的影响	-8.28065
由于	-8.28179
因	-8.28494
看	-8.28496
直接	-8.28663
日益	-8.28714
成	-8.28894
但是	-8.29009
如今	-8.29127
权力	-8.29473
预测	-8.29522
长	-8.29582
繁荣	-8.29669
运动	-8.2978
同样	-8.29907
规模	-8.30342
那样	-8.30477
分	-8.30515
标准	-8.3064
迅速	-8.30687
调整	-8.31472
自身	-8.31504
科学	-8.31691
通胀	-8.31858
联合国	-8.32181
传统	-8.32322
土耳其	-8.32364
实际	-8.32666
还有	-8.32774
▁相反	-8.32944
促进	-8.33192
更多的	-8.33232
当前	-8.33235
一场	-8.33437
结束	-8.33565
努力	-8.33621
大规模	-8.34063
相对	-8.34154
子	-8.3426
原因	-8.34388
头	-8.34391
比如	-8.34459
以色列	-8.34538
面	-8.34609
刺激	-8.34641
革命	-8.34672
重大	-8.35287
并没有	-8.35582
损失	-8.35944
2008	-8.35979
方案	-8.36257
令人	-8.36322
相信	-8.36412
巴西	-8.36446
缺乏	-8.36545
独立	-8.36612
气候	-8.369
行	-8.37155
会议	-8.37212
巨大的	-8.37267
只能	-8.37456
的新	-8.37751
避免	-8.37754
提出	-8.37829
相关	-8.37912
阻止	-8.37949
生	-8.3808
一项	-8.3819
建设	-8.38351
的是	-8.38361
派	-8.38363
手	-8.38505
意大利	-8.38591
两	-8.38646
且	-8.3869
其中	-8.38925
内部	-8.38952
石油	-8.39048
基于	-8.39178
条件	-8.39199
吗	-8.39235
利	-8.39249
现实	-8.39318
知道	-8.39387
美国的	-8.3949
同	-8.39511
更为	-8.39612
应当	-8.39941
叙利亚	-8.39962
创造	-8.40002
▁随着	-8.40343
方法	-8.40392
腐败	-8.40447
C	-8.40468
军事	-8.40576
越来越	-8.40614
她	-8.40732
不仅	-8.40746
▁虽然	-8.40837
外	-8.40849
理解	-8.41052
难民	-8.41282
心	-8.413
公众	-8.41373
难以	-8.41496
宣布	-8.41514
承认	-8.41566
农业	-8.418
遏制	-8.42168
▁首先	-8.42207
关键	-8.42215
全球经济	-8.42216
▁它	-8.42247
领导	-8.42348
工人	-8.42439
基础设施	-8.42685
经济体	-8.42922
全球化	-8.4294
官员	-8.42964
执行	-8.4301
发展中国家	-8.435
地位	-8.43629
预算	-8.43742
基本	-8.43828
本	-8.44299
a	-8.44588
三	-8.44789
税收	-8.44894
而言	-8.44976
数	-8.4504
十分	-8.4511
方式	-8.45144
决策者	-8.45149
产品	-8.45494
责任	-8.45535
开	-8.4556
媒体	-8.45646
依然	-8.45679
网络	-8.45778
贫困	-8.45903
o	-8.45979
爆发	-8.46042
应	-8.4613
他的	-8.46155
压力	-8.46201
发	-8.46348
之一	-8.46411
天	-8.46651
相当	-8.47308
医疗	-8.47382
P	-8.47592
后果	-8.47693
进步	-8.4774
女性	-8.47821
公共	-8.47967
鼓励	-8.4798
随着	-8.48037
开放	-8.48325
约	-8.4838
明确	-8.48506
面对	-8.48764
美国人	-8.48791
代表	-8.48926
那	-8.49082
用于	-8.49162
储蓄	-8.49434
才	-8.49506
t	-8.49597
期	-8.4967
暴力	-8.49727
选民	-8.49727
状况	-8.49855
健康	-8.49862
马	-8.49945
过度	-8.49956
发达国家	-8.50151
▁欧洲	-8.50163
衰退	-8.50208
核	-8.50299
打	-8.50318
每	-8.50465
变得	-8.50535
韩国	-8.50802
回	-8.50913
人权	-8.50972
观点	-8.5098
IMF	-8.51001
成员国	-8.51811
加强	-8.52106
率	-8.52564
手段	-8.52743
y	-8.52832
真正	-8.5301
i	-8.53466
加	-8.5347
度	-8.53501
G	-8.53528
曾	-8.53606
讨论	-8.53629
保证	-8.53649
50	-8.53673
显然	-8.53941
往往	-8.54132
公开	-8.5415
正是	-8.5444
决策	-8.54464
制	-8.54554
文化	-8.54686
债券	-8.54835
很	-8.5499
治理	-8.55163
钱	-8.55328
▁然而	-8.55588
评估	-8.55678
其他国家	-8.55825
不再	-8.55835
程度	-8.55853
允许	-8.5612
财富	-8.5616
削减	-8.56242
定	-8.56307
奥巴马	-8.56852
至	-8.56853
现代	-8.57053
拒绝	-8.57057
大约	-8.57117
赤字	-8.57287
强调	-8.57341
短期	-8.57343
外国	-8.57422
虽然	-8.57528
各	-8.57529
党	-8.57539
数量	-8.57556
A	-8.57771
人民币	-8.57783
▁对	-8.57832
就业	-8.57859
工具	-8.57873
间	-8.57884
开发	-8.57999
这一点	-8.58029
巨大	-8.58137
货币政策	-8.58149
汇率	-8.58318
整个	-8.58355
依赖	-8.58387
生活	-8.58409
处理	-8.58493
收益	-8.59008
所谓的	-8.59057
入	-8.59064
▁现在	-8.59081
多数	-8.59393
美	-8.59401
埃及	-8.59464
完成	-8.59552
时期	-8.59718
很多	-8.59782
有可能	-8.59869
走	-8.60156
疾病	-8.60217
方	-8.60274
外部	-8.60643
至少	-8.60659
强化	-8.60676
劳动力	-8.60763
流	-8.60764
承担	-8.60783
政权	-8.6095
巴基斯坦	-8.61136
我们的	-8.61371
并非	-8.61462
一位	-8.61503
消费者	-8.61545
中东	-8.61644
即使	-8.61733
平衡	-8.61753
寻求	-8.61866
成员	-8.61872
一切	-8.61909
解释	-8.62054
再次	-8.62073
形成	-8.62228
干预	-8.62255
问题上	-8.62275
治疗	-8.62357
学	-8.62562
最大的	-8.63173
部分	-8.63236
准备	-8.63281
的能力	-8.63645
专家	-8.64066
▁毕竟	-8.64219
或许	-8.64394
西	-8.64476
失败	-8.64621
真正的	-8.64961
投票	-8.65047
外交	-8.65096
数字	-8.65208
此	-8.65451
积极	-8.65566
呢	-8.65598
崩溃	-8.65852
地方	-8.6591
11	-8.66027
an	-8.66083
12	-8.66335
两个	-8.66465
州	-8.66527
制造	-8.66579
▁%	-8.66598
妇女	-8.66618
19	-8.66857
商	-8.67055
当局	-8.67087
范围	-8.6709
本身	-8.67167
时代	-8.67196
扩张	-8.67227
的目标	-8.67231
认识到	-8.67289
领袖	-8.67513
er	-8.6769
危险	-8.67709
经济学	-8.67801
2015	-8.68208
感到	-8.68259
有关	-8.68291
四	-8.68301
S	-8.68304
原则	-8.68467
进口	-8.68547
▁由于	-8.6861
支付	-8.68662
宗教	-8.68701
布	-8.68787
15	-8.6892
不可能	-8.69013
该国	-8.69067
区	-8.69082
通常	-8.69182
▁而且	-8.69222
为了	-8.69312
上的	-8.69348
根据	-8.6947
满足	-8.69484
的主要	-8.69711
表示	-8.69719
打击	-8.69745
充分	-8.70037
一致	-8.7037
基础	-8.70708
中心	-8.70898
税	-8.70985
工业	-8.7102
恢复	-8.71032
基金	-8.7111
陷入	-8.71221
阿富汗	-8.71234
有所	-8.71299
逐渐	-8.71337
左右	-8.71524
亿	-8.7161
r	-8.71699
防止	-8.71935
政党	-8.72059
达	-8.72134
明	-8.72198
年轻人	-8.72295
调查	-8.72371
▁》	-8.72602
也会	-8.72656
想要	-8.72742
证明	-8.72787
取得	-8.72886
预期	-8.72902
朝鲜	-8.72916
曾经	-8.73107
有助于	-8.7321
的风险	-8.73389
视为	-8.73528
确定	-8.73651
金融市场	-8.73728
阿根廷	-8.73868
al	-8.74012
h	-8.74239
▁目前	-8.74422
p	-8.74537
期间	-8.74605
▁发自	-8.74613
效率	-8.74634
追求	-8.748
业	-8.74877
相	-8.7509
两国	-8.75282
表现	-8.75392
西班牙	-8.75418
气	-8.75502
私人	-8.75551
处于	-8.75635
次	-8.75659
加入	-8.75694
年以来	-8.75777
B	-8.75841
灾难	-8.75897
尼	-8.7596
▁为了	-8.75964
▁它们	-8.76104
金	-8.7613
一次	-8.76268
设计	-8.76291
赢得	-8.76302
框架	-8.76418
强	-8.76506
提升	-8.76575
条约	-8.7666
共和党	-8.76686
并未	-8.76725
u	-8.7677
d	-8.76917
安	-8.77176
权利	-8.77211
大学	-8.77297
困难	-8.77299
▁最后	-8.77337
既	-8.77603
批评	-8.77606
的情况	-8.77716
结构	-8.77941
伊拉克	-8.77954
2010	-8.77975
自然	-8.78
M	-8.78154
战	-8.78169
贬值	-8.7826
而非	-8.78282
机	-8.78372
同意	-8.78374
今天	-8.7849
道	-8.78506
复杂	-8.78671
确实	-8.78816
购买	-8.78827
海	-8.78989
这是	-8.79056
思想	-8.79137
这类	-8.79208
不可	-8.79412
商品	-8.79565
议会	-8.79577
总理	-8.79582
引发	-8.79609
也在	-8.79609
90	-8.79704
达成	-8.79797
军	-8.79956
建议	-8.79985
分裂	-8.80027
过程	-8.80191
巴	-8.80254
坚持	-8.80417
分析	-8.80575
的机会	-8.80884
找到	-8.80954
提供了	-8.81077
也将	-8.81241
集团	-8.81281
格	-8.81307
俄国	-8.8138
趋势	-8.81401
伊斯兰	-8.81497
群体	-8.81661
.	-8.8167
式	-8.81676
不但	-8.81701
年前	-8.81771
线	-8.8184
军队	-8.81886
纳	-8.819
转	-8.81933
极端	-8.82083
状态	-8.8209
快速	-8.82197
老	-8.82293
特别	-8.82323
商业	-8.82338
远	-8.82359
更大的	-8.82391
规定	-8.82718
动	-8.82923
奥	-8.83281
补贴	-8.83299
复苏	-8.83331
了解	-8.83534
生产率	-8.83582
身	-8.83777
值得	-8.83942
失去	-8.84047
策略	-8.8422
负责	-8.84238
大多数	-8.84439
道德	-8.84464
的方式	-8.84489
墨西哥	-8.84517
进程	-8.84644
I	-8.84711
全面	-8.85133
联邦	-8.85185
体制	-8.85388
官方	-8.85443
在于	-8.85565
根本	-8.857
文	-8.85707
推进	-8.85709
停止	-8.8575
▁对于	-8.85773
联系	-8.85934
本国	-8.86019
金融危机	-8.86086
今年	-8.86202
情绪	-8.8634
物	-8.86362
新闻	-8.86406
转型	-8.867
类似	-8.86715
作	-8.86787
相当于	-8.86789
国际社会	-8.8681
则是	-8.87145
位	-8.87175
到了	-8.8721
利润	-8.87317
体	-8.87428
不足	-8.87608
信贷	-8.8763
18	-8.87652
现有	-8.87764
类似的	-8.87765
欧洲人	-8.87793
感	-8.88006
各种	-8.88423
武器	-8.88434
常常	-8.88467
看到	-8.88485
卫生	-8.88527
70	-8.88576
区域	-8.88577
制裁	-8.88664
c	-8.88671
更大	-8.88789
信用	-8.88802
并不是	-8.88804
福利	-8.88806
阿	-8.88859
火	-8.88867
都会	-8.88957
愿意	-8.88971
工资	-8.89082
优势	-8.89188
事实	-8.89221
好处	-8.89334
▁欧盟	-8.89402
▁正如	-8.89492
破产	-8.89639
较	-8.89799
/	-8.89864
互联网	-8.89868
全	-8.90047
冲击	-8.90111
政客	-8.90158
民粹主义	-8.90182
呼吁	-8.90188
势力	-8.90288
的观点	-8.90452
影响力	-8.90735
60	-8.9091
放弃	-8.91049
卡	-8.91055
实力	-8.91387
邻国	-8.91392
去年	-8.91626
穆斯林	-8.91779
至关重要	-8.91795
的关键	-8.91822
依靠	-8.91823
反应	-8.91868
地球	-8.91945
相比	-8.91977
经验	-8.92337
主	-8.92396
一系列	-8.92408
袭击	-8.92479
之外	-8.9251
最后	-8.92515
取	-8.92669
之中	-8.927
社区	-8.92819
错误	-8.92957
怀疑	-8.93124
流动性	-8.9324
的结果	-8.93411
事务	-8.93634
死亡	-8.93696
谁	-8.93832
40	-8.93959
协调	-8.94071
▁这种	-8.94157
普京	-8.94157
解决方案	-8.94174
它们的	-8.94183
2016	-8.94191
负	-8.94201
型	-8.94203
高达	-8.94239
欧洲的	-8.94294
in	-8.94311
空间	-8.94492
彻底	-8.94493
国会	-8.94508
制造业	-8.94561
仅仅	-8.94593
起来	-8.94676
空	-8.94687
使得	-8.94699
污染	-8.94829
局	-8.94867
攻击	-8.95152
致力于	-8.95172
消除	-8.95195
2014	-8.95216
▁那么	-8.95302
称	-8.95438
2013	-8.9551
指标	-8.95517
投入	-8.95601
▁但这	-8.95677
转向	-8.95861
民主党	-8.95867
公平	-8.95909
显著	-8.96165
很难	-8.96195
国际货币基金组织	-8.96206
的原因	-8.96338
也没有	-8.96353
从未	-8.96365
on	-8.96366
恶化	-8.9638
有着	-8.96466
迫使	-8.9658
排放	-8.96615
动荡	-8.96662
竞争力	-8.96721
公	-8.96759
方针	-8.96875
夫	-8.96886
旨在	-8.96939
成立	-8.97082
其实	-8.97195
吸引	-8.97336
主权	-8.97444
汽车	-8.9757
恐怖主义	-8.97609
出现了	-8.97678
普遍	-8.97836
罗	-8.97878
▁特别是	-8.98017
失业	-8.98059
宪法	-8.98153
人员	-8.98206
阶段	-8.98279
对其	-8.98334
门	-8.98429
光	-8.98525
维	-8.9855
的利益	-8.98621
中国经济	-8.98711
倍	-8.98721
团结	-8.9898
回报	-8.98989
市	-8.99123
亚	-8.99207
强大的	-8.99308
最大	-8.99407
任务	-8.99436
风	-8.99593
伤害	-8.99741
科	-8.99763
当地	-8.99814
任	-8.99851
未	-8.9986
引起	-8.99869
适应	-8.99881
十	-8.9993
统一	-9.00017
寻找	-9.00089
有利于	-9.00293
产业	-9.00521
80	-9.00591
就能	-9.00628
方面的	-9.00667
统治	-9.00698
路	-9.00707
也有	-9.00898
效应	-9.01042
平均	-9.01095
学习	-9.01144
显示	-9.01159
更好的	-9.01181
T	-9.01269
意	-9.01333
紧缩	-9.01359
目的	-9.01397
将在	-9.01442
知识	-9.01545
推	-9.01577
效果	-9.01581
变革	-9.01621
快	-9.01656
峰会	-9.01825
巴勒斯坦	-9.01833
▁但在	-9.01834
东	-9.02095
下跌	-9.02098
削弱	-9.02151
见	-9.02478
▁该	-9.02493
一直在	-9.02497
人士	-9.02518
问	-9.02581
口	-9.02717
▁因为	-9.02755
所带来的	-9.02767
理论	-9.0282
北约	-9.02955
要么	-9.02976
足够	-9.0302
国家的	-9.03049
这意味着	-9.03103
信心	-9.03135
万亿美元	-9.03195
的增长	-9.03244
ar	-9.03252
先	-9.03315
障碍	-9.03518
越	-9.03685
几	-9.03726
的全球	-9.03775
正式	-9.04
化石燃料	-9.04073
疫苗	-9.04075
但却	-9.04167
联合	-9.04259
那就是	-9.04271
死	-9.04282
也可以	-9.04303
一份	-9.04388
农民	-9.04456
自我	-9.04465
取决于	-9.045
负担	-9.04608
▁这是	-9.04619
广泛	-9.04766
波	-9.04813
当时	-9.04821
f	-9.04823
边境	-9.04848
实	-9.04885
股市	-9.04892
资本主义	-9.0499
▁结果	-9.05095
得多	-9.05132
g	-9.05174
缅甸	-9.05198
讲	-9.05406
变	-9.05567
这样做	-9.05568
缺少	-9.05578
假设	-9.05579
身份	-9.05579
技能	-9.0573
所需要的	-9.0578
的一个	-9.05805
事实上	-9.05826
▁例如	-9.05828
盟友	-9.05955
即将	-9.05987
难	-9.0602
协定	-9.06023
将是	-9.06227
另一个	-9.06286
提振	-9.06336
激励	-9.06443
秩序	-9.06586
2012	-9.06666
工程	-9.06738
大幅	-9.0683
新兴市场	-9.06895
极	-9.06969
在美国	-9.07087
监督	-9.071
质疑	-9.07101
总是	-9.07193
核武器	-9.07225
了一个	-9.07284
符合	-9.07323
D	-9.0736
生命	-9.07415
未能	-9.07433
半	-9.07616
对话	-9.07718
这场	-9.0773
核心	-9.07766
可以通过	-9.07775
的支持	-9.07796
发达经济体	-9.0788
退出	-9.07892
n	-9.08026
十年	-9.08069
▁据	-9.08084
交	-9.08131
论	-9.08169
立法	-9.08175
被迫	-9.08249
指责	-9.0826
增强	-9.08307
的核心	-9.08404
遭到	-9.08503
构建	-9.08545
程序	-9.08762
持有	-9.08776
实际上	-9.08838
食品	-9.08848
b	-9.08868
正确	-9.09174
的作用	-9.09203
加剧	-9.09321
约束	-9.09413
预计	-9.09443
部	-9.0945
学生	-9.09643
E	-9.09657
世界银行	-9.09738
不平等	-9.09821
值	-9.09977
增加了	-9.09994
只要	-9.10037
民族	-9.10125
发挥	-9.10167
这些国家	-9.10192
太	-9.10199
伦敦	-9.1023
立场	-9.10258
▁同样	-9.1036
的可能性	-9.10475
面临着	-9.10545
进展	-9.10545
速度	-9.10547
混乱	-9.10617
对此	-9.10793
民族主义	-9.10886
真实	-9.10904
差异	-9.11019
F	-9.11038
仅	-9.11119
采用	-9.11158
尤其	-9.11185
2007	-9.11428
五	-9.11561
进	-9.11574
看来	-9.11609
大国	-9.11626
艾滋病	-9.1181
带来了	-9.11949
增长率	-9.1199
苏联	-9.12067
情	-9.1217
禁止	-9.1222
模型	-9.12222
界	-9.1224
多少	-9.12374
尽	-9.12441
的同时	-9.12446
2000	-9.12494
接近	-9.1252
▁根据	-9.12634
斗争	-9.12653
一体化	-9.1277
供给	-9.12827
就像	-9.1288
工	-9.12899
处	-9.12903
不愿	-9.12958
科技	-9.12964
▁一个	-9.12998
▁包括	-9.1302
的未来	-9.13039
实行	-9.13058
正如	-9.13087
土地	-9.13124
平等	-9.13221
最重要的	-9.13222
▁不幸的是	-9.13314
得到了	-9.13346
穷人	-9.13393
病	-9.13528
产出	-9.13721
潜在	-9.13746
米	-9.13789
智利	-9.13855
内容	-9.13864
合	-9.13897
一年	-9.1392
此前	-9.14314
基	-9.14349
问题是	-9.14359
强大	-9.14438
便	-9.14527
重要的	-9.14546
警告	-9.14604
遭受	-9.14616
泡沫	-9.14628
研发	-9.14705
25	-9.14734
为何	-9.14743
"	-9.14773
加速	-9.14893
股票	-9.14988
▁即使	-9.15028
通	-9.15047
的一部分	-9.15275
种	-9.15291
形式	-9.15324
价	-9.15394
性的	-9.15427
分歧	-9.15505
电	-9.15682
后者	-9.1579
不到	-9.1583
哈	-9.15848
随后	-9.15858
明显	-9.16002
转移	-9.16007
还要	-9.16041
相反	-9.16105
▁但如果	-9.16134
选	-9.16157
二	-9.16228
供应	-9.16248
访问	-9.16348
所面临的	-9.16363
都在	-9.16408
▁中国的	-9.16467
意识到	-9.16483
估计	-9.1651
▁许多	-9.16621
得以	-9.16739
以上	-9.1675
怎样	-9.16765
导致了	-9.16767
波兰	-9.16773
争论	-9.16813
级	-9.16936
学校	-9.17153
发行	-9.17175
争议	-9.17184
21	-9.17423
集中	-9.17434
因为它	-9.17485
角色	-9.17493
合理	-9.17541
某种	-9.17609
职	-9.17763
2009	-9.17806
与美国	-9.17824
这次	-9.17847
梅	-9.18042
放	-9.18101
永远	-9.18135
精英	-9.18163
中央银行	-9.18193
均	-9.18196
波动	-9.18254
很可能	-9.18273
报	-9.18364
的那样	-9.1843
展开	-9.18474
▁类似地	-9.18476
新兴经济体	-9.18486
深	-9.18637
走向	-9.18644
经济发展	-9.18722
的行为	-9.18774
亲	-9.1881
布什	-9.18836
车	-9.18872
它的	-9.18958
衡量	-9.18959
该地区	-9.18994
动力	-9.19011
对中国	-9.1908
是因为	-9.19101
额	-9.19212
充满	-9.19236
落	-9.19329
100	-9.19334
平台	-9.19349
分配	-9.19568
女	-9.19648
▁英国	-9.19653
就必须	-9.19679
可持续	-9.19684
方向	-9.19745
语	-9.19745
没	-9.19881
上涨	-9.19934
N	-9.19988
▁通过	-9.20044
可以在	-9.20074
能否	-9.20203
乐观	-9.2021
克服	-9.20216
年间	-9.20248
转变	-9.20531
集体	-9.20606
通缩	-9.20648
领土	-9.20725
最高	-9.20732
阿拉伯	-9.20779
代	-9.20962
为什么	-9.20966
许多人	-9.20973
2011	-9.2098
旧	-9.2105
不确定性	-9.2107
平	-9.21076
态度	-9.21155
▁-	-9.21394
花	-9.21459
升级	-9.21534
的发展	-9.21537
明白	-9.21726
简单	-9.21746
的社会	-9.21823
比例	-9.21892
大选	-9.21904
碳	-9.21954
书	-9.22005
提出了	-9.22322
写	-9.22379
迪	-9.22402
对美国	-9.22458
发表	-9.22466
贡献	-9.22603
少	-9.22613
意义	-9.2265
批准	-9.22727
是在	-9.22732
条	-9.22847
日程	-9.22884
众多	-9.22891
言	-9.22908
前景	-9.22937
声	-9.23168
大型	-9.23257
萨	-9.2328
宣称	-9.23319
天然气	-9.2332
▁其次	-9.23339
犯罪	-9.23449
所造成的	-9.23452
容易	-9.23496
世	-9.23515
崛起	-9.2363
传播	-9.23772
诸多	-9.23794
获得了	-9.2386
场	-9.23874
的努力	-9.23962
记者	-9.23989
金融机构	-9.23992
外交政策	-9.24157
特别是在	-9.24162
尊重	-9.24229
当选	-9.24374
相互	-9.24543
思维	-9.24665
重组	-9.24796
候选人	-9.2495
▁作为	-9.25032
一起	-9.25067
形势	-9.25145
零	-9.2533
同时也	-9.25387
en	-9.25458
反映了	-9.25469
举行	-9.25472
我们必须	-9.25477
有效的	-9.25508
记录	-9.25538
经常	-9.25584
必要	-9.25642
全球变暖	-9.25645
高度	-9.25684
现象	-9.25704
表现出	-9.25723
具体	-9.25728
热	-9.25788
的长期	-9.25874
计算	-9.25922
习近平	-9.25976
岁	-9.26002
捍卫	-9.26064
担任	-9.26096
促使	-9.26106
犯	-9.26147
东盟	-9.26281
500	-9.26354
的承诺	-9.26409
精神	-9.26414
癌症	-9.26511
奇	-9.26519
首	-9.26582
失业率	-9.2661
今天的	-9.26613
储备	-9.26945
安排	-9.27007
▁这意味着	-9.27055
然	-9.27149
欧盟委员会	-9.2726
接	-9.27378
竞选	-9.27439
雷	-9.27447
妥协	-9.27466
缓慢	-9.27467
规划	-9.27467
▁最近	-9.27552
并在	-9.27581
将其	-9.27605
质量	-9.27846
粮食	-9.27944
特征	-9.27949
总体	-9.27989
局面	-9.27991
美国经济	-9.2801
有人	-9.28018
不管	-9.28158
代价	-9.28283
首先	-9.28404
给予	-9.28421
真的	-9.28872
伊	-9.28875
瓦	-9.28881
克林顿	-9.28887
遭遇	-9.28915
最为	-9.28971
的国际	-9.28976
双方	-9.29095
取代	-9.29143
干	-9.29161
作出	-9.29169
案	-9.29211
k	-9.2928
不应该	-9.29296
岛	-9.29343
山	-9.29348
哥伦比亚	-9.29366
违约	-9.29369
O	-9.29374
不得不	-9.29483
往	-9.29539
低于	-9.29657
摆脱	-9.29701
调	-9.29702
取消	-9.29709
开支	-9.29758
住	-9.29858
教	-9.29862
一点	-9.30034
掉	-9.30321
巨额	-9.30335
失	-9.3035
科学家	-9.30392
提	-9.30402
自身的	-9.30465
应用	-9.30471
有些	-9.30515
劳动力市场	-9.30549
▁尽管如此	-9.3055
采取行动	-9.30597
▁与	-9.30697
严重的	-9.30776
替代	-9.30786
▁其中	-9.30834
这个问题	-9.30858
的做法	-9.30872
多边	-9.30904
▁人们	-9.31011
产量	-9.3113
L	-9.31154
变得更加	-9.31196
放缓	-9.31243
世界经济	-9.31281
缺陷	-9.31339
的投资	-9.31344
连	-9.31396
毫无	-9.31425
大大	-9.31454
被视为	-9.3147
成就	-9.31536
服务业	-9.31547
才是	-9.31572
▁伦敦	-9.31779
中产阶级	-9.31793
支撑	-9.31793
当今	-9.31887
种族	-9.31924
年来	-9.31943
全部	-9.31976
一条	-9.32015
共识	-9.3207
这项	-9.32113
经历	-9.32133
收	-9.32154
员	-9.32175
托	-9.32259
林	-9.32276
尝试	-9.32286
人工智能	-9.32287
海外	-9.32474
or	-9.32491
早已	-9.32545
白	-9.32712
问题的	-9.3273
培训	-9.32753
领	-9.3276
通货膨胀	-9.32761
纽约	-9.32846
信任	-9.32853
▁纽约	-9.32964
还没有	-9.32975
▁自	-9.32976
是一种	-9.3302
富	-9.33045
否则	-9.33051
费	-9.33123
2%	-9.3313
中国领导人	-9.3326
报道	-9.3326
抵制	-9.33283
对抗	-9.33286
关	-9.333
英	-9.33331
所谓	-9.33354
来源	-9.33366
就可以	-9.33435
指数	-9.33452
▁去年	-9.33472
也不	-9.33691
假	-9.33725
签署	-9.33733
对手	-9.33764
宣传	-9.33779
最近的	-9.338
第	-9.33882
可能是	-9.33891
比较	-9.33959
年后	-9.34101
民主国家	-9.34214
差	-9.34218
无论	-9.34229
绿色	-9.34242
跟	-9.34243
思考	-9.3425
照	-9.34256
姆	-9.34281
辩论	-9.34284
回归	-9.34299
债权人	-9.34309
之所以	-9.34323
项	-9.3433
地区的	-9.3453
主席	-9.34558
两大	-9.3459
▁除了	-9.34612
担忧	-9.34671
%	-9.34672
紧	-9.34701
尤其是	-9.34723
让我们	-9.3473
当然	-9.34779
整体	-9.3479
具备	-9.34847
生活在	-9.34931
房地产	-9.34941
国外	-9.34948
▁%)	-9.3504
理由	-9.35128
一般	-9.352
回到	-9.35273
品	-9.35275
惩罚	-9.35294
维护	-9.35298
医生	-9.35301
承受	-9.35316
2005	-9.35323
▁其	-9.35448
造成了	-9.35452
伙伴	-9.35477
进行了	-9.35608
离	-9.3578
吉	-9.35802
互相	-9.35812
关税	-9.35872
事情	-9.3595
价值观	-9.35995
超	-9.36003
属于	-9.36117
J	-9.36308
澳大利亚	-9.36317
经营	-9.36323
地缘政治	-9.36342
美国总统	-9.364
倒	-9.36446
忽视	-9.36447
更高的	-9.36553
孩子	-9.36688
几个	-9.36693
经	-9.36835
当前的	-9.36837
民	-9.36843
指	-9.36871
中国政府	-9.36906
图	-9.3693
华	-9.36963
类	-9.37007
脆弱	-9.37046
早	-9.37052
在其	-9.37074
在欧洲	-9.37233
公投	-9.37347
重建	-9.3739
电力	-9.37396
更高	-9.37539
净	-9.37569
脱欧	-9.37712
▁以	-9.37735
困境	-9.37856
局势	-9.37875
语言	-9.37883
团体	-9.379
国有企业	-9.37915
信	-9.3802
现金	-9.38061
el	-9.38165
本地	-9.38296
所有人	-9.38338
换	-9.38346
操纵	-9.38347
新加坡	-9.38395
掌握	-9.38395
重点	-9.38401
分子	-9.38419
的欧洲	-9.38456
差距	-9.3851
都有	-9.38517
南	-9.38617
香港	-9.38633
不同的	-9.38718
镇压	-9.38922
以前	-9.38934
可再生能源	-9.38957
是为了	-9.38989
▁以及	-9.39047
的战略	-9.39063
第一	-9.39076
的政府	-9.39093
的压力	-9.39115
的关系	-9.39125
教训	-9.39188
药	-9.3938
指导	-9.39453
全国	-9.39536
六	-9.39553
激进	-9.3963
保险	-9.39703
成果	-9.39747
北京	-9.39747
胜利	-9.39802
在过去	-9.39815
成了	-9.39819
执政	-9.39843
基因	-9.39865
主导	-9.39933
▁同时	-9.40112
活力	-9.40285
正确的	-9.40345
量化宽松	-9.40379
and	-9.40404
留	-9.40484
唯一	-9.40499
阻碍	-9.40504
瑞典	-9.40517
▁《	-9.40531
的需求	-9.40621
知	-9.40631
启动	-9.40659
部长	-9.40763
同样的	-9.4084
的重要性	-9.40859
流动	-9.40876
居民	-9.40886
测试	-9.41011
▁诚然	-9.41055
条款	-9.41061
东亚	-9.41073
坏	-9.41185
除	-9.41248
绝对	-9.41259
未来的	-9.41278
千	-9.41329
还会	-9.41382
一家	-9.41407
议程	-9.41439
▁上述	-9.41535
爱尔兰	-9.41539
现状	-9.41553
m	-9.41559
协助	-9.41595
委内瑞拉	-9.41595
短缺	-9.41597
边界	-9.41692
在未来	-9.41699
仍在	-9.41706
罪	-9.41741
各国政府	-9.41753
▁S	-9.41872
理	-9.41895
看起来	-9.41896
比率	-9.41902
一旦	-9.41927
普	-9.42067
的重要	-9.42104
百	-9.42249
办法	-9.42284
周期	-9.42493
不要	-9.42506
按	-9.42675
加拿大	-9.42685
客户	-9.42687
2006	-9.42709
患者	-9.42741
足够的	-9.42753
ing	-9.42792
手中	-9.42817
原	-9.42892
历史上	-9.42895
▁而在	-9.42954
采取了	-9.43097
▁特朗普	-9.43147
第二	-9.43223
尚未	-9.43244
推行	-9.43269
也无法	-9.43356
三个	-9.43358
结构性	-9.43422
潜力	-9.43501
普通	-9.43618
欢迎	-9.43692
R	-9.43694
除了	-9.43705
危险的	-9.43716
管制	-9.43758
月份	-9.43928
之下	-9.43962
靠	-9.44209
将继续	-9.44218
农村	-9.44252
法院	-9.44314
曼	-9.4434
参加	-9.44357
都将	-9.44401
出于	-9.44438
产生了	-9.44458
H	-9.44485
归	-9.44533
越南	-9.4462
定义	-9.44641
▁of	-9.44858
理念	-9.44869
拯救	-9.4489
主张	-9.449
突然	-9.44903
药物	-9.44916
陷入了	-9.45051
▁这个	-9.45087
▁并且	-9.45097
构成	-9.45147
不仅仅是	-9.45161
监管者	-9.45243
有一个	-9.45268
也是如此	-9.4535
负债	-9.45451
过于	-9.45517
政府的	-9.45754
人数	-9.45776
▁如	-9.45791
投资于	-9.45801
非法	-9.45828
买	-9.45952
肯定	-9.45978
拜	-9.46014
生物	-9.46084
塔	-9.46107
近期	-9.46125
她们	-9.46244
的东西	-9.46275
身上	-9.46404
司法	-9.4657
莫	-9.46578
埃尔多安	-9.46596
煤炭	-9.46596
消失	-9.46601
然后	-9.46602
道路	-9.46605
首次	-9.46615
前所未有的	-9.46683
▁实际上	-9.46688
足以	-9.46689
在内的	-9.4683
步	-9.47031
劳动	-9.47043
仅仅是	-9.47059
有了	-9.47125
一半	-9.47159
表	-9.47162
实验	-9.47165
证据	-9.47228
的方法	-9.47232
现代化	-9.47312
清	-9.47352
观	-9.47375
最新	-9.47401
党派	-9.47416
命	-9.47463
产	-9.47488
要比	-9.47495
w	-9.47663
抑制	-9.47673
刚刚	-9.47718
肯尼亚	-9.47744
2017	-9.47758
仍然是	-9.47804
位于	-9.47863
的工作	-9.47897
政治家	-9.48033
不受	-9.48087
的地方	-9.48101
▁也许	-9.48106
统计	-9.48223
算	-9.4827
古	-9.48271
员工	-9.48337
z	-9.48376
起到	-9.48613
合法	-9.4873
矛盾	-9.48902
荷兰	-9.48902
愿景	-9.48903
已经开始	-9.48906
是如此	-9.491
发生了	-9.49133
说服	-9.49135
队	-9.49153
当中	-9.49206
有限	-9.49277
也就是	-9.49342
存	-9.49344
一名	-9.49377
我的	-9.49409
爱	-9.49456
举措	-9.49462
引入	-9.49674
实现了	-9.49707
概念	-9.49764
油	-9.49809
目前的	-9.4988
所需的	-9.49946
另一	-9.49981
过程中	-9.49995
轮	-9.50031
住房	-9.50082
▁只有	-9.50086
超越	-9.50088
2020	-9.50099
可能导致	-9.50133
1990	-9.50142
理想	-9.50158
巩固	-9.50216
东西	-9.50263
的威胁	-9.50286
国民	-9.50358
哪些	-9.50667
造	-9.50695
私人部门	-9.50733
的变化	-9.5079
视	-9.50811
边	-9.50829
单一	-9.50913
的措施	-9.50972
建	-9.51005
l	-9.51049
糟糕	-9.51219
个国家	-9.51268
万人	-9.51404
职业	-9.5144
▁即	-9.51482
极为	-9.51515
增	-9.51635
联	-9.51639
特殊	-9.51671
眼	-9.51734
错	-9.5174
廉价	-9.51761
不平等性	-9.51779
亿美元的	-9.51785
人均	-9.51791
拉美	-9.51846
阵营	-9.51862
回答	-9.51864
生存	-9.51882
回应	-9.51922
17	-9.51937
人们对	-9.52007
的研究	-9.52022
▁今天	-9.52197
▁G	-9.52216
在中国	-9.52434
听	-9.52438
共	-9.5245
潮	-9.52458
扭曲	-9.52463
声称	-9.52551
资产负债表	-9.52738
我们需要	-9.53017
恐慌	-9.53069
拉丁美洲	-9.53069
疲软	-9.53071
欧盟成员国	-9.53079
交通	-9.53086
一套	-9.53173
除非	-9.53281
几年	-9.53368
减	-9.53376
理性	-9.53508
双边	-9.5356
的权利	-9.53622
器	-9.53648
因为他们	-9.53666
抵消	-9.5368
话	-9.53893
建筑	-9.53915
中国人	-9.5396
▁A	-9.54011
真	-9.54039
渠道	-9.54177
与其	-9.54195
会导致	-9.54223
的挑战	-9.54243
的反应	-9.5425
▁一些	-9.5427
的基础	-9.5427
哈马斯	-9.54292
认定	-9.54297
非洲国家	-9.5432
出来	-9.54462
失衡	-9.5463
让他们	-9.54646
创造了	-9.54649
持	-9.54703
的生活	-9.54741
必要的	-9.54791
正常	-9.54799
的态度	-9.54851
二氧化碳	-9.54894
年轻	-9.54903
谨慎	-9.54919
出售	-9.54929
在线	-9.5503
表达	-9.551
入侵	-9.55236
是个	-9.55303
都没有	-9.55342
血	-9.5551
海洋	-9.55534
2004	-9.55557
法庭	-9.55606
的地位	-9.55679
南非	-9.55691
高于	-9.55849
反对派	-9.55892
直到	-9.55927
层面	-9.55935
中国在	-9.55997
没能	-9.56006
严格	-9.56025
索	-9.56039
活	-9.56058
也应该	-9.56069
诊断	-9.56157
操作	-9.56171
打破	-9.56173
额外	-9.56188
纳入	-9.56195
两年	-9.56229
此次	-9.56319
称为	-9.5633
终于	-9.56392
网	-9.56542
已经在	-9.56544
的时间	-9.56635
机器	-9.56657
带来的	-9.56665
远远	-9.56686
警察	-9.56784
逻辑	-9.56784
渴望	-9.56785
指控	-9.56789
14	-9.56806
造成的	-9.56928
▁在美国	-9.57096
的成功	-9.57117
几十年	-9.57205
常规	-9.57232
支持者	-9.57271
有能力	-9.57397
色	-9.57406
共产主义	-9.57417
消灭	-9.57419
的数据	-9.57428
外汇储备	-9.57432
帝国	-9.5744
强硬	-9.57482
付出	-9.57563
带	-9.57616
欧盟的	-9.57673
2030	-9.5769
一步	-9.57714
升高	-9.5776
巴黎	-9.57765
究竟	-9.57811
其它	-9.57891
组	-9.57945
一国	-9.57955
退	-9.5798
~	-9.58054
放松	-9.58058
森林	-9.58061
单	-9.58075
期望	-9.58075
电视	-9.58126
若	-9.58207
式的	-9.58226
举	-9.58306
无力	-9.58318
新兴	-9.58351
之上	-9.5838
义务	-9.58565
的成本	-9.58618
业务	-9.5863
感染	-9.58695
很多人	-9.58696
台湾	-9.58697
跨国	-9.58729
之处	-9.58734
全新	-9.5877
覆盖	-9.58816
反映	-9.58819
列	-9.58826
发生在	-9.58853
预防	-9.58946
兰	-9.59046
货币联盟	-9.59091
成功的	-9.59285
▁那些	-9.59291
放在	-9.59303
动作	-9.59333
财务	-9.59343
股东	-9.59348
10%	-9.5938
合法性	-9.59381
大萧条	-9.59406
第一次	-9.59408
即便	-9.59518
为此	-9.5959
例如	-9.59593
势	-9.59633
别	-9.59702
现	-9.59768
立	-9.59771
各方	-9.5996
盈余	-9.59976
利比亚	-9.5999
突破	-9.59991
切	-9.60018
le	-9.60067
台	-9.60107
任命	-9.60112
的危险	-9.60119
绝大多数	-9.60159
没有什么	-9.60216
按照	-9.60219
之路	-9.60381
2001	-9.60412
和社会	-9.60511
欧洲国家	-9.60561
升值	-9.60566
恶	-9.60566
部队	-9.60617
纷纷	-9.60643
喜欢	-9.60653
答案	-9.60668
还需要	-9.6074
五年	-9.60814
求	-9.60822
▁今年	-9.60921
首相	-9.61057
意见	-9.6112
小时	-9.61123
更好	-9.61146
票	-9.61254
异	-9.61256
默克尔	-9.613
菲律宾	-9.61301
积累	-9.61302
资助	-9.61303
保留	-9.61333
主流	-9.61338
减速	-9.6146
的说法	-9.61512
都要	-9.61536
的后果	-9.61604
加以	-9.61672
所在	-9.61735
解	-9.61768
选项	-9.61836
考虑到	-9.61895
达到了	-9.61935
害	-9.61952
遵守	-9.61964
逐步	-9.61967
▁政府	-9.62025
运作	-9.62028
士	-9.62059
争取	-9.62069
很大	-9.62107
地方政府	-9.62127
停滞	-9.62203
例子	-9.62284
组成	-9.62294
这一问题	-9.62456
击	-9.62538
断	-9.62574
经历了	-9.62581
梦	-9.62601
紧急	-9.62621
省	-9.62623
黎巴嫩	-9.6263
早期	-9.62655
致	-9.62747
的担忧	-9.62751
▁换句话说	-9.62792
的速度	-9.62799
不利	-9.63053
几个月	-9.63125
投	-9.63174
也不会	-9.63198
一直是	-9.63205
吸收	-9.63302
大陆	-9.63307
很快	-9.63342
下降到	-9.63395
居	-9.63445
更好地	-9.63487
影响到	-9.63502
越来越多的	-9.63526
让人	-9.63585
据	-9.6359
re	-9.63678
以便	-9.63704
营	-9.63715
3%	-9.63733
情况下	-9.63779
强烈	-9.63948
麻烦	-9.6396
朋友	-9.63977
的例子	-9.64014
特定	-9.64054
组合	-9.64085
ur	-9.64085
在今年	-9.64089
部署	-9.64107
常	-9.64141
金融体系	-9.64179
唯一的	-9.64274
最好	-9.64282
布鲁塞尔	-9.64304
之时	-9.64424
财政政策	-9.64424
16	-9.64507
神	-9.64521
传	-9.6453
强制	-9.64536
流向	-9.64569
发布	-9.64588
感觉	-9.64602
紧张	-9.64608
的崛起	-9.64612
世界上	-9.64614
借贷	-9.64621
救	-9.64641
谴责	-9.64657
谷歌	-9.64659
经过	-9.6475
的立场	-9.64857
排	-9.64877
中期	-9.64885
宏观经济	-9.65028
▁不管	-9.65053
200	-9.65063
黑	-9.65124
美国政府	-9.6513
而不	-9.65211
说明	-9.6522
朝	-9.65269
坐	-9.65335
尼日利亚	-9.65342
科索沃	-9.65342
▁或者	-9.6544
的行动	-9.65481
想象	-9.6566
的地区	-9.65667
流行	-9.65701
▁这样的	-9.65853
只会	-9.65939
释放	-9.65962
愤怒	-9.65964
的改革	-9.6602
称之为	-9.66032
循环	-9.66032
引导	-9.66054
▁只要	-9.66085
▁不过	-9.66151
信号	-9.66235
▁显然	-9.66236
许多国家	-9.6631
人群	-9.6635
源	-9.66376
政	-9.66379
紧迫	-9.66426
不必	-9.66448
武装	-9.66651
▁没有	-9.6668
专业	-9.66688
恩	-9.66702
的世界	-9.66724
准确	-9.66727
减轻	-9.66732
合理的	-9.66737
南部	-9.66741
获胜	-9.6675
但在	-9.66784
法治	-9.66791
主义者	-9.66797
用户	-9.66798
任期	-9.6694
优先	-9.66953
透明	-9.67012
印	-9.67028
拿出	-9.67102
很少	-9.67141
新技术	-9.6717
▁鉴于	-9.67247
与中国	-9.67282
占领	-9.67315
取得了	-9.67334
心理	-9.67376
贫穷	-9.67423
最低	-9.67425
缓解	-9.67428
设备	-9.67428
艰难	-9.67431
损害	-9.67439
经济衰退	-9.67454
房	-9.67664
反而	-9.67703
年底	-9.67788
借	-9.67961
抗	-9.67996
真相	-9.68031
深入	-9.68124
减税	-9.68149
后的	-9.68153
个体	-9.6816
▁20	-9.68228
库	-9.68283
成功地	-9.68315
可持续发展	-9.68352
太多	-9.68359
例	-9.68386
伙伴关系	-9.68388
对待	-9.68399
也必须	-9.6844
保障	-9.68542
建立一个	-9.68546
某个	-9.68599
塞	-9.68601
防	-9.68635
运行	-9.68642
经济复苏	-9.68819
城	-9.68824
唐纳德	-9.6884
饱受	-9.68843
总额	-9.68884
底	-9.68971
政府和	-9.68973
院	-9.68979
保护主义	-9.69049
不够	-9.69076
担保	-9.69127
有时	-9.69131
的权力	-9.69144
更有	-9.69147
ra	-9.69246
的责任	-9.69466
相关的	-9.69506
每个	-9.69532
毒品	-9.69554
功能	-9.6959
的价格	-9.69592
制约	-9.69619
的确	-9.69677
深度	-9.69707
不少	-9.6975
5%	-9.69879
主要是	-9.69916
左翼	-9.69925
加大	-9.69926
▁要	-9.69943
时刻	-9.69949
层	-9.69968
市场的	-9.6998
并将	-9.70064
下来	-9.70067
双	-9.70097
准	-9.70105
息	-9.70143
法案	-9.70175
公正	-9.70206
飞	-9.70234
赋予	-9.70273
立刻	-9.70278
恐怖分子	-9.7028
可能性	-9.70282
获取	-9.70282
太阳能	-9.7031
青年	-9.70375
各个	-9.70537
集中在	-9.70616
形	-9.70617
不稳定	-9.70634
冷战	-9.7073
计	-9.70779
所以	-9.70797
优	-9.70822
涉及	-9.70886
鲁	-9.70977
抗议	-9.70983
动物	-9.71033
存款	-9.71128
油价	-9.71242
发动	-9.71275
的角色	-9.71296
数百万	-9.71358
的力量	-9.71421
将成为	-9.71611
到来	-9.71649
暂时	-9.7168
抓住	-9.71717
怀	-9.71719
抗生素	-9.71725
结核病	-9.71727
▁幸运的是	-9.71728
声明	-9.71741
兑现	-9.71745
男性	-9.7177
和政治	-9.71803
at	-9.71805
还能	-9.719
我们可以	-9.71992
给了	-9.72012
而这	-9.72024
河	-9.72137
学者	-9.72204
财	-9.72311
也可能	-9.72363
布什政府	-9.7238
受到了	-9.72383
款	-9.72415
已经成为	-9.72418
端	-9.72438
论坛	-9.72452
逆转	-9.72468
专注于	-9.72471
日渐	-9.72476
响应	-9.72498
驱动	-9.72573
下滑	-9.72597
弱	-9.72599
13	-9.72613
可持续性	-9.72662
一开始	-9.72682
其他人	-9.72795
整合	-9.72799
显	-9.72828
这两个	-9.72853
运用	-9.7295
房价	-9.72989
官僚	-9.73001
不太可能	-9.73127
破	-9.73162
洛	-9.7319
悲剧	-9.73204
费用	-9.73298
ic	-9.73299
▁P	-9.73328
以及其他	-9.7337
生产力	-9.73378
泰国	-9.736
推翻	-9.7372
那个	-9.73752
的理由	-9.73761
行政	-9.73765
过渡	-9.73773
脱离	-9.7383
考验	-9.7395
敏感	-9.73952
改进	-9.73964
的债务	-9.74004
领域的	-9.7404
言论	-9.74128
机器人	-9.74134
痛苦	-9.74195
工业化	-9.74255
as	-9.74292
短	-9.74475
的历史	-9.74496
和美国	-9.74502
显得	-9.74624
杠杆	-9.74633
那里	-9.74665
尚	-9.74686
距离	-9.74702
三分之一	-9.74709
觉得	-9.74723
亿欧元	-9.74761
资本市场	-9.7477
降低了	-9.74792
是由	-9.74854
的好处	-9.75077
发电	-9.75105
的事实	-9.75155
周	-9.75202
在全球	-9.75208
吸引力	-9.75236
偿还	-9.75246
无疑	-9.75257
出了	-9.7526
对外	-9.75315
W	-9.75332
右翼	-9.75336
的经验	-9.75382
诺	-9.75442
补偿	-9.75459
共享	-9.7546
重塑	-9.75461
死刑	-9.75466
300	-9.75475
古巴	-9.75479
伊斯兰教	-9.7548
烟草	-9.75492
小组	-9.75493
那种	-9.75497
绝非	-9.75604
这些问题	-9.75663
很有可能	-9.75679
土	-9.75817
▁德国	-9.75823
可靠	-9.75895
禁	-9.75901
▁第三	-9.75931
广	-9.75964
目的是	-9.76007
东欧	-9.76095
精	-9.76122
莱	-9.76128
多年	-9.76134
垄断	-9.76167
的大	-9.76181
石	-9.76202
疟疾	-9.76222
埃塞俄比亚	-9.76222
简言之	-9.76223
急剧	-9.76226
纠正	-9.76231
普及	-9.7629
原因是	-9.76298
失去了	-9.76327
的最新	-9.76395
毒	-9.7645
观念	-9.76453
经济政策	-9.76495
1%	-9.76536
不需要	-9.76621
从事	-9.76622
生活水平	-9.76629
恐惧	-9.76649
中间	-9.76656
面前	-9.7667
中共	-9.76764
的价值	-9.76839
俄	-9.76876
组成的	-9.7692
年中	-9.7694
伦	-9.76975
▁K	-9.76986
▁印度	-9.7699
公约	-9.77057
延长	-9.77058
事业	-9.77066
强势	-9.7707
片	-9.77271
幅度	-9.77314
摧毁	-9.77316
离开	-9.77348
的资金	-9.77378
扮演	-9.77452
农	-9.77511
财政部长	-9.77521
消息	-9.77559
资产价格	-9.7758
的任务	-9.77588
教育和	-9.77632
应该是	-9.77633
管	-9.77715
在很大程度上	-9.77716
勒	-9.77759
燃料	-9.77759
班	-9.77762
融入	-9.77772
评论	-9.77782
权威	-9.77787
会在	-9.77799
规范	-9.77804
会议上	-9.77825
变成	-9.77838
下去	-9.7785
引发了	-9.78035
战斗	-9.78036
th	-9.78057
发出	-9.78076
实体	-9.781
人物	-9.78216
他人	-9.78257
es	-9.78268
物质	-9.78347
月的	-9.7848
还必须	-9.78514
高级	-9.78514
的法律	-9.78524
降	-9.78547
判断	-9.7855
设立	-9.78552
授权	-9.78555
不应	-9.78633
年度	-9.78644
保守党	-9.78743
富人	-9.78808
不满	-9.78869
病毒	-9.78899
届	-9.7896
独	-9.78973
孤立	-9.78991
举行的	-9.79051
合同	-9.79127
欧洲议会	-9.79144
独裁	-9.79227
户	-9.79234
易	-9.79311
K	-9.79324
森	-9.79325
便是	-9.79331
看上去	-9.79336
僵局	-9.79337
否认	-9.79348
领导层	-9.7936
发明	-9.79397
这个国家	-9.79419
成长	-9.79448
也能	-9.7947
因为它们	-9.79477
内战	-9.79594
北	-9.79615
境	-9.79626
落实	-9.79628
▁当时	-9.79634
加上	-9.79695
认识	-9.79698
经济表现	-9.79916
包含	-9.79945
灵活	-9.79964
文明	-9.79965
ne	-9.7997
意识形态	-9.80019
埃博拉	-9.80121
晚	-9.80128
葡萄牙	-9.80128
塞尔维亚	-9.80129
注入	-9.80137
第一个	-9.80137
2003	-9.80142
步骤	-9.80143
的事情	-9.80156
分别	-9.8016
重视	-9.80167
法官	-9.80169
▁欧洲的	-9.80275
质	-9.8042
能在	-9.80461
很容易	-9.80515
引起了	-9.80578
世界各国	-9.80608
的唯一	-9.80617
良好的	-9.80622
他在	-9.80824
35	-9.80826
的技术	-9.80836
某	-9.80866
赫	-9.80892
披露	-9.80929
医院	-9.80932
修改	-9.80933
V	-9.80943
何种	-9.80945
群众	-9.80956
2002	-9.80976
自动化	-9.8098
滥用	-9.80989
都必须	-9.81041
发起	-9.81064
开展	-9.81178
这样一个	-9.81178
英国退欧	-9.81212
蒙	-9.81243
一些国家	-9.81257
纳税人	-9.81262
能让	-9.8128
温和	-9.81355
但它	-9.81416
转移到	-9.81478
铁	-9.8149
所有人都	-9.81504
个月	-9.81523
更快	-9.81541
预	-9.81585
恐怖	-9.81589
▁非洲	-9.81637
以下	-9.81671
证券	-9.8168
▁除非	-9.8169
纳粹	-9.81736
!	-9.81736
补充	-9.81737
持久	-9.8174
经济危机	-9.81743
▁甚至	-9.81789
v	-9.81851
分享	-9.81855
职位	-9.81942
发生的	-9.82043
24	-9.82063
一下	-9.8209
▁C	-9.82178
的决定	-9.82381
专	-9.82433
停	-9.82487
号	-9.82521
性质	-9.82523
歧视	-9.82549
个百分点	-9.82549
乔治	-9.8255
融合	-9.82551
关闭	-9.82552
缺口	-9.82556
推迟	-9.82556
沙特	-9.82563
ch	-9.82578
问责	-9.82642
九	-9.82767
她的	-9.82904
余	-9.82928
谈	-9.82967
以此	-9.82972
原本	-9.8302
领导力	-9.83034
的计划	-9.83124
败	-9.83142
使其	-9.83152
张	-9.83193
一个国家	-9.83209
这位	-9.83331
▁B	-9.83336
伯	-9.8334
约翰	-9.83366
却是	-9.83428
人才	-9.83429
的效果	-9.83457
不愿意	-9.83586
八	-9.83608
中有	-9.83661
排除	-9.83698
良好	-9.83713
的信息	-9.83812
税率	-9.83925
▁日本	-9.83949
学家	-9.83953
和经济	-9.83996
四个	-9.84025
还将	-9.84025
用来	-9.84041
杰	-9.84094
凯恩斯	-9.84161
不足以	-9.8418
都能	-9.84183
扎	-9.84193
教授	-9.84197
施	-9.84212
要素	-9.8449
物种	-9.84596
自动	-9.84687
是美国	-9.84709
来看	-9.84736
债	-9.84872
完美	-9.84902
对欧洲	-9.84936
困扰	-9.84993
途径	-9.85022
煽动	-9.85028
区别	-9.85043
透明度	-9.85052
反弹	-9.85061
显而易见	-9.85075
温	-9.85286
者的	-9.85315
为例	-9.85373
不存在	-9.85454
治	-9.85497
直	-9.85513
满	-9.85535
略	-9.85625
▁在这方面	-9.85693
is	-9.8576
低利率	-9.85837
匈牙利	-9.85867
转化为	-9.85868
孟加拉国	-9.85893
1980	-9.85934
解决问题	-9.86015
破坏性	-9.86018
富裕国家	-9.86066
战后	-9.86096
大多	-9.86141
各自	-9.86151
劳动者	-9.86198
接触	-9.86223
丧失	-9.86267
明年	-9.863
留在	-9.86335
浪费	-9.86349
跨	-9.86362
都不	-9.86391
的选择	-9.86428
经合组织	-9.86476
也许是	-9.86499
的人口	-9.86502
化的	-9.8653
账户	-9.86584
希	-9.8671
以至于	-9.86716
复兴	-9.86717
软实力	-9.86727
▁这是一个	-9.86773
的基础上	-9.86799
强劲	-9.86872
百万	-9.86907
的道路	-9.86933
基础设施投资	-9.87057
400	-9.87063
欧洲领导人	-9.87071
的巨大	-9.87088
金融部门	-9.87127
更是	-9.87167
英国的	-9.87215
岗位	-9.87225
有利	-9.8731
学院	-9.87357
的水平	-9.87381
▁新	-9.8742
硬	-9.87431
享受	-9.87455
跌	-9.875
信仰	-9.87568
清晰	-9.8757
1997	-9.87571
机遇	-9.87578
示威	-9.87594
予以	-9.876
外界	-9.87678
▁所以	-9.87913
升	-9.87921
参与者	-9.87985
这种情况	-9.88005
建立了	-9.88008
工党	-9.88018
▁考虑到	-9.88094
甚	-9.88128
提出的	-9.88186
前任	-9.8819
最好的	-9.88259
其他地方	-9.88281
两种	-9.88287
要想	-9.88322
的领导人	-9.88384
星	-9.88389
兵	-9.88418
销售	-9.88424
多样化	-9.88433
填补	-9.88433
签订	-9.88433
冒险	-9.88435
终结	-9.88435
成熟	-9.88443
决心	-9.88443
金砖国家	-9.88456
即使是	-9.88478
使命	-9.88492
解放	-9.88501
沦为	-9.88531
但它们	-9.8858
it	-9.88596
蒂	-9.88614
的经济增长	-9.88626
毫无疑问	-9.88654
但其	-9.88883
没有任何	-9.88885
件	-9.88902
时候	-9.89024
清楚	-9.8904
的反	-9.89124
没有人	-9.89132
史	-9.89145
沙	-9.89244
告	-9.89256
巴勒斯坦人	-9.89263
相对于	-9.89282
菲	-9.89288
议员	-9.89296
沙特阿拉伯	-9.89313
▁T	-9.89343
威胁到	-9.89383
▁无论	-9.894
的最大	-9.89425
犹太人	-9.89447
观察	-9.89529
发达	-9.89531
占据	-9.89577
根	-9.89673
这些人	-9.89706
积极的	-9.89714
违反	-9.89749
▁她	-9.89786
欧盟国家	-9.89794
在这方面	-9.89909
你们	-9.89981
伊斯兰国	-9.90064
23	-9.90151
试验	-9.90156
有望	-9.90164
兴趣	-9.90166
3⁄4	-9.90179
扭转	-9.9018
主宰	-9.90181
起诉	-9.90187
正义	-9.90205
审查	-9.90206
出台	-9.9025
ro	-9.90289
被认为是	-9.90313
亿人	-9.90356
富裕	-9.90366
做出了	-9.9039
流入	-9.90431
后来	-9.90455
性别	-9.90495
来讲	-9.90513
但他们	-9.90529
▁还有	-9.90603
构成了	-9.90629
▁美联储	-9.9069
才会	-9.90693
医学	-9.90729
因为这	-9.90797
少数	-9.90856
银行家	-9.9086
退欧	-9.90874
惊	-9.90901
站	-9.9097
已有	-9.90982
还在	-9.91005
▁for	-9.91026
射	-9.9104
估算	-9.91064
奥地利	-9.91064
忧虑	-9.91064
监控	-9.91066
互动	-9.91076
推广	-9.91078
例外	-9.91083
利息	-9.91092
交流	-9.91107
证据表明	-9.91193
紧密	-9.91203
深化	-9.91206
受欢迎	-9.91216
所产生的	-9.91226
美国在	-9.91385
传染病	-9.91413
绝	-9.91529
告诉	-9.91563
伟大	-9.91605
的财政	-9.91781
出现在	-9.91815
深刻	-9.91836
企业家	-9.91846
根本不	-9.9187
散	-9.91907
标	-9.91908
清洁	-9.91911
实践	-9.91915
认真	-9.91936
悲观	-9.91958
拖累	-9.91958
干涉	-9.9196
瑞士	-9.9196
分散	-9.91982
财政赤字	-9.91989
弱点	-9.91996
自然资源	-9.92069
受益	-9.92077
家族	-9.92098
也不是	-9.92108
复杂的	-9.9214
看似	-9.92142
批评者	-9.92284
年代的	-9.92314
劳	-9.92317
的军事	-9.92324
的错误	-9.9237
描述	-9.92388
保守	-9.92404
改	-9.92422
4%	-9.92435
的最佳	-9.92526
的真正	-9.92541
出生	-9.92557
可靠的	-9.92592
召开	-9.92631
重要性	-9.92662
意识	-9.92697
逃	-9.92723
压	-9.9273
师	-9.92801
将导致	-9.92802
退休	-9.92826
秘密	-9.92859
马克龙	-9.9286
是什么	-9.92867
特朗普的	-9.92873
至少在	-9.92887
的方案	-9.9303
立即	-9.93071
▁就像	-9.93077
这将	-9.93103
是否会	-9.93106
球	-9.93117
2050	-9.93149
更不用说	-9.93177
善	-9.93183
不论	-9.93211
ad	-9.93218
民主的	-9.93282
得不到	-9.93355
每天	-9.93407
自由民主	-9.93494
巨	-9.93527
▁毫无疑问	-9.93537
国防	-9.93558
以后	-9.93611
留下	-9.93673
乱	-9.93686
阶级	-9.93689
▁法国	-9.93692
博	-9.93754
词	-9.93756
情报	-9.93758
顾问	-9.93767
移动	-9.93773
霸权	-9.93775
花费	-9.93785
动员	-9.93787
专制	-9.93789
巨头	-9.93791
类型	-9.93799
不久前	-9.93802
生态系统	-9.93803
伴随着	-9.93817
意外	-9.93824
群	-9.93877
结构性改革	-9.93908
的安全	-9.93933
金融稳定	-9.93935
▁在过去	-9.93968
的过程中	-9.93998
形成了	-9.94058
埃	-9.94379
供	-9.9449
证	-9.94516
便利	-9.94589
反过来	-9.94621
一定	-9.94624
食	-9.94657
苏	-9.94672
受害者	-9.94672
防御	-9.9468
敦促	-9.94684
苏格兰	-9.94684
乃至	-9.9469
团队	-9.94691
超级	-9.94691
难题	-9.94692
导向	-9.947
稳定的	-9.94729
发放	-9.9473
加快	-9.94734
工厂	-9.94736
近年来	-9.94752
倒闭	-9.94763
一代	-9.94766
单一市场	-9.94919
没人	-9.94928
实施了	-9.94985
但也	-9.95109
20%	-9.95139
象	-9.95168
做法	-9.95331
▁俄罗斯	-9.9536
以确保	-9.95399
包容	-9.95404
建立在	-9.95454
预算赤字	-9.95454
需	-9.95484
配	-9.95529
在这个	-9.95543
让人们	-9.95552
27	-9.95593
选举中	-9.95602
痛	-9.95604
陷阱	-9.95609
害怕	-9.95611
连续	-9.95613
消耗	-9.95614
暴跌	-9.95615
广告	-9.95616
电影	-9.95618
期待	-9.95619
施加	-9.95649
等待	-9.95694
只有在	-9.95695
马上	-9.9572
前进	-9.95749
运	-9.95759
削弱了	-9.95812
社会主义	-9.95831
总需求	-9.95841
提议	-9.95955
il	-9.96053
▁欧洲央行	-9.96059
官	-9.96073
上海	-9.9608
提到	-9.96099
套	-9.96104
亚洲国家	-9.96175
环境中	-9.96192
与欧盟	-9.96221
结	-9.96258
望	-9.96484
剧	-9.965
兹	-9.96545
太平洋	-9.96546
完善	-9.96548
西藏	-9.96563
热情	-9.96568
两次	-9.96622
▁世界	-9.96807
英国脱欧	-9.96828
毫不	-9.96994
彼此	-9.97007
待	-9.97029
这一观点	-9.97084
减排	-9.97175
极端主义	-9.97183
必然	-9.97266
故事	-9.9734
0	-9.97407
已成为	-9.97458
U	-9.97461
墙	-9.97489
收缩	-9.97493
的比例	-9.97665
更具	-9.97795
极其	-9.97943
国家安全	-9.97982
保	-9.98047
的看法	-9.98059
轻	-9.98083
▁但这些	-9.98117
他们在	-9.98176
▁这也是	-9.98197
相同	-9.98239
最初	-9.98243
胜	-9.98271
版	-9.98284
196	-9.98299
密	-9.983
实现这一目标	-9.9832
美国和欧洲	-9.98371
查	-9.98379
加剧了	-9.98399
生态	-9.9841
倾向	-9.9841
藏	-9.98418
卡梅伦	-9.98439
崩盘	-9.98442
跨境	-9.98447
全球性	-9.98454
英格兰银行	-9.98486
通胀率	-9.98546
la	-9.98593
借款人	-9.98597
伤	-9.98652
送	-9.98655
随	-9.98656
中国人民银行	-9.9868
与其他	-9.9876
伦理	-9.98761
七	-9.98776
大会	-9.98921
▁欧元区	-9.98955
落后	-9.99061
和解	-9.99102
基本上	-9.99133
是错误的	-9.99199
的前景	-9.99207
素	-9.99268
团	-9.99305
包	-9.99322
极大	-9.99351
儿	-9.99361
主权债务	-9.99362
迷	-9.99363
不过	-9.99387
公共部门	-9.99394
吃	-9.99397
迄今为止	-9.99403
阻挠	-9.99403
可谓	-9.99403
残酷	-9.99403
挪威	-9.99403
延续	-9.99403
案件	-9.99413
提高了	-9.99418
加沙	-9.99422
高企	-9.99423
印尼	-9.99424
丹麦	-9.99425
再平衡	-9.99509
英镑	-9.99539
对欧盟	-9.99577
阿拉伯世界	-9.99613
果	-9.99619
也不能	-9.99634
股	-9.99652
根本性	-9.99879
不仅是	-9.99892
结构改革	-9.99914
到底	-9.99949
▁但我们	-9.99981
的能源	-9.99991
实体经济	-9.99993
修正	-10.0009
获	-10.0017
二战	-10.0022
领导的	-10.0023
解体	-10.0024
背后	-10.0026
一些人	-10.0027
范	-10.0028
7%	-10.0028
欧洲大陆	-10.0028
变成了	-10.0028
赢得了	-10.0036
守	-10.0037
共和国	-10.0037
突尼斯	-10.0037
约旦	-10.0037
一带一路	-10.0037
即将到来的	-10.0037
绝望	-10.0038
遗产	-10.0038
目	-10.0039
认可	-10.0039
罗马	-10.0043
并不能	-10.0043
足	-10.0045
战胜	-10.0046
欧	-10.005
就将	-10.0052
的代价	-10.0052
特点	-10.0055
▁华盛顿	-10.0061
动摇	-10.0062
自由化	-10.0064
在去年	-10.0065
拿	-10.0066
2018	-10.007
激烈	-10.0071
几乎没有	-10.0082
的市场	-10.01
长期以来	-10.01
会带来	-10.0103
过去的	-10.0106
一天	-10.011
族	-10.011
us	-10.0111
信誉	-10.0126
密切	-10.0128
进而	-10.013
雅	-10.0135
宣言	-10.0136
运转	-10.0136
第三	-10.0137
庞大的	-10.014
元	-10.014
大众	-10.0145
工作岗位	-10.0146
ed	-10.0148
的建议	-10.015
也需要	-10.0151
取得成功	-10.0153
属	-10.0164
废除	-10.0165
成为了	-10.0172
整	-10.0173
不了	-10.0178
行长	-10.0179
的收入	-10.0191
副	-10.0194
的共同	-10.0197
▁尤其是	-10.0197
▁到	-10.0199
的基本	-10.0212
站在	-10.0215
的形式	-10.0228
▁比方说	-10.0233
1.5	-10.0234
牛	-10.0234
众议院	-10.0234
参议院	-10.0234
偏好	-10.0237
计算机	-10.0238
动机	-10.0238
民主制度	-10.0239
座	-10.0241
快速增长	-10.0242
出版	-10.0245
80%	-10.0247
更多地	-10.0252
的胜利	-10.027
000	-10.0274
独裁者	-10.029
▁巴西	-10.0292
▁美国的	-10.0303
在一个	-10.0307
消	-10.0309
早就	-10.031
节	-10.0316
28	-10.0319
盛	-10.0325
▁奥巴马	-10.0325
苦	-10.0327
备	-10.0328
室	-10.0329
的关注	-10.0333
颠覆	-10.0334
安倍	-10.0337
另一种	-10.0338
加州	-10.0342
读	-10.0342
▁但这一	-10.0345
共产党	-10.0352
脆弱性	-10.0359
有必要	-10.0377
穷国	-10.038
经济和	-10.0382
其在	-10.0383
明确的	-10.0383
基金会	-10.0384
幕	-10.0393
▁不仅	-10.0394
背景	-10.0411
▁如此	-10.0418
庞大	-10.0421
富有	-10.0421
坚定	-10.0422
不管是	-10.0422
宏观	-10.0426
的现实	-10.0427
投资和	-10.0432
谋	-10.0433
导弹	-10.0435
申请	-10.0435
田	-10.0435
挽救	-10.0435
探讨	-10.0435
借助	-10.0436
非洲的	-10.044
一边	-10.0442
本人	-10.0443
电子	-10.0445
甚至是	-10.0445
存在着	-10.0453
▁其他	-10.0456
急	-10.0461
民粹主义者	-10.0463
改变了	-10.0467
▁如果我们	-10.0468
欧洲一体化	-10.0477
ers	-10.0482
蔓延	-10.0488
微	-10.0489
或是	-10.0489
更少	-10.0492
增长模式	-10.0498
公共卫生	-10.0499
过多	-10.0504
的概念	-10.0508
在一起	-10.0509
的谈判	-10.051
不太	-10.0516
始于	-10.0525
自由贸易	-10.0526
几乎所有	-10.053
倾向于	-10.0531
的策略	-10.0535
华尔街	-10.0537
奇怪	-10.0537
塞浦路斯	-10.0537
参议员	-10.0538
防务	-10.0538
高效	-10.054
低迷	-10.054
再加上	-10.0541
人道主义	-10.0541
决定性	-10.0543
十年前	-10.0544
一段时间	-10.0545
可行的	-10.0547
适用于	-10.0554
▁过去	-10.0558
驻	-10.0563
的民主	-10.0564
不信任	-10.0564
病人	-10.0565
政府债券	-10.0569
的企业	-10.0578
仍有	-10.0595
英国人	-10.0602
▁问题在于	-10.0603
速	-10.0607
背后的	-10.0611
二十世纪	-10.0615
程	-10.062
年初	-10.063
和环境	-10.063
赛	-10.0631
修	-10.0631
装	-10.0635
席位	-10.0636
牌	-10.0637
结论	-10.0638
学术	-10.0639
检查	-10.0641
养老金	-10.0641
狂热	-10.0648
路径	-10.0649
▁M	-10.0653
平民	-10.0654
发布的	-10.0654
8%	-10.0662
置	-10.0663
显而易见的	-10.0663
▁另一个	-10.0666
社会保障	-10.0667
的解决方案	-10.0667
为其	-10.068
最严重的	-10.0686
王	-10.0689
抛弃	-10.07
的合作	-10.0701
有害	-10.0705
▁2008	-10.0706
广泛的	-10.0708
的最	-10.0711
会产生	-10.0719
现任	-10.072
这些措施	-10.072
而已	-10.0721
▁你	-10.0722
还可以	-10.0729
有关的	-10.073
▁F	-10.0735
很高	-10.0738
访	-10.0738
的趋势	-10.0739
银行的	-10.074
软	-10.0742
弃	-10.0743
纠纷	-10.0744
细胞	-10.0744
饥饿	-10.0745
圈	-10.0745
塔利班	-10.0745
克里姆林宫	-10.0745
剧烈	-10.0745
社交媒体	-10.0745
供应链	-10.0746
兼	-10.0753
眼下	-10.0756
▁这样	-10.076
大银行	-10.0762
的增加	-10.0776
一再	-10.0778
这一趋势	-10.078
的公司	-10.0785
股价	-10.0789
该计划	-10.0793
奥巴马政府	-10.0797
华盛顿	-10.0798
市场经济	-10.0801
婚	-10.0802
工会	-10.0805
外国人	-10.0812
长达	-10.0814
▁即便	-10.0817
患	-10.0819
情形	-10.0824
▁全球	-10.0827
创	-10.0832
生产率增长	-10.0833
的时代	-10.0835
与此同时	-10.0835
膨胀	-10.0847
航	-10.0848
布莱尔	-10.085
抱怨	-10.085
爆炸	-10.085
危害	-10.085
衰落	-10.0851
运营	-10.0851
周边	-10.0851
不确定	-10.0863
转移支付	-10.0864
li	-10.0864
季度	-10.0872
人均收入	-10.0877
不平衡	-10.0881
情景	-10.0884
契约	-10.0885
新兴国家	-10.0887
乐	-10.0887
单位	-10.0894
萧条	-10.0904
最多	-10.0908
▁要想	-10.091
之一是	-10.0914
其实是	-10.0916
依赖于	-10.0918
废	-10.0919
来自于	-10.0919
冷	-10.092
不知道	-10.0922
繁荣的	-10.0924
对立	-10.0928
的战争	-10.093
危机爆发	-10.0934
时代的	-10.0939
领导者	-10.094
政治和经济	-10.0946
壁垒	-10.0952
解决办法	-10.0954
游戏	-10.0954
固定	-10.0956
飙升	-10.0956
频繁	-10.0956
履行	-10.0957
依据	-10.0957
果断	-10.0957
经济活动	-10.0957
药品	-10.0958
ir	-10.0958
提案	-10.0958
的金融	-10.0965
忽略	-10.0967
反映出	-10.0967
者们	-10.0967
最佳	-10.097
者和	-10.097
欧元区国家	-10.097
在国际	-10.0971
危机中	-10.0971
走出	-10.0982
仍是	-10.0984
配置	-10.0995
万美元	-10.1003
公民社会	-10.1004
的移民	-10.1008
转变为	-10.1011
法规	-10.1012
am	-10.1019
设	-10.102
父母	-10.1023
但这	-10.1026
输	-10.1029
设施	-10.1029
英国退出	-10.1031
文章	-10.1032
中获益	-10.1033
初	-10.1034
和俄罗斯	-10.1046
▁所有这些	-10.1049
环境下	-10.105
不公平	-10.105
合作伙伴	-10.1056
征	-10.1058
的信心	-10.1059
扩散	-10.1062
请	-10.1063
训练	-10.1064
•	-10.1064
沟通	-10.1064
地中海	-10.1064
著名	-10.1064
领先	-10.1064
无人机	-10.1065
负面	-10.1065
设定	-10.1066
90%	-10.1067
连接	-10.1075
总量	-10.1077
为基础的	-10.1081
房屋	-10.1088
通胀目标	-10.1106
ge	-10.1107
必须在	-10.1115
远离	-10.1128
▁于是	-10.1132
范围内	-10.1138
的信号	-10.1142
其他地区	-10.1143
▁另一方面	-10.1159
也包括	-10.1159
丰	-10.1163
起作用	-10.1169
强国	-10.1169
船	-10.117
丑闻	-10.117
环	-10.117
哥本哈根	-10.1172
帮	-10.1172
均衡	-10.1172
艾	-10.1173
审判	-10.1173
暗示	-10.1173
动态	-10.1173
依旧	-10.1173
保罗	-10.1174
野心	-10.1174
缩小	-10.1174
食物	-10.1174
借口	-10.1174
这么	-10.118
高管	-10.1182
两位	-10.1189
▁最终	-10.1195
保守派	-10.1196
会有	-10.1197
就业岗位	-10.1205
绝不是	-10.1215
公共债务	-10.1223
类似于	-10.1224
贸易赤字	-10.1229
所提出的	-10.123
中国和印度	-10.1231
到目前为止	-10.1239
的影响力	-10.1245
ul	-10.1248
理事会	-10.1251
众	-10.1253
字	-10.1255
做到	-10.1257
思	-10.1259
弹	-10.126
引擎	-10.1261
man	-10.1263
三大	-10.1264
美国国会	-10.1271
福	-10.1273
的下降	-10.1274
宽松	-10.1277
校	-10.1278
沉	-10.1279
玛	-10.1282
而在	-10.1282
萎靡	-10.1282
阿尔及利亚	-10.1282
倡议	-10.1282
焦虑	-10.1282
模糊	-10.1282
继承	-10.1283
穆巴拉克	-10.1283
四分之一	-10.1283
自愿	-10.1287
30%	-10.1288
角度	-10.1288
体现	-10.1289
的命运	-10.129
人为	-10.1296
极大地	-10.1299
的讨论	-10.1301
四年	-10.1302
走上	-10.1303
的大规模	-10.1309
煤	-10.1323
至今	-10.1325
预计将	-10.1328
城市化	-10.1329
仅有	-10.1333
理应	-10.1333
os	-10.1336
此类	-10.1339
▁这就是	-10.1348
减少了	-10.1351
可以从	-10.1357
有力	-10.136
极大的	-10.136
▁巴黎	-10.1361
等于	-10.1368
统治者	-10.1368
▁我们需要	-10.1369
仍将	-10.1371
投机	-10.1372
的状况	-10.1373
有效地	-10.1378
是如何	-10.138
灾	-10.1389
脱	-10.1389
也因此	-10.1391
袭	-10.1392
纪	-10.1392
招	-10.1393
封	-10.1393
支柱	-10.1394
阿拉伯之春	-10.1394
裁决	-10.1394
营养	-10.1394
迎来	-10.1396
标志着	-10.1397
观察家	-10.1398
友好	-10.1398
一部分	-10.1399
▁这将	-10.1403
im	-10.1404
40%	-10.1406
超过了	-10.1409
▁让	-10.141
▁平心而论	-10.1411
之比	-10.1414
对策	-10.1416
都可以	-10.1418
掌权	-10.1425
威	-10.143
力度	-10.1431
让美国	-10.1431
的实际	-10.1434
名义	-10.1436
的银行	-10.1436
▁一旦	-10.1437
监管机构	-10.145
功	-10.1452
容	-10.1453
50%	-10.1454
金融系统	-10.1459
所有这些	-10.1464
资格	-10.1465
不安	-10.1474
双方都	-10.1478
综合	-10.1491
包容性	-10.1494
不如	-10.1497
记忆	-10.1506
马来西亚	-10.1506
免疫	-10.1506
运输	-10.1506
东南亚	-10.1507
介入	-10.1507
之际	-10.1507
西欧	-10.1508
60%	-10.1509
道理	-10.1509
暴	-10.151
由此	-10.1512
有机会	-10.1513
可怕的	-10.1519
样	-10.1522
顶	-10.1529
中所	-10.1546
经济和政治	-10.155
卖	-10.1553
不那么	-10.157
数千	-10.1571
的所有	-10.1581
低碳	-10.1585
注意	-10.1589
成为一个	-10.159
反对者	-10.1596
的决策	-10.1601
邦	-10.1602
都需要	-10.1603
柏林	-10.161
互	-10.1611
划	-10.1613
和安全	-10.1615
帕	-10.1617
脚	-10.1617
盘	-10.1617
肉	-10.1619
苏丹	-10.1619
欠	-10.1619
画	-10.1619
1998	-10.162
夜	-10.162
格鲁吉亚	-10.162
1989	-10.162
什叶派	-10.162
世贸组织	-10.162
三分之二	-10.162
中央政府	-10.162
全民公决	-10.162
非政府组织	-10.162
律师	-10.162
的经济体	-10.162
干扰	-10.162
建造	-10.1621
文件	-10.1621
商品和服务	-10.1623
修复	-10.1624
财产	-10.1627
地震	-10.1629
他们所	-10.1633
严峻	-10.1639
平均水平	-10.1646
一倍	-10.1649
尽可能	-10.1652
政府在	-10.1659
贸易伙伴	-10.1666
就需要	-10.1669
明智的	-10.1676
看法	-10.1685
引	-10.1686
长期利率	-10.1689
▁"	-10.1707
随之	-10.1717
永久	-10.1719
消极	-10.1729
定价	-10.173
不再是	-10.173
贝	-10.1731
购	-10.1731
怎么	-10.1731
季	-10.1732
阿萨德	-10.1733
我在	-10.1733
酒	-10.1734
横	-10.1734
零售	-10.1734
抵御	-10.1734
流离失所	-10.1734
逊尼派	-10.1735
弥补	-10.1735
采购	-10.1735
干旱	-10.1735
争夺	-10.1735
认知	-10.1735
免费	-10.1735
创建	-10.1735
指引	-10.1735
偏见	-10.1735
的进步	-10.1736
变得更	-10.1736
这是一个	-10.1739
死亡率	-10.1741
看看	-10.1745
▁但中国	-10.1748
越来越大	-10.1748
的损失	-10.1755
的潜在	-10.1759
形象	-10.1759
犹太	-10.1764
的目的	-10.1765
似乎是	-10.1765
银行系统	-10.1772
ol	-10.1775
都无法	-10.1783
厂	-10.1791
年代末	-10.1796
美国总统奥巴马	-10.1798
低估	-10.1799
的比重	-10.1804
被称为	-10.1808
存在的	-10.181
此后	-10.1811
ation	-10.1817
全球贸易	-10.1819
每一个	-10.1822
形式的	-10.1828
慢	-10.1838
首脑	-10.1846
友	-10.1846
露	-10.185
严肃	-10.185
前总统	-10.185
佩	-10.1851
吧	-10.1851
搞	-10.1851
姿态	-10.1851
二十一世纪	-10.1851
识别	-10.1851
课程	-10.1851
撤军	-10.1851
生物多样性	-10.1851
政策制定者	-10.1852
系统性	-10.1853
交换	-10.1853
反思	-10.1855
势头	-10.1855
游说	-10.1857
国际法	-10.1862
经济和社会	-10.1872
这些政策	-10.1875
更容易	-10.1878
的意愿	-10.1879
显然是	-10.1882
最大化	-10.1884
大力	-10.1886
圣	-10.1887
这一目标	-10.1891
告诉我们	-10.1893
这条	-10.1896
是正确的	-10.1897
好像	-10.1898
关心	-10.1898
处在	-10.19
记	-10.1905
军事行动	-10.1907
义	-10.1912
私	-10.1917
讲话	-10.192
性和	-10.1924
的贸易	-10.1927
农场	-10.1929
充	-10.1931
危机前	-10.1938
的支持者	-10.194
年金融危机	-10.1948
的想法	-10.1948
南欧	-10.1949
弱势	-10.1954
独立的	-10.1956
很有	-10.1963
养	-10.1965
愿	-10.1967
怒	-10.1968
仔细	-10.1968
边缘	-10.1968
妨碍	-10.1968
邓小平	-10.1968
仇恨	-10.1968
飓风	-10.1968
所赐	-10.1969
电脑	-10.1969
紧张局势	-10.197
压制	-10.1971
的规模	-10.1971
组成部分	-10.1972
Al	-10.1975
迈向	-10.1975
之势	-10.1979
▁而这	-10.1981
言论自由	-10.1981
600	-10.1981
年龄	-10.1984
高昂	-10.1985
错误的	-10.1989
提供资金	-10.1989
让步	-10.1992
再度	-10.1994
资	-10.1999
目标是	-10.2001
铁路	-10.2003
罪行	-10.2004
一方面	-10.2006
北方	-10.2013
全球金融危机	-10.2026
付	-10.2026
智能	-10.2027
做得	-10.2028
具	-10.2029
缓和	-10.2034
上限	-10.2045
为基础	-10.2046
圣战	-10.2049
登	-10.2056
人口的	-10.2057
▁无论如何	-10.2057
就越	-10.2058
破坏了	-10.2062
多大	-10.2063
务	-10.2065
大宗商品	-10.2065
▁E	-10.207
阶层	-10.2081
红	-10.2081
枪	-10.2082
创业	-10.2082
有什么	-10.2083
收集	-10.2083
物价	-10.2084
板	-10.2085
缩减	-10.2088
医疗保健	-10.2088
何	-10.2088
黄金	-10.2088
恐怖袭击	-10.2089
大规模的	-10.2107
种子	-10.211
就在	-10.2116
政治制度	-10.212
所能	-10.2121
服	-10.2124
其对	-10.2136
不断增加	-10.2137
这一过程	-10.2143
行为的	-10.2146
无法获得	-10.2161
de	-10.2168
研究所	-10.2168
终	-10.2172
自信	-10.2173
发展中国家的	-10.2177
是通过	-10.2184
两者	-10.2188
的选举	-10.2189
听到	-10.2192
et	-10.2193
在非洲	-10.2198
大概	-10.2198
最新的	-10.2204
政治上	-10.2205
的一半	-10.2207
世俗	-10.2207
活跃	-10.2207
皮	-10.2208
种植	-10.2208
遵循	-10.2208
薪酬	-10.2208
坚决	-10.2208
抵抗	-10.2208
适合	-10.2209
减弱	-10.2209
堪称	-10.221
事故	-10.221
北欧	-10.2211
奥巴马总统	-10.2211
温度	-10.2211
益	-10.2212
日元	-10.2213
St	-10.2213
达成一致	-10.2215
极有可能	-10.2215
历	-10.2216
无视	-10.2218
的根源	-10.2224
重重	-10.2226
残	-10.2229
并非如此	-10.223
22	-10.2231
▁但如今	-10.2237
st	-10.224
▁D	-10.224
以及对	-10.2245
它将	-10.2257
遭到了	-10.2264
这场危机	-10.2265
▁亚洲	-10.2267
在国内	-10.227
另外	-10.2287
银行业	-10.2288
借款	-10.2311
办	-10.2324
老龄化	-10.2326
折	-10.2327
偿付	-10.2327
奖	-10.2328
审慎	-10.233
会对	-10.233
围绕	-10.233
议题	-10.233
新一轮	-10.233
软件	-10.2331
报纸	-10.2331
斯特	-10.2331
主题	-10.2331
700	-10.2331
艾滋病毒	-10.2332
前沿	-10.2334
全面的	-10.2345
的预期	-10.2348
权力的	-10.2355
明智	-10.2363
确认	-10.2365
其中包括	-10.2366
只占	-10.2367
▁的确	-10.2376
在政治上	-10.2377
我们应该	-10.2378
对象	-10.238
很重要	-10.2382
生活的	-10.2389
▁Re	-10.2391
这里	-10.2391
ni	-10.2395
2.5	-10.2404
决	-10.2407
能量	-10.2408
更广泛的	-10.2412
来到	-10.2414
昂贵	-10.2415
三年	-10.2415
▁R	-10.2418
▁更	-10.2424
危机后	-10.2427
联邦政府	-10.2429
赶	-10.2429
自由市场	-10.2431
▁不管是	-10.2433
严厉	-10.2436
眼中	-10.2438
隐	-10.2439
打造	-10.244
穿	-10.2442
注定	-10.2445
试	-10.2449
休	-10.2452
混	-10.2452
翻	-10.2452
木	-10.2453
Facebook	-10.2453
SDG	-10.2453
°	-10.2453
慷慨	-10.2453
漏洞	-10.2453
诉讼	-10.2453
罗伯特	-10.2454
勇气	-10.2454
洪水	-10.2455
征税	-10.2455
流程	-10.2456
联合国安理会	-10.2456
基地组织	-10.2456
撒哈拉以南非洲	-10.2457
徒	-10.2458
多种	-10.2458
的时间里	-10.2465
接受了	-10.2467
趋同	-10.2468
150	-10.2471
二战后	-10.2472
控	-10.2473
盟国	-10.2485
激发	-10.2486
财政刺激	-10.249
绝大部分	-10.2491
下降了	-10.2492
的方式来	-10.2493
有益	-10.2497
在亚洲	-10.2501
伊拉克战争	-10.2503
非正式	-10.2504
敌	-10.2512
支	-10.2516
上台	-10.2525
矿	-10.2527
是一项	-10.2533
选票	-10.2539
有点	-10.2557
数十年	-10.256
股权	-10.2561
财政和	-10.2563
ow	-10.2564
因而	-10.2568
▁这就	-10.2571
销	-10.2573
夺	-10.2573
剑桥	-10.2574
示	-10.2574
适用	-10.2576
迟	-10.2576
章	-10.2577
喜	-10.2577
胡	-10.2578
真主党	-10.2578
当务之急	-10.2578
考察	-10.2578
钢铁	-10.2579
父亲	-10.2579
稳步	-10.2579
赞成	-10.258
第三个	-10.258
测量	-10.258
体验	-10.2581
的办法	-10.2582
但我们	-10.2584
网站	-10.2586
可持续发展目标	-10.2589
肯定会	-10.259
这么做	-10.2594
年到	-10.2597
金融服务	-10.2598
进化	-10.26
另一方面	-10.2607
南方	-10.2608
身体	-10.2611
较低	-10.2615
▁但他们	-10.2616
推出	-10.2622
鼓吹	-10.2622
块	-10.2623
此举	-10.2624
良	-10.2625
账	-10.2625
就已经	-10.2626
已经被	-10.2627
女孩	-10.2646
▁像	-10.2647
年内	-10.2656
免受	-10.2665
和文化	-10.2666
容忍	-10.2672
-20	-10.2675
是否能	-10.268
企业和	-10.2697
疗法	-10.2697
严	-10.2699
顿	-10.2699
慈善	-10.27
结合	-10.2703
贵	-10.2704
争端	-10.2705
跳	-10.2705
乌	-10.2705
毛泽东	-10.2705
细节	-10.2705
诞生	-10.2705
内阁	-10.2706
▁至于	-10.2706
务实	-10.2706
的教训	-10.2708
国企	-10.271
作者	-10.2712
引用	-10.2714
强有力的	-10.2715
研究表明	-10.2715
经济中	-10.2717
何时	-10.2719
行列	-10.2724
非洲大陆	-10.2724
起到了	-10.2726
注重	-10.2728
▁2015	-10.2732
的条件	-10.2733
出资	-10.2735
而这些	-10.2745
可能在	-10.275
杀	-10.2754
关联	-10.2756
久	-10.276
智	-10.2764
理论上	-10.2767
急需	-10.2769
首都	-10.2778
前提	-10.2779
的环境	-10.2783
必将	-10.2783
世界各地	-10.2783
所有权	-10.2785
剥夺	-10.2786
的资产	-10.279
隔	-10.2795
明显的	-10.28
演讲	-10.28
游	-10.2801
独立性	-10.2803
承	-10.2812
议	-10.2815
致命	-10.2818
足球	-10.2823
时任	-10.2826
切实	-10.2829
第二大	-10.283
政变	-10.2831
抨击	-10.2833
亚投行	-10.2833
判决	-10.2833
尊严	-10.2833
忘记	-10.2833
传递	-10.2833
强迫	-10.2834
逃离	-10.2834
相结合	-10.2835
过剩	-10.2835
效益	-10.2837
竞争对手	-10.284
再一次	-10.2845
两党	-10.2846
相似	-10.2849
的传统	-10.2849
客	-10.2849
信念	-10.2851
前往	-10.2851
一段	-10.2859
今后	-10.2863
无数	-10.2865
在英国	-10.2866
▁”)	-10.2866
完	-10.2869
前者	-10.2869
母亲	-10.2883
货币贬值	-10.2886
出口国	-10.2889
▁就连	-10.2889
比重	-10.2891
有一些	-10.2892
可以让	-10.2892
加入欧盟	-10.2899
能够在	-10.29
和金融	-10.2907
建设性	-10.2918
诸如	-10.2919
加深	-10.2921
叫	-10.2936
低成本	-10.2944
就业和	-10.2949
的要求	-10.2949
遗	-10.295
链	-10.2957
树	-10.2962
材料	-10.2962
大西洋	-10.2962
纪念	-10.2963
莫斯科	-10.2963
津巴布韦	-10.2963
裔	-10.2963
云	-10.2963
福祉	-10.2963
The	-10.2963
特别提款权	-10.2963
产能过剩	-10.2963
索马里	-10.2964
通讯	-10.2964
涌入	-10.2964
预言	-10.2965
致死	-10.2965
误	-10.2967
突出	-10.297
董事会	-10.297
三倍	-10.2971
演变为	-10.2973
不利于	-10.2977
欧盟领导人	-10.2979
强力	-10.298
共同体	-10.298
债务危机	-10.2983
医疗服务	-10.2983
统一的	-10.2984
海军	-10.2993
可持续的	-10.2995
国有	-10.3
等国家	-10.3001
共和党人	-10.3002
敌人	-10.3008
想法	-10.3011
▁所有	-10.3013
话题	-10.3014
可信	-10.3016
最高的	-10.3018
的程度	-10.3021
将让	-10.3022
几十年来	-10.3025
是时候	-10.3026
特朗普政府	-10.3035
对伊朗	-10.3036
意愿	-10.304
这一比例	-10.3043
那时	-10.3043
的转型	-10.3051
温室气体排放	-10.3061
国家利益	-10.3063
和其他国家	-10.307
导	-10.307
穷	-10.3075
复	-10.3078
▁19	-10.3085
的公共	-10.3086
对那些	-10.3087
▁除	-10.3088
影	-10.309
灵	-10.3091
带着	-10.3091
霍	-10.3094
国内生产总值	-10.3095
归咎于	-10.3095
权衡	-10.3095
培养	-10.3095
贝卢斯科尼	-10.3095
▁the	-10.3095
设置	-10.3095
创立	-10.3095
辞职	-10.3096
私营部门	-10.3096
即使在	-10.3098
转换	-10.3098
写道	-10.3099
免	-10.3106
单方面	-10.311
失败的	-10.311
多么	-10.3114
▁由	-10.312
却在	-10.3131
它是	-10.3132
经济改革	-10.3139
▁接着	-10.3141
远比	-10.3145
价值的	-10.3156
超出	-10.3156
民族国家	-10.3159
上升到	-10.3166
争	-10.3168
制定了	-10.3169
▁第二	-10.3176
的表现	-10.3178
临时	-10.3183
▁大部分	-10.3186
是一场	-10.3187
能带来	-10.3187
的争论	-10.3188
中亚	-10.3196
▁在这个	-10.3198
管理者	-10.3201
下一个	-10.3202
高出	-10.3202
刻	-10.3205
三十年	-10.3209
高质量	-10.321
un	-10.3215
有权	-10.3216
习惯	-10.3221
固	-10.3224
毁	-10.3226
音	-10.3226
静	-10.3227
伯南克	-10.3228
涵盖	-10.3228
1991	-10.3228
遥远	-10.3228
筛查	-10.3228
婴儿	-10.3228
雇主	-10.3228
芬兰	-10.3228
如果没有	-10.3228
救助	-10.3229
升息	-10.3229
知识产权	-10.3229
先例	-10.323
的资源	-10.3231
多元化	-10.3231
抵押贷款	-10.3232
碳排放	-10.3232
作物	-10.3234
里根	-10.3235
主导的	-10.3236
他们对	-10.3241
的标准	-10.3241
各成员国	-10.3244
的第一	-10.3251
灵活性	-10.3257
效	-10.3259
间的	-10.326
反复	-10.3262
增加到	-10.3263
就不会	-10.3266
的健康	-10.3271
激	-10.3286
一道	-10.3291
意图	-10.3294
小型	-10.3298
了大量	-10.3301
充足的	-10.3311
法国总统	-10.3312
▁经济学家	-10.3318
资本流	-10.3323
债务重组	-10.3328
让它们	-10.3329
一个新的	-10.333
我们对	-10.333
总统选举	-10.3333
大有	-10.3333
中获得	-10.3343
很快就	-10.3349
哪	-10.3356
护	-10.3356
id	-10.3357
警	-10.3358
一方	-10.3359
贷	-10.336
症	-10.3362
扬	-10.3363
奈	-10.3363
办公室	-10.3363
毛	-10.3363
详细	-10.3363
卢旺达	-10.3363
修订	-10.3363
压迫	-10.3363
辩护	-10.3363
便宜	-10.3363
待遇	-10.3363
东京	-10.3364
谋杀	-10.3364
缺失	-10.3364
征收	-10.3364
周期性	-10.3364
左派	-10.3364
教师	-10.3364
人力资本	-10.3366
专利	-10.3367
双重	-10.3368
以往	-10.3369
自由主义	-10.3375
▁或许	-10.3377
国际贸易	-10.3378
6%	-10.3379
证实	-10.3381
可以用	-10.3387
所得税	-10.3392
税收收入	-10.3392
尤其是在	-10.3393
充满了	-10.3395
鉴于	-10.3399
最快	-10.3401
欧洲理事会	-10.3403
解除	-10.3405
分布	-10.3415
追随者	-10.3421
该地区的	-10.3426
难民危机	-10.3427
分离	-10.3427
变得越来越	-10.3439
被用于	-10.3442
现在已经	-10.3445
否定	-10.3446
都被	-10.3454
传统的	-10.3456
央行行长	-10.3457
多年来	-10.3461
在某些	-10.3467
的失败	-10.3468
其中的	-10.3469
▁所有这些都	-10.3484
贸易战	-10.3488
▁即使是	-10.3489
按揭	-10.3492
过时	-10.3493
出色	-10.3495
刑	-10.3495
顺	-10.3496
银行和	-10.3497
威慑	-10.3498
戴	-10.3499
的优势	-10.3499
决议	-10.35
环保	-10.35
编	-10.35
基督教	-10.35
竭尽全力	-10.35
别无选择	-10.35
拖延	-10.35
巴尔干	-10.35
城镇	-10.35
厌恶	-10.35
收紧	-10.3501
Paul	-10.3501
指望	-10.3501
风暴	-10.3502
谈论	-10.3502
兴起	-10.3502
接收	-10.3503
70%	-10.3504
游行	-10.3508
也就	-10.3508
这表明	-10.3512
第四	-10.3513
采取措施	-10.3514
和平进程	-10.3515
能获得	-10.3515
▁他的	-10.3518
之间的关系	-10.352
面积	-10.3521
特权	-10.3523
间接	-10.353
基本面	-10.3531
中东地区	-10.3532
公共服务	-10.3534
与伊朗	-10.3535
也同样	-10.3537
得出	-10.3545
区分	-10.3547
白人	-10.355
健康的	-10.3555
峰会上	-10.356
一片	-10.3571
更低	-10.3571
依然是	-10.3574
助长	-10.3579
南海	-10.3588
会被	-10.3589
在没有	-10.3606
将使	-10.3607
在某种程度上	-10.3607
ig	-10.3608
迹象	-10.3612
收到	-10.3612
好消息	-10.3616
欧洲银行	-10.3618
水资源	-10.3619
脑	-10.3621
委员	-10.3624
缺	-10.363
弗	-10.3634
伴	-10.3636
可以说	-10.3637
乌干达	-10.3639
监狱	-10.3639
虐待	-10.3639
勒庞	-10.3639
罗斯福	-10.3639
效仿	-10.3639
救援	-10.3639
报复	-10.364
飞机	-10.3642
多个	-10.3644
简单的	-10.3646
正常化	-10.3648
只不过是	-10.3648
更有可能	-10.3653
当今世界	-10.3654
▁有人	-10.3664
深刻的	-10.3666
脆弱的	-10.3667
政治领导人	-10.3671
展示	-10.3676
西方国家	-10.3678
灾难性	-10.3679
新型	-10.3685
军事力量	-10.3686
ay	-10.369
集	-10.3691
应该在	-10.3693
这笔	-10.3695
政治联盟	-10.3697
的规则	-10.3697
助长了	-10.3702
名为	-10.3703
的激励	-10.3709
45	-10.3714
暴露	-10.3715
政策和	-10.3723
很可能会	-10.3731
和国际	-10.3732
的证据	-10.3742
的利率	-10.3749
的产品	-10.3752
日本银行	-10.3759
侵略	-10.376
等国	-10.3765
痛苦的	-10.3767
冒	-10.3772
母	-10.3773
巴沙尔	-10.3775
武力	-10.3777
厚	-10.3779
纸	-10.3779
汉	-10.378
隆	-10.378
希特勒	-10.378
稀缺	-10.378
攀升	-10.378
模仿	-10.378
▁更糟糕的是	-10.378
含义	-10.378
从根本上	-10.378
探索	-10.378
旅行	-10.378
重振	-10.3781
收购	-10.3781
哈佛大学	-10.3782
雇用	-10.3782
定期	-10.3783
容克	-10.3783
演化	-10.3785
论文	-10.3785
建国	-10.3787
▁用	-10.3792
也许会	-10.3794
选战	-10.3801
推高	-10.3806
新增	-10.3809
连任	-10.381
对他们	-10.381
只需要	-10.381
高层	-10.3812
收益率	-10.3821
自杀	-10.3823
自主	-10.3829
德国人	-10.3833
涨	-10.3841
▁北京	-10.3842
数百	-10.3843
与此	-10.3851
想起	-10.386
银行联盟	-10.3862
会出现	-10.3862
到达	-10.3863
系	-10.3868
的平均	-10.3868
流失	-10.3876
和技术	-10.3878
以使	-10.3878
这一事实	-10.3878
遇到	-10.3879
同一	-10.388
以外	-10.3889
的过程	-10.39
民主和	-10.3904
的依赖	-10.3905
途	-10.3908
韩	-10.3909
的道德	-10.3917
责	-10.3917
有意义的	-10.3918
讽刺	-10.3918
艰巨	-10.3921
港	-10.3921
在欧盟	-10.3922
雨	-10.3922
鱼	-10.3923
1999	-10.3923
江	-10.3923
激增	-10.3923
幸运	-10.3925
极右翼	-10.3925
1979	-10.3925
电网	-10.3925
可行	-10.3925
含	-10.3925
置于	-10.3932
很好的	-10.3933
▁对此	-10.3933
享有	-10.3936
本质上	-10.3937
产能	-10.3945
出来的	-10.3947
潜在的	-10.395
马里	-10.3952
动用	-10.396
研究者	-10.396
人道	-10.3964
生活方式	-10.3971
分化	-10.3971
什么样的	-10.3973
太过	-10.3974
证明了	-10.3975
军方	-10.3981
促成	-10.3982
的恐惧	-10.3987
▁伯克利	-10.3999
26	-10.3999
上个月	-10.4
年开始	-10.4009
传染	-10.4011
就应该	-10.4016
当下	-10.4016
就要	-10.402
焦点	-10.4022
让中国	-10.403
有利的	-10.4032
光是	-10.4032
之外的	-10.404
有很多	-10.4047
景	-10.4054
更低的	-10.4054
对经济	-10.4054
▁当前	-10.4056
不可持续	-10.4057
临	-10.4064
转而	-10.4064
惨	-10.4064
替	-10.4065
课	-10.4065
播	-10.4066
各大	-10.4066
所做的	-10.4067
柬埔寨	-10.4068
熟悉	-10.4068
警惕	-10.4068
加泰罗尼亚	-10.4068
扼杀	-10.4068
树立	-10.4068
生育率	-10.4069
从而让	-10.4069
空气污染	-10.4069
电话	-10.407
莫迪	-10.407
合适的	-10.4071
空气	-10.4072
9%	-10.4074
来解决	-10.4077
金钱	-10.4078
反抗	-10.4078
市长	-10.4078
手机	-10.4079
黑暗	-10.408
这一方针	-10.4082
财政紧缩	-10.4084
的贡献	-10.4087
严格的	-10.4088
主持	-10.409
警告说	-10.4092
盈利	-10.4092
▁到目前为止	-10.4093
被认为	-10.4094
大宗商品价格	-10.4095
的合法性	-10.4097
地理	-10.4098
自由派	-10.4099
▁H	-10.4102
的制度	-10.4105
很低	-10.4107
人死亡	-10.4109
上了	-10.4115
高风险	-10.4116
著名的	-10.4124
来实现	-10.4127
体现了	-10.4128
j	-10.4131
犯下	-10.4132
政府官员	-10.4135
泰	-10.4135
授予	-10.4138
▁在中国	-10.4141
在那里	-10.4144
▁以色列	-10.4144
据说	-10.4146
劳工	-10.4146
行事	-10.4151
的局面	-10.4151
ce	-10.4155
大幅度	-10.4163
问题在于	-10.4164
对未来	-10.4165
长时间	-10.4168
ag	-10.4169
▁Ma	-10.4172
有足够的	-10.4175
演	-10.4175
富国	-10.4177
的故事	-10.418
国际合作	-10.4186
▁有些	-10.4187
太大	-10.4193
助	-10.42
压倒	-10.4203
的预测	-10.4203
狂	-10.4204
化学	-10.4206
自由和	-10.4208
沃	-10.421
智慧	-10.4211
围	-10.4211
▁O	-10.4212
却没有	-10.4212
温室气体	-10.4213
礼	-10.4213
逐	-10.4213
密集	-10.4214
渐进	-10.4214
康	-10.4214
歌	-10.4214
充斥着	-10.4215
穆尔西	-10.4215
▁坎布里奇	-10.4215
令人信服	-10.4215
比特币	-10.4215
秘鲁	-10.4215
排斥	-10.4215
▁但它	-10.4215
储量	-10.4216
外汇	-10.4217
莫过于	-10.4217
生效	-10.4217
全民	-10.4218
重复	-10.4218
通往	-10.4218
催生	-10.4218
放任	-10.4219
这让	-10.422
现行	-10.422
同情	-10.4221
全体	-10.4221
会让	-10.4221
将军	-10.4222
商业银行	-10.4222
第二次	-10.4223
借贷成本	-10.4223
下一次	-10.4224
紧缩政策	-10.4229
1970	-10.4229
不起	-10.4231
根源	-10.4232
恢复力	-10.4235
▁W	-10.4238
一代人	-10.4239
所取得的	-10.424
AI	-10.4245
的转变	-10.4248
必然会	-10.4251
结束了	-10.4252
的数量	-10.4255
观察者	-10.4257
相同的	-10.4258
这使得	-10.4259
▁意大利	-10.4261
深远的	-10.4261
的商业	-10.4265
ent	-10.427
金融业	-10.4275
阿拉伯国家	-10.4275
的现象	-10.4275
年代初	-10.4277
并最终	-10.4281
大幅下降	-10.4288
一篇	-10.4293
列为	-10.4294
的资产负债表	-10.4296
▁我们必须	-10.4297
本来	-10.4308
作为一个	-10.4308
薪	-10.4309
就业机会	-10.4309
及时	-10.4313
ell	-10.432
绝不	-10.432
该国的	-10.4324
今	-10.4326
身为	-10.4327
要让	-10.433
当年	-10.4332
的土地	-10.4332
有限的	-10.4336
解释了	-10.4336
榜样	-10.4336
lo	-10.4338
提高利率	-10.4343
变为	-10.4346
忽略了	-10.4349
遭	-10.4353
其自身	-10.4354
等等	-10.4355
将被	-10.4359
安理会	-10.436
险	-10.4361
弄	-10.4363
诚	-10.4363
亮	-10.4364
同性恋	-10.4364
侵蚀	-10.4364
氦	-10.4364
邀请	-10.4364
剩余	-10.4364
停滞不前	-10.4364
浪潮	-10.4364
叙事	-10.4364
页岩气	-10.4365
北部	-10.4365
耗尽	-10.4365
赶超	-10.4365
士兵	-10.4365
组建	-10.4366
幸福	-10.4366
专门	-10.4366
经理	-10.4366
技术和	-10.4366
的必要性	-10.4367
阻碍了	-10.4368
叛乱	-10.4369
前途	-10.4371
总体而言	-10.4371
边缘化	-10.4372
但他	-10.4372
资本流入	-10.4372
大屠杀	-10.4374
欧洲经济	-10.4374
的原则	-10.4379
选择了	-10.4382
的进展	-10.4385
有所下降	-10.4385
所导致的	-10.4386
恰恰	-10.4388
的货币政策	-10.4388
高科技	-10.4389
债务负担	-10.439
其经济	-10.4394
高速	-10.4395
小国	-10.4397
东部	-10.4399
高涨	-10.4399
所采取的	-10.4401
行动方	-10.4404
隔离	-10.4407
充当	-10.4407
丰富的	-10.4413
医	-10.4413
年增长率	-10.4415
美国总统特朗普	-10.4419
稳定和	-10.4424
位置	-10.4427
小说	-10.4432
斗	-10.4433
在中东	-10.4433
大批	-10.4433
工作者	-10.4437
他们将	-10.4447
很快就会	-10.4452
执政的	-10.4458
一座	-10.4458
▁否则	-10.446
▁埃及	-10.4461
的结论	-10.4464
发展援助	-10.4465
二十年	-10.4476
天气	-10.448
社	-10.4486
提高到	-10.4488
中国共产党	-10.4489
无论是	-10.449
泛	-10.4494
几周	-10.45
误解	-10.4509
安全和	-10.4511
习	-10.4513
的另一个	-10.4513
谷	-10.4514
穆	-10.4515
龙	-10.4515
庇护	-10.4515
摩洛哥	-10.4515
萎缩	-10.4515
石油和天然气	-10.4515
▁相比之下	-10.4516
住宅	-10.4516
既得利益	-10.4516
杂志	-10.4516
未必	-10.4516
重申	-10.4517
附近	-10.4517
触发	-10.4517
的总	-10.4517
差别	-10.4518
最高法院	-10.4518
建立起	-10.4519
撤出	-10.4523
清洁能源	-10.4523
不可避免地	-10.4529
中小企业	-10.453
在此期间	-10.4532
迫切需要	-10.4533
实质性	-10.4533
同事	-10.4533
西部	-10.4538
存在于	-10.4541
这一结果	-10.4545
的选民	-10.4546
漫长	-10.4547
赖	-10.4552
ha	-10.4553
梦想	-10.4556
和企业	-10.4558
故	-10.4558
大多数人	-10.4563
财政部	-10.4569
同等	-10.4572
起着	-10.4573
敌对	-10.4577
所需	-10.4578
5,000	-10.4578
货	-10.4598
都应该	-10.46
就有	-10.4605
国债	-10.4613
自身利益	-10.4623
看待	-10.4631
丰富	-10.4632
参	-10.4635
困	-10.4636
第五	-10.4644
更长	-10.4647
注意力	-10.4653
的理论	-10.4657
的最后	-10.466
售	-10.4662
宽	-10.4662
衣	-10.4665
载	-10.4668
味	-10.4668
多样性	-10.4668
奥朗德	-10.4669
引人注目	-10.4669
灯	-10.4669
耳	-10.4669
邪恶	-10.4669
......	-10.4669
吸烟	-10.4669
折磨	-10.4669
白宫	-10.4669
算法	-10.467
实验室	-10.467
混合	-10.4671
异常	-10.4671
极度	-10.4672
控制权	-10.4672
随时	-10.4673
世界其他国家	-10.4675
替代方案	-10.4677
▁但尽管	-10.4678
时间内	-10.4679
自治	-10.468
签署了	-10.4684
▁即使在	-10.4687
弹性	-10.469
的认识	-10.4694
产权	-10.47
2,000	-10.4704
召开的	-10.4708
在阿富汗	-10.4715
做好	-10.4717
生产者	-10.4719
和创新	-10.4725
做了	-10.4725
全球增长	-10.4729
给出	-10.4729
与俄罗斯	-10.4737
对全球	-10.4741
▁西方	-10.4742
毕竟	-10.4744
份额	-10.4744
曾在	-10.4753
事实是	-10.4755
商人	-10.4756
具体的	-10.4756
拉动	-10.4769
可以为	-10.4771
协会	-10.4775
▁阿根廷	-10.4776
▁这项	-10.4779
ss	-10.4781
面向	-10.4781
态势	-10.4788
刺激计划	-10.4793
学科	-10.4794
在这里	-10.4801
政府必须	-10.4804
偏	-10.4805
象征	-10.4806
ill	-10.4807
失望	-10.4808
甘	-10.481
统	-10.4818
凯恩斯主义	-10.482
可能成为	-10.4821
艺术	-10.4821
的部分	-10.4821
辩	-10.4823
烟	-10.4823
震惊	-10.4824
刚	-10.4825
摩	-10.4825
卡扎菲	-10.4825
塑料	-10.4825
区块链	-10.4826
格林斯潘	-10.4826
宣扬	-10.4826
舞台	-10.4826
检测	-10.4826
筹集	-10.4826
开采	-10.4826
生产商	-10.4826
重启	-10.4827
▁好消息是	-10.4827
私有化	-10.4829
主动	-10.4833
▁土耳其	-10.4834
双边关系	-10.4835
将面临	-10.4836
二十	-10.4838
中美	-10.4839
移	-10.484
不良	-10.4846
公众对	-10.4848
还应该	-10.4851
上周	-10.4856
在整个	-10.4856
低收入	-10.4857
ot	-10.486
为自己	-10.4865
▁联合国	-10.4868
学会	-10.4869
有意	-10.4872
这也是	-10.4873
非常规	-10.4874
本应	-10.4882
英国政府	-10.4885
占全球	-10.4888
掩盖	-10.4889
金融中心	-10.4896
所提供的	-10.49
这一数字	-10.4904
的贷款	-10.4906
就无法	-10.4906
co	-10.4909
否决	-10.4909
地下	-10.4917
题	-10.4917
也存在	-10.4921
也要	-10.4924
相应	-10.493
在内	-10.4935
尤	-10.4936
冲	-10.4944
无关	-10.4948
这份	-10.495
的生命	-10.4954
刺激了	-10.4957
案例	-10.4959
创造性	-10.496
稳	-10.4964
毁灭	-10.4967
在最近的	-10.4967
宗	-10.497
能为	-10.497
本质	-10.4973
谈判中	-10.4973
辞	-10.4975
通常是	-10.4978
这可能	-10.4979
模	-10.4979
肯	-10.498
逮捕	-10.4981
忽视了	-10.4982
宝	-10.4983
逊	-10.4983
瑞	-10.4984
的声音	-10.4984
餐	-10.4984
希拉里	-10.4984
拔	-10.4984
1992	-10.4984
雪	-10.4984
俱乐部	-10.4984
Global	-10.4984
穆斯林兄弟会	-10.4984
累积	-10.4984
声誉	-10.4985
宝贵	-10.4985
企图	-10.4985
审视	-10.4985
QE	-10.4985
性别平等	-10.4986
公债	-10.4987
末	-10.4987
赢家	-10.4987
远低于	-10.4988
名字	-10.4989
直面	-10.4989
排名	-10.4991
市场上	-10.4992
1,000	-10.4995
米尔	-10.4998
储蓄率	-10.4999
朝着	-10.4999
不错	-10.5
都不会	-10.5
作家	-10.5001
提前	-10.5006
▁更重要的是	-10.5007
优秀	-10.5011
并因此	-10.5012
耗	-10.5012
的一项	-10.5013
会使	-10.5014
内部的	-10.5015
概率	-10.5018
哪个	-10.502
颇	-10.5027
的预算	-10.5034
▁2010	-10.5037
国民收入	-10.5038
同盟	-10.5045
数字化	-10.5051
复杂性	-10.5059
关键性	-10.5063
ec	-10.5063
▁至少	-10.5067
政府支出	-10.5071
不出	-10.509
条件下	-10.5099
办法是	-10.5108
不仅仅	-10.511
感受到	-10.5117
稳定性	-10.5117
但如果	-10.5119
份	-10.5121
路线	-10.5127
多年的	-10.5127
迫切	-10.5128
的外交	-10.5128
死于	-10.5131
的复苏	-10.5134
个成员国	-10.5135
叶	-10.5137
有多	-10.5139
虚假	-10.5139
伴随	-10.514
纽	-10.5143
的数字	-10.5143
什	-10.5144
兄弟	-10.5145
拆	-10.5145
抢	-10.5145
凶	-10.5146
兆	-10.5146
苹果	-10.5146
鲁哈尼	-10.5146
顽固	-10.5146
罗马尼亚	-10.5146
揭露	-10.5146
遗传	-10.5146
沿海	-10.5146
世界其他地区	-10.5147
源自	-10.5147
认同	-10.5147
声音	-10.5147
祖国	-10.5147
广场	-10.5148
刑事	-10.5149
公共投资	-10.5149
接种	-10.5149
▁2014	-10.5151
出席	-10.5151
的理念	-10.5155
自由流动	-10.5157
推特	-10.5157
的感觉	-10.516
价格稳定	-10.5164
决不能	-10.5166
致命的	-10.5171
数十亿美元	-10.5171
篇	-10.5172
一批	-10.5173
在伊拉克	-10.5175
美好	-10.5176
与之	-10.5181
些	-10.5183
▁世界银行	-10.5183
别人	-10.5185
注意到	-10.5185
所有国家	-10.5191
x	-10.5191
已是	-10.5191
▁2012	-10.5193
将来	-10.5194
过高	-10.5194
其中一个	-10.5197
国际秩序	-10.5198
对付	-10.5201
▁自从	-10.5202
不顾	-10.5205
▁各国	-10.5214
的一大	-10.5216
能够获得	-10.5218
io	-10.5222
单一货币	-10.5227
已开始	-10.5233
提醒	-10.5235
▁香港	-10.5235
般	-10.5235
根本没有	-10.524
份子	-10.5246
的目标是	-10.5247
商品价格	-10.5249
今年的	-10.525
▁按照	-10.5254
也门	-10.526
较低的	-10.5268
各地	-10.5273
署	-10.5278
暗	-10.5278
更重要	-10.528
汇	-10.5282
来源于	-10.5284
因素是	-10.5287
可用	-10.5287
中国已经	-10.5288
响	-10.5294
然而	-10.5298
▁最重要的是	-10.53
清算	-10.53
新政府	-10.5301
觉	-10.5302
而被	-10.5306
红利	-10.5307
曲	-10.5308
探	-10.5308
稍	-10.5309
须	-10.5309
烧	-10.5309
宾	-10.5309
CEO	-10.5309
子孙后代	-10.5309
愚蠢	-10.5309
猜测	-10.531
注册	-10.531
架构	-10.531
缓冲	-10.531
轻松	-10.531
亦然	-10.531
偏离	-10.531
经常项目赤字	-10.5311
忍受	-10.5311
幻想	-10.5311
正统	-10.5313
星期	-10.5313
本土	-10.5314
技术进步	-10.5314
任何一个	-10.5315
估值	-10.5319
外债	-10.5323
比赛	-10.5324
打开	-10.5326
总量的	-10.5326
▁N	-10.5329
当作	-10.533
期限	-10.5332
会计	-10.5334
尤为	-10.5334
该组织	-10.5337
的冲击	-10.534
的文化	-10.5341
强化了	-10.5344
说法	-10.5349
创新和	-10.5364
约为	-10.5364
不得	-10.5369
不可避免	-10.5378
▁在欧洲	-10.5381
过去十年	-10.5386
例子中	-10.5392
的手段	-10.5399
有理由	-10.54
两倍	-10.5402
▁为什么	-10.5408
的方向	-10.5408
的总体	-10.5409
唯一一个	-10.5409
石油价格	-10.5411
它还	-10.5413
也有可能	-10.5415
债券市场	-10.5417
更糟	-10.5424
实质	-10.5426
那里的	-10.5432
不想	-10.5435
的时期	-10.5437
法国人	-10.5437
▁确实	-10.5445
就连	-10.5445
规	-10.5446
贷款人	-10.5457
不像	-10.546
外交官	-10.5461
换取	-10.5462
赢	-10.5468
育	-10.5469
很大的	-10.5469
园	-10.547
坚	-10.547
笑	-10.5471
齐	-10.5473
侵犯	-10.5474
呼	-10.5475
蛋	-10.5476
仁	-10.5476
玩	-10.5476
氏	-10.5476
卡塔尔	-10.5476
International	-10.5476
京都议定书	-10.5476
掌控	-10.5476
奇迹	-10.5477
恶劣	-10.5477
修建	-10.5477
显现	-10.5478
低效	-10.5478
苦难	-10.5478
倒退	-10.5478
临近	-10.548
在短期内	-10.548
指定	-10.5482
限	-10.5483
当时的	-10.5483
摆	-10.5483
名单	-10.5484
所引发的	-10.5486
大学的	-10.5488
这也	-10.5489
而又	-10.5491
国际金融	-10.5494
下了	-10.5495
▁也就是	-10.5497
能源效率	-10.5498
也被	-10.5502
往往会	-10.5504
准备好	-10.5506
研究人员	-10.5507
吨	-10.5514
▁中国政府	-10.5517
满意	-10.5518
而且还	-10.552
财政联盟	-10.5522
创造出	-10.5523
还包括	-10.5526
的工具	-10.5526
石油公司	-10.5536
当代	-10.5537
口号	-10.5539
于是	-10.5543
最有	-10.5544
改造	-10.5544
体现在	-10.5547
的人来说	-10.5548
推动了	-10.5548
增长放缓	-10.5549
ak	-10.5549
近几年来	-10.5552
也开始	-10.5559
之内	-10.5565
着手	-10.5578
了这一点	-10.5578
非常重要	-10.5582
提供了一个	-10.5584
ma	-10.5584
阻止了	-10.5585
数百万人	-10.5594
不可持续的	-10.5599
事物	-10.5601
美军	-10.5604
一词	-10.5611
和印度	-10.5614
大胆	-10.5616
同时又	-10.5622
不久	-10.5623
简	-10.5624
殖民	-10.5628
接下来	-10.5631
一部	-10.5632
ter	-10.5634
源于	-10.5634
▁Co	-10.5635
侧	-10.5636
的地缘政治	-10.5637
公共政策	-10.5637
价格上涨	-10.5638
加入了	-10.5638
抵押	-10.564
贸易和	-10.5641
依	-10.5641
沉默	-10.5642
卢	-10.5642
和伊朗	-10.5643
丽	-10.5643
降至	-10.5644
冰	-10.5644
先进	-10.5645
很好地	-10.5646
中国国家主席习近平	-10.5646
日内瓦	-10.5646
追踪	-10.5646
撤销	-10.5646
二氧化碳排放	-10.5646
科研	-10.5646
评价	-10.5647
港口	-10.5647
民调	-10.5647
做好准备	-10.5648
超级大国	-10.5648
执法	-10.5648
南亚	-10.5649
管道	-10.5649
减缓	-10.5649
范式	-10.5651
打算	-10.5652
局限于	-10.5653
被广泛	-10.5653
阿尔	-10.5665
▁习近平	-10.5666
国内消费	-10.5666
经济利益	-10.5673
或其他	-10.5677
创造力	-10.5678
是不够的	-10.5686
三国	-10.5687
的潜力	-10.5688
完全是	-10.5692
一支	-10.5693
很小	-10.5695
他们会	-10.57
层次	-10.5702
它也	-10.5705
副总统	-10.5707
难度	-10.5707
来应对	-10.5716
任何人	-10.572
在印度	-10.5725
的障碍	-10.5731
to	-10.5734
▁布鲁塞尔	-10.5735
与欧洲	-10.5741
1000	-10.5745
总统候选人	-10.5745
将给	-10.5746
万亿美元的	-10.5751
周年	-10.5755
ta	-10.5759
房产	-10.576
事关	-10.5764
世界上最	-10.5765
社会福利	-10.577
▁这场	-10.5774
▁结果是	-10.5779
策	-10.578
的注意力	-10.5785
层面的	-10.5787
该公司	-10.5793
我们已经	-10.5796
著	-10.5797
不具备	-10.5798
滑	-10.5802
震	-10.5803
激进的	-10.5803
永远不会	-10.5804
极低	-10.5806
将于	-10.5808
每个人都	-10.581
背景下	-10.5812
对这些	-10.5812
评级	-10.5812
剂	-10.5814
贫	-10.5815
拖	-10.5815
夏	-10.5816
沮丧	-10.5816
逆	-10.5816
凭	-10.5816
抽	-10.5818
+	-10.5818
一揽子	-10.5818
炸弹	-10.5818
罕见	-10.5818
音乐	-10.5819
年全球金融危机	-10.5819
元素	-10.5819
耗费	-10.5819
奉行	-10.5819
意志	-10.5819
职务	-10.582
令人失望	-10.5821
退休金	-10.5821
▁希腊	-10.5823
简化	-10.5823
买入	-10.5824
禁令	-10.5824
即便是	-10.5833
的信誉	-10.5834
灾难性的	-10.5836
放大	-10.5839
行动起来	-10.584
son	-10.5841
治下	-10.5843
颇为	-10.5844
不过是	-10.5845
五个	-10.5845
大致	-10.5847
新一代	-10.585
或许是	-10.5853
▁如果中国	-10.5854
对英国	-10.586
基地	-10.5873
段	-10.5874
已经有	-10.5877
ik	-10.5879
没有一个	-10.5883
家人	-10.589
的时刻	-10.5891
ba	-10.5892
是非常	-10.5897
将有助于	-10.5901
这就是	-10.5902
国内政治	-10.5914
追	-10.5914
ti	-10.5924
多重	-10.5925
占据了	-10.5933
政府债务	-10.5938
接着	-10.5942
政府对	-10.5946
36	-10.5961
对我们	-10.5972
是不可能的	-10.5985
世界各地的	-10.5986
亡	-10.5989
日常	-10.599
欲	-10.5992
检	-10.5993
拨	-10.5993
杂	-10.5993
繁	-10.5993
架	-10.5993
乡	-10.5993
着眼于	-10.5993
迁徙	-10.5993
雇佣	-10.5993
尼克松	-10.5993
海啸	-10.5994
杀戮	-10.5994
曝光	-10.5994
周围	-10.5994
成绩	-10.5994
花了	-10.5994
顶层	-10.5994
失误	-10.5995
诚实	-10.5995
耐心	-10.5995
▁2013	-10.5996
作品	-10.5998
政府应该	-10.5999
疑	-10.6003
用途	-10.6003
就业率	-10.6009
输出	-10.6013
又一次	-10.6024
错了	-10.6026
最贫困	-10.6027
这方面的	-10.603
对比	-10.6036
较为	-10.6037
充分利用	-10.6045
批	-10.6048
根本无法	-10.605
共同利益	-10.6051
他对	-10.6052
的重点	-10.6052
极端贫困	-10.6055
更新	-10.6057
时机	-10.6059
的一次	-10.6069
河流	-10.6071
的汇率	-10.6072
财政状况	-10.6081
淡	-10.6089
地说	-10.6106
▁关于	-10.6109
好事	-10.6116
新兴市场国家	-10.6119
世界最大	-10.6122
▁就在	-10.6123
坦	-10.6127
会给	-10.6129
ac	-10.6133
麦	-10.6135
恰恰是	-10.6142
▁第四	-10.6146
迈	-10.6148
排放量	-10.6149
其中一些	-10.6153
遇	-10.6156
吸引了	-10.6158
大选中	-10.616
命运	-10.6162
历史性	-10.6163
扰	-10.6165
高收入	-10.6169
应该成为	-10.617
陈	-10.6171
佛	-10.6171
扫	-10.6171
Z	-10.6172
丘吉尔	-10.6172
成千上万	-10.6172
SDR	-10.6172
肥胖	-10.6172
碎	-10.6172
维也纳	-10.6172
Europe	-10.6172
犹豫	-10.6172
豁免	-10.6172
轨迹	-10.6172
Robert	-10.6172
签证	-10.6172
隐藏	-10.6173
跨大西洋	-10.6173
举办	-10.6173
分担	-10.6173
精确	-10.6173
体育	-10.6174
单独	-10.6174
▁任何	-10.6174
也已经	-10.6174
复制	-10.6175
的生存	-10.6175
警方	-10.6175
加密货币	-10.6175
起义	-10.6176
既然	-10.6178
身处	-10.6178
大臣	-10.618
历史学家	-10.618
1945	-10.618
资本流动	-10.6182
回报率	-10.6182
新常态	-10.6184
很大一部分	-10.6185
花在	-10.6188
跨越	-10.6188
维尔	-10.6191
斯基	-10.6191
跨国公司	-10.6191
是否能够	-10.6196
深层次	-10.6196
的首要	-10.62
的不确定性	-10.6203
年代以来	-10.6203
迫害	-10.6204
和土耳其	-10.6207
数学	-10.6208
▁有时	-10.6208
给我们	-10.6215
政治意愿	-10.6215
沉重的	-10.6218
非洲人	-10.6218
发挥作用	-10.6221
可能造成	-10.6222
诸	-10.6222
从前	-10.6223
收回	-10.6231
欧洲各国	-10.6234
等领域	-10.6242
海地	-10.6246
相应的	-10.6247
带来巨大的	-10.6249
的真实	-10.6258
直到最近	-10.6258
有趣	-10.6258
国王	-10.6259
中受益	-10.6259
在哪里	-10.6264
违反了	-10.6264
工作时间	-10.6271
驱动的	-10.6279
金融监管	-10.6283
已不再	-10.6286
如同	-10.6287
政治动荡	-10.6287
惊人	-10.6299
贸易协定	-10.6299
核计划	-10.6302
民主化	-10.6307
极高	-10.6313
并为	-10.6317
▁今天的	-10.6323
32	-10.6324
全球市场	-10.6324
驱逐	-10.6327
最具	-10.6331
大部分人	-10.6333
变暖	-10.6337
测	-10.6347
朗	-10.6349
压低	-10.635
野	-10.6351
补	-10.6351
志	-10.6351
筹	-10.6353
国务卿	-10.6354
盗	-10.6354
楼	-10.6354
羞辱	-10.6354
奖励	-10.6354
棋	-10.6354
卷土重来	-10.6354
萨达姆	-10.6354
John	-10.6354
疯狂	-10.6354
赞助	-10.6354
衍生品	-10.6354
轨道	-10.6355
霍乱	-10.6355
英雄	-10.6355
ia	-10.6355
击败	-10.6355
切断	-10.6356
主体	-10.6356
工程师	-10.6356
论证	-10.6357
提交	-10.636
发展中世界	-10.6362
的受害者	-10.6363
北非	-10.6363
半数	-10.6364
免于	-10.6364
为期	-10.6365
再分配	-10.6365
能源和	-10.6366
强加	-10.6367
学派	-10.6372
下台	-10.6372
创新性	-10.6372
外围国	-10.6372
高收入国家	-10.6374
逃避	-10.6375
永久性	-10.6379
反对党	-10.638
di	-10.638
ment	-10.6383
境地	-10.6386
更强的	-10.6388
根除	-10.6389
还不到	-10.6391
ck	-10.6392
成立了	-10.6392
▁然后	-10.6392
有过	-10.6393
这两种	-10.6395
影响了	-10.6396
推向	-10.6403
代表着	-10.6408
结果是	-10.6409
进一步恶化	-10.641
开启	-10.6411
止	-10.6412
成为世界	-10.6412
▁全世界	-10.6414
经受	-10.6415
陆	-10.6419
生产和	-10.6427
800	-10.6436
因为他	-10.6442
现有的	-10.6457
一群	-10.6458
想想	-10.6462
都知道	-10.6468
病例	-10.647
所有者	-10.6472
一块	-10.6472
头上	-10.6479
对华	-10.6489
在该地区	-10.6495
社会和经济	-10.6497
把自己	-10.6498
行使	-10.6504
定义为	-10.6505
说明了	-10.6508
▁马德里	-10.651
显示出	-10.6516
总统大选	-10.6519
开发银行	-10.652
评	-10.6523
就有可能	-10.6523
忙	-10.6532
尽快	-10.6534
以外的	-10.6537
脏	-10.6537
▁让我们	-10.6538
亦	-10.6538
盖茨	-10.6539
箱	-10.6539
达沃斯	-10.6539
目睹	-10.6539
胎	-10.6539
国务院	-10.6539
偷	-10.6539
捕捞	-10.6539
半个世纪	-10.6539
宇宙	-10.6539
适得其反	-10.6539
荒谬	-10.6539
展望	-10.6539
宽容	-10.654
凭借	-10.654
关押	-10.654
外国直接投资	-10.654
路线图	-10.654
战术	-10.654
极限	-10.654
增速	-10.654
目光	-10.6541
联系在一起	-10.6542
感兴趣	-10.6542
副作用	-10.6544
马克里	-10.6544
解读	-10.6545
看到了	-10.6548
没什么	-10.655
加纳	-10.6551
经济问题	-10.6553
最近在	-10.6553
定位	-10.6554
了一场	-10.6555
清楚地	-10.6557
比美国	-10.6559
领导作用	-10.6565
底层	-10.6567
经济转型	-10.6576
就算	-10.6578
环境保护	-10.6579
▁大多数	-10.658
数字技术	-10.6587
外交部长	-10.6588
私人投资	-10.6588
就开始	-10.6588
会谈	-10.6591
▁许多人	-10.6592
角	-10.6594
英国首相	-10.6596
从而使	-10.6604
▁这样做	-10.6608
将从	-10.6611
和以色列	-10.6613
强烈的	-10.6616
正当	-10.6625
但仍	-10.6627
我们不能	-10.6629
▁新德里	-10.6634
的不满	-10.6637
和个人	-10.6645
不当	-10.6645
日益增加	-10.6654
大坝	-10.6667
北美	-10.6667
会继续	-10.6668
意义上	-10.6671
是一位	-10.6671
的领导下	-10.6673
注	-10.6673
文化和	-10.6684
神话	-10.6686
基础设施和	-10.6687
op	-10.6692
等方面	-10.67
一定的	-10.6706
的学生	-10.6708
启动了	-10.671
拒绝了	-10.6711
呈	-10.6712
另外一个	-10.6718
欧盟内部	-10.6718
事态	-10.6719
战争中	-10.6721
占了	-10.6722
戈	-10.6724
街	-10.6724
割	-10.6725
如果不	-10.6725
衰	-10.6726
租	-10.6726
强调了	-10.6726
劣	-10.6726
尾	-10.6727
▁普京	-10.6727
堡	-10.6727
基准	-10.6728
内贾德	-10.6728
詹姆斯	-10.6728
编辑	-10.6728
哈萨克斯坦	-10.6728
首席执行官	-10.6728
坎	-10.6728
挂钩	-10.6728
查韦斯	-10.6728
勇敢	-10.6728
塑造	-10.6728
封闭	-10.6728
德国总理默克尔	-10.6728
谎言	-10.6728
协作	-10.6728
避难	-10.6728
视角	-10.6728
报导	-10.6729
回顾	-10.673
街头	-10.673
如何应对	-10.6731
节约	-10.6732
论调	-10.6732
若干	-10.6732
借此	-10.6732
自由贸易协定	-10.6734
平稳	-10.6734
呈现	-10.6735
主导地位	-10.6735
也更	-10.6737
无需	-10.6738
的主权	-10.6741
▁第二个	-10.6745
欧盟预算	-10.6747
将带来	-10.6749
世纪初	-10.6749
▁如果你	-10.6755
本周	-10.6757
债务水平	-10.6758
美国家庭	-10.6759
起点	-10.6764
紧密的	-10.6765
居住	-10.6769
中止	-10.6772
或者说	-10.6774
股票市场	-10.6775
发展趋势	-10.6775
完成了	-10.6778
扩大了	-10.6781
一个人	-10.6783
限度	-10.6784
▁布什	-10.6788
来为	-10.6793
197	-10.6796
鲜	-10.68
ut	-10.6801
2025	-10.6801
中国正在	-10.6802
多次	-10.6807
这些因素	-10.6808
电厂	-10.6813
选出	-10.6815
万亿	-10.6822
以上的	-10.6826
向前	-10.6828
欧洲和美国	-10.683
关键作用	-10.6836
充分就业	-10.6841
国家政府	-10.6842
达成了	-10.6852
▁上个月	-10.6854
激烈的	-10.6854
失灵	-10.6858
内需	-10.6859
的言论	-10.6864
可以获得	-10.6868
外来	-10.6868
发布了	-10.6869
不可或缺的	-10.6871
▁直到	-10.6875
为目标	-10.6882
在今天	-10.6886
一面	-10.6906
选举结果	-10.6906
传统上	-10.6907
旗	-10.6908
上任	-10.6912
损	-10.6915
催生了	-10.6916
合适	-10.6917
松	-10.6918
首席	-10.6918
匹配	-10.6919
雇员	-10.6919
巴拉克	-10.6919
疲	-10.6919
疫情	-10.692
吹	-10.692
匮乏	-10.692
巴塞尔	-10.692
庆祝	-10.692
的所作所为	-10.692
主权财富基金	-10.692
随之而来的	-10.692
▁是的	-10.692
政坛	-10.692
截止	-10.692
席卷	-10.692
症状	-10.692
微妙	-10.692
防卫	-10.6921
直觉	-10.6921
隐私	-10.6921
破灭	-10.6921
卷入	-10.6921
修正案	-10.6922
去杠杆化	-10.6922
屠杀	-10.6922
老牌	-10.6923
确立	-10.6923
解放军	-10.6923
虚	-10.6924
总结	-10.6924
世界杯	-10.6924
▁但随着	-10.6925
千年发展目标	-10.6926
为首的	-10.6928
会造成	-10.6928
特色	-10.6928
后续	-10.6928
保守主义	-10.6929
国际组织	-10.6929
方便	-10.6929
不堪	-10.6931
不止	-10.6931
代表了	-10.6932
岁的	-10.6934
频	-10.6938
美联储主席	-10.6938
中介	-10.6941
公路	-10.6943
是不是	-10.6944
欧元区成员国	-10.6947
峰值	-10.6948
ard	-10.6949
脱离欧盟	-10.6953
句	-10.6957
高峰	-10.6958
无可	-10.6959
▁另外	-10.6962
有毒	-10.6965
各州	-10.6965
如果我们	-10.6966
同样也	-10.6971
增长潜力	-10.6975
必	-10.6979
钟	-10.6981
受益者	-10.6984
▁2011	-10.6984
ist	-10.6986
会成为	-10.6992
也让	-10.6996
决定了	-10.6997
提醒我们	-10.7009
成为现实	-10.7012
年均	-10.7013
为代价	-10.7019
还有一个	-10.7021
哪怕	-10.7022
试图通过	-10.7032
的失业率	-10.7035
人来说	-10.7036
的孩子	-10.7041
就没有	-10.7043
的意义	-10.705
ex	-10.7051
极权	-10.7055
未来几年	-10.7058
克斯	-10.7062
更进一步	-10.7063
无法实现	-10.7074
占比	-10.7074
0.2	-10.7074
笔	-10.7076
▁中国领导人	-10.708
认为自己	-10.7089
公共财政	-10.709
都不是	-10.7091
国家间	-10.7095
的理想	-10.7099
无能	-10.7099
不知	-10.7099
▁在这一	-10.7099
最终将	-10.7103
执	-10.7104
na	-10.7108
祖	-10.7109
纪律	-10.7111
贴	-10.7112
低收入国家	-10.7113
丁	-10.7114
菌	-10.7115
押	-10.7115
凯	-10.7115
耶	-10.7115
饮	-10.7116
乳	-10.7116
世界卫生组织	-10.7116
骨	-10.7116
众所周知	-10.7116
肩	-10.7116
TPP	-10.7116
挤兑	-10.7116
短暂	-10.7116
绝非易事	-10.7116
境况	-10.7116
始终	-10.7116
诉求	-10.7117
就是明证	-10.7118
总裁	-10.7118
接管	-10.7119
受损	-10.7119
哲学家	-10.7119
随机	-10.7119
不良贷款	-10.7119
分析师	-10.7119
毫无意义	-10.712
英语	-10.712
借钱	-10.7122
设法	-10.7122
大家	-10.7122
商界	-10.7123
250	-10.7123
的举措	-10.7124
迈进	-10.7125
让我	-10.7127
子女	-10.7127
无意	-10.7128
我们知道	-10.7128
增进	-10.713
杀死	-10.7135
上演	-10.7136
崛起的	-10.7142
增长了	-10.7142
达成协议	-10.7143
其自身的	-10.7143
本世纪	-10.7143
小心	-10.7145
ity	-10.7145
年里	-10.7148
教育程度	-10.7153
降到	-10.7157
公共支出	-10.7158
强制性	-10.7165
对方	-10.7166
中最	-10.7166
应对措施	-10.717
十九世纪	-10.7174
的选票	-10.7182
放弃了	-10.7188
四十年	-10.7191
这种做法	-10.7192
低估了	-10.7192
的人都	-10.72
国家层面	-10.72
利用其	-10.7206
他信	-10.721
这部	-10.7227
示威者	-10.7232
保险公司	-10.7233
应付	-10.7233
的名义	-10.7236
越多	-10.7236
的信任	-10.7239
让他	-10.724
长远	-10.7246
债务人	-10.7247
需要一个	-10.725
温和的	-10.7252
立法者	-10.7253
▁但现在	-10.7256
物理	-10.7259
竞争性	-10.7259
比其他	-10.726
马克	-10.7263
有两个	-10.7267
经济繁荣	-10.7276
65	-10.7278
将如何	-10.7287
大幅增加	-10.7289
找	-10.7291
继	-10.7294
标志	-10.7294
方法是	-10.7296
或许会	-10.7297
mo	-10.7299
安全问题	-10.7302
扣	-10.7303
发表了	-10.7303
缩	-10.7305
灭	-10.7314
赌	-10.7314
辛	-10.7315
脸	-10.7315
粗	-10.7315
丝绸之路	-10.7316
一小部分	-10.7316
斯里兰卡	-10.7316
熊	-10.7316
号召	-10.7316
李	-10.7316
东道国	-10.7316
稳健	-10.7316
凸显出	-10.7316
1994	-10.7316
旋	-10.7316
桑	-10.7316
束缚	-10.7316
疑虑	-10.7316
奏效	-10.7316
坚挺	-10.7316
比利时	-10.7316
步伐	-10.7316
资料	-10.7316
稳固	-10.7317
采纳	-10.7317
回避	-10.7317
代替	-10.7318
职责	-10.7318
凝聚力	-10.7318
的决心	-10.7318
雄心	-10.7318
定居点	-10.7318
安置	-10.7319
节目	-10.7319
胜出	-10.7321
场合	-10.7321
极端分子	-10.7322
巨量	-10.7323
药方	-10.7323
耐药性	-10.7324
精力	-10.7325
联系起来	-10.7325
总人口	-10.7326
阿拉伯人	-10.7328
越大	-10.7328
体面	-10.7332
em	-10.7334
平息	-10.7334
眼前	-10.7338
可信的	-10.7338
的迹象	-10.7343
进入了	-10.7345
极少	-10.7347
农村地区	-10.7349
之道	-10.735
基础设施项目	-10.7354
指向	-10.7354
场所	-10.7361
甚至可能	-10.7362
和商业	-10.7366
危	-10.7383
留在欧盟	-10.7387
造成严重	-10.7394
占到	-10.7396
▁在经历了	-10.7396
不可避免的	-10.7397
的份额	-10.7399
其余	-10.7405
正面	-10.7406
布什总统	-10.7408
这不是	-10.7413
不变	-10.7413
现实主义	-10.7414
人选	-10.7415
大衰退	-10.7423
大于	-10.7423
鲜有	-10.7425
这个数字	-10.7428
有用	-10.7429
海岸	-10.743
收入不平等	-10.7432
这一切	-10.7441
还有其他	-10.7454
我们现在	-10.7457
积	-10.7461
等问题	-10.7462
的增长率	-10.7462
反移民	-10.7464
的竞争力	-10.7466
比尔	-10.7472
娜	-10.7474
的日子	-10.7474
社会和政治	-10.7476
有一点	-10.7479
实在	-10.7486
不及	-10.7491
将把	-10.7492
ab	-10.7495
常见	-10.7496
可怕	-10.7498
深远	-10.7499
可能带来	-10.7502
▁毫不奇怪	-10.7504
轻易	-10.7506
民间	-10.751
皇	-10.7514
暖	-10.7517
释	-10.7517
炮	-10.7518
戏	-10.7518
疾	-10.7519
腾	-10.752
堵	-10.752
波士顿	-10.752
镜	-10.752
奶	-10.752
旁	-10.752
穆罕默德	-10.752
舍	-10.752
贾	-10.752
贪婪	-10.752
打交道	-10.752
尖锐	-10.752
MDG	-10.752
暂停	-10.752
阴影	-10.752
寡头	-10.7521
经典	-10.7521
赞同	-10.7521
施压	-10.7521
软弱	-10.7521
抵达	-10.7522
故意	-10.7522
发展中经济体	-10.7522
营造	-10.7522
似乎已经	-10.7524
替代品	-10.7524
做到这一点	-10.7525
房子	-10.7527
联合国大会	-10.7527
各类	-10.7528
有许多	-10.7529
界定	-10.753
更能	-10.753
杀害	-10.7532
政治家们	-10.7532
不乏	-10.7532
25%	-10.7535
有多少	-10.7536
微小	-10.7536
▁柏林	-10.7538
货币操纵	-10.7539
提及	-10.7541
过分	-10.7542
储存	-10.7549
交给	-10.7549
都已经	-10.7558
角度看	-10.7561
略有	-10.7561
负责任的	-10.7561
包含了	-10.7561
有时候	-10.7562
提名	-10.7567
实际利率	-10.7568
与西方	-10.7569
甚至连	-10.757
政治领袖	-10.7571
所有国家都	-10.7574
内在	-10.7575
较少	-10.7576
和平协议	-10.7579
领导人必须	-10.7588
就像是	-10.759
民族主义者	-10.7597
的共识	-10.7597
缓	-10.7599
神经	-10.76
并且在	-10.7601
种族主义	-10.7614
想象的	-10.7617
惊人的	-10.7619
不能再	-10.762
金融和	-10.7624
可能出现	-10.7624
上一次	-10.7628
最后一个	-10.7634
著作	-10.7643
要做	-10.7645
发生变化	-10.7651
▁答案	-10.7656
在当今	-10.7657
无人	-10.7657
移民问题	-10.7657
ie	-10.7659
被人	-10.7661
想到	-10.7666
高速增长	-10.7669
聚	-10.7669
无从	-10.767
与以色列	-10.767
的支持率	-10.767
▁若	-10.7673
的痛苦	-10.768
往往是	-10.7682
的形象	-10.7685
民选	-10.7689
大使	-10.7693
必不可少	-10.77
浮	-10.7704
治国	-10.7707
他们必须	-10.7708
最终会	-10.7712
的全部	-10.7713
更重要的是	-10.7714
触	-10.7721
凡	-10.7724
阻	-10.7724
▁但美国	-10.7725
▁V	-10.7725
料	-10.7725
泥	-10.7725
赚	-10.7725
委	-10.7725
哲学	-10.7725
管辖	-10.7726
默	-10.7726
攻	-10.7726
春	-10.7726
荒	-10.7728
‘	-10.7728
桑德斯	-10.7728
’	-10.7728
踏	-10.7728
南中国海	-10.7729
巴黎气候协定	-10.7729
贿赂	-10.7729
视而不见	-10.7729
National	-10.7729
无关紧要	-10.7729
恶性循环	-10.7729
骚乱	-10.7729
硅谷	-10.7729
阅读	-10.7729
饮食	-10.7729
营养不良	-10.7729
草案	-10.7729
进攻	-10.773
护理	-10.773
固然	-10.773
北爱尔兰	-10.7731
配额	-10.7731
少数民族	-10.7731
胜任	-10.7731
夺走	-10.7732
国防部长	-10.7732
停火	-10.7732
阻力	-10.7732
股本	-10.7733
未知	-10.7733
儿子	-10.7734
建成	-10.7734
亚太地区	-10.7734
增税	-10.7734
开端	-10.7735
1.7	-10.7735
生计	-10.7735
情感	-10.7736
天然	-10.7736
地点	-10.7737
印度洋	-10.7738
帝国主义	-10.7738
核能	-10.7738
是对的	-10.7738
首要	-10.7739
数额	-10.7739
无比	-10.7739
准则	-10.7741
在短期	-10.7742
资本管制	-10.7742
强劲的	-10.7743
有序	-10.7744
较高的	-10.7745
无情	-10.7748
政策利率	-10.7748
的价值观	-10.7751
卡尔	-10.7752
1950	-10.7756
在经济上	-10.7757
清除	-10.7758
75	-10.7759
中国企业	-10.776
▁但当	-10.7763
北朝鲜	-10.7764
在全世界	-10.7765
仍然存在	-10.7765
本月	-10.7768
伟大的	-10.7771
供应商	-10.7773
并不一定	-10.7773
▁而中国	-10.7775
的外交政策	-10.7778
房地产市场	-10.778
应该被	-10.7781
的第一步	-10.7783
没有得到	-10.7785
分之一	-10.7786
观察到	-10.7789
白俄罗斯	-10.7792
同时也是	-10.7794
基础上	-10.7799
成年人	-10.7803
可以被	-10.7803
投资银行	-10.7807
贡献了	-10.7812
▁在这些	-10.7817
的年度	-10.7817
宣布了	-10.782
英国经济	-10.7821
在经历了	-10.7827
一年前	-10.7828
教训是	-10.7828
更愿意	-10.7829
无法解决	-10.7834
扩展	-10.7835
小布什	-10.7836
就可能	-10.7836
这场战争	-10.7836
健康和	-10.7837
此时	-10.7839
保持着	-10.7839
医疗保险	-10.784
各自的	-10.7849
人力	-10.7854
南美	-10.7856
据估计	-10.7856
更广	-10.786
级别	-10.7863
▁随后	-10.7872
当选总统	-10.7875
国际机构	-10.7877
国内外	-10.788
增长速度	-10.788
掌	-10.7881
正在发生	-10.7893
可见	-10.7893
似	-10.7894
让它	-10.7897
居住在	-10.7901
报告中	-10.7903
住了	-10.7907
局限	-10.7924
实证	-10.7925
审	-10.7933
▁Le	-10.7935
经济和金融	-10.7935
抓	-10.7935
考	-10.7937
总数	-10.7938
肥	-10.7939
爆	-10.7939
无效	-10.7939
黄	-10.794
谢	-10.794
▁但他	-10.794
码	-10.794
缘	-10.794
戒	-10.7941
临床	-10.7941
恨	-10.7941
敬	-10.7941
吓	-10.7941
粉	-10.7941
欺诈	-10.7941
召集	-10.7941
欺骗	-10.7941
讨价还价	-10.7941
受访者	-10.7941
随着时间的推移	-10.7941
得益于	-10.7941
野蛮	-10.7941
0.5	-10.7941
慕尼黑	-10.7941
居高不下	-10.7941
撰写	-10.7941
雅典	-10.7941
挣扎	-10.7942
迎接	-10.7942
血液	-10.7942
协商	-10.7942
整整	-10.7942
界限	-10.7943
互换	-10.7943
失控	-10.7943
购买力	-10.7943
制止	-10.7944
升温	-10.7945
戈尔	-10.7945
家园	-10.7946
听起来	-10.7946
夸大	-10.7946
Ro	-10.7948
机场	-10.7949
▁从这个角度	-10.7949
假定	-10.795
年代中期	-10.795
年时	-10.795
资本账户	-10.795
取得进展	-10.795
风格	-10.795
之争	-10.795
持续下去	-10.7951
命令	-10.7952
的举动	-10.7952
代理人	-10.7954
欧盟成员资格	-10.7954
迹象表明	-10.7954
新鲜	-10.7956
很少有人	-10.7958
压力测试	-10.7959
经济增长率	-10.7959
英里	-10.7961
意大利和西班牙	-10.7962
▁在此	-10.7963
毁灭性	-10.7964
私有	-10.7964
正处于	-10.7968
最糟糕的	-10.7969
美中	-10.7971
的意识形态	-10.7971
使他们	-10.7974
保持在	-10.7977
军事干预	-10.7977
限额	-10.7978
▁此后	-10.7978
两年前	-10.7978
宏大	-10.7982
整个欧洲	-10.7983
那么它	-10.7986
需要时间	-10.7987
很显然	-10.799
公布	-10.799
的支持下	-10.7992
退出欧盟	-10.7994
不是一个	-10.7999
这套	-10.8
并无	-10.8003
获益	-10.8005
文学	-10.8006
重要作用	-10.8006
一届	-10.8006
昂贵的	-10.8009
该协议	-10.8014
政府机构	-10.8017
近来	-10.802
qu	-10.802
极权主义	-10.8024
起了	-10.8026
日本人	-10.8031
能源需求	-10.8035
顾	-10.8038
限制了	-10.8038
我们所	-10.8045
29	-10.8045
之间存在	-10.8048
七年	-10.8051
独特的	-10.8055
不力	-10.8056
扩张性	-10.8057
的具体	-10.8057
暴力和	-10.8068
最有可能	-10.8068
▁可以肯定	-10.8069
▁2009	-10.8069
提高生产率	-10.807
me	-10.8074
的角度	-10.8083
国界	-10.8094
art	-10.8101
程度上	-10.8105
一战	-10.8105
只有一个	-10.8107
▁他说	-10.8107
▁这些国家	-10.8109
开创	-10.811
及其他	-10.8113
贫困人口	-10.8114
大门	-10.8119
迈出	-10.812
com	-10.8121
前所未有	-10.8125
38	-10.8136
盟	-10.8136
较大	-10.8137
一定会	-10.8138
世界领导人	-10.8144
下行	-10.8144
草	-10.8145
席	-10.8147
的边缘	-10.8148
经济状况	-10.8149
市场准入	-10.815
Y	-10.815
国际关系	-10.8152
国家之间	-10.8152
武	-10.8152
都是如此	-10.8153
抵	-10.8153
怪	-10.8155
签	-10.8157
毕业	-10.8157
吸取	-10.8159
博弈	-10.8159
甲烷	-10.8159
呆	-10.8159
▁简而言之	-10.8159
印度尼西亚	-10.8159
血腥	-10.8159
波斯尼亚	-10.8159
é	-10.8159
鲁莽	-10.8159
轰炸	-10.8159
竞赛	-10.8159
节奏	-10.8159
安抚	-10.8159
治愈	-10.8159
决裂	-10.8159
援引	-10.8159
从长期看	-10.8159
颇具	-10.8159
累计	-10.8159
辛格	-10.8159
妻子	-10.8159
本币	-10.816
碳定价	-10.8161
礼物	-10.8161
生物燃料	-10.8161
1995	-10.8162
世界贸易组织	-10.8162
罪犯	-10.8163
不一定	-10.8163
欧美	-10.8164
价值链	-10.8165
流血	-10.8165
先进的	-10.8166
难民营	-10.8167
无知	-10.817
指令	-10.817
罪名	-10.8171
加起来	-10.8172
技术创新	-10.8174
初级	-10.8175
论点	-10.8176
工业革命	-10.8178
贸易和投资	-10.8182
全力	-10.8184
不难	-10.8186
严厉的	-10.819
事实证明	-10.819
海上	-10.8196
常态	-10.8199
付出了	-10.82
权益	-10.8201
工作人员	-10.8202
德里	-10.8207
之间的联系	-10.8209
的印象	-10.8212
水电	-10.8213
美国国债	-10.8215
原来	-10.8216
演讲中	-10.8217
看作	-10.8223
在当前	-10.8228
深深	-10.8229
承诺要	-10.8235
这一政策	-10.8237
da	-10.8238
是一次	-10.8241
在未来十年	-10.8246
原因在于	-10.8251
多久	-10.8252
ap	-10.8257
留给	-10.8261
展现	-10.8264
最主要的	-10.8272
能源价格	-10.8279
这导致	-10.828
ive	-10.8281
受困	-10.8289
序	-10.8291
到期	-10.8292
大胆的	-10.8292
1.3	-10.8301
应对气候变化	-10.8306
不符合	-10.8307
欧盟机构	-10.8309
兴	-10.8313
某些人	-10.8318
光明	-10.8318
▁多年来	-10.8319
是显而易见的	-10.832
▁Mo	-10.8324
温家宝	-10.8333
也很	-10.8335
反腐	-10.8335
严峻的	-10.8336
0.1	-10.8336
完整的	-10.834
经济实力	-10.8344
▁第一	-10.8346
几十	-10.8347
预料	-10.8347
龄	-10.8349
▁但这种	-10.835
官员们	-10.8351
制造商	-10.8355
让欧洲	-10.8356
延	-10.8357
六年	-10.8357
战略性	-10.8362
甚至可以	-10.8368
令人震惊	-10.8371
成员资格	-10.8371
湾	-10.8379
缴	-10.8379
宁	-10.838
燃烧	-10.838
堂	-10.838
珍	-10.838
指挥	-10.838
碰	-10.8381
寄	-10.8381
枯竭	-10.8381
亚马逊	-10.8381
铜	-10.8381
克鲁格曼	-10.8381
喜马拉雅	-10.8381
寻求庇护者	-10.8381
摩尔多瓦	-10.8381
硬着陆	-10.8381
等同于	-10.8381
预示着	-10.8381
斯大林	-10.8381
俄罗斯总统普京	-10.8381
拙劣	-10.8381
忠诚	-10.8381
绑架	-10.8381
冻结	-10.8381
赌注	-10.8381
经常项目盈余	-10.8381
变迁	-10.8382
从一开始就	-10.8382
洞见	-10.8382
支配	-10.8382
高等教育	-10.8382
心态	-10.8383
哪种	-10.8383
引领	-10.8383
结算	-10.8383
抗击	-10.8383
敌意	-10.8383
反腐运动	-10.8383
手术	-10.8384
全球性的	-10.8384
倒台	-10.8384
划定	-10.8385
自豪	-10.8385
主管	-10.8385
1973	-10.8385
眼光	-10.8386
版本	-10.8386
反恐战争	-10.839
难道	-10.839
格局	-10.8391
增量	-10.8392
3,000	-10.8393
财政整合	-10.8396
每次	-10.8397
已然	-10.8398
受益于	-10.8398
低下	-10.8399
终极	-10.8401
第二个	-10.8402
被捕	-10.8402
截然不同的	-10.8405
尤其如此	-10.8406
克制	-10.8407
相近	-10.8409
使之	-10.8409
长期停滞	-10.8409
我们能够	-10.8413
形容	-10.8414
老年人	-10.8417
确	-10.8425
以致	-10.8429
的吸引力	-10.8431
斯坦	-10.8432
民营企业	-10.8436
基因组	-10.8443
良机	-10.845
令人瞩目的	-10.8453
不容	-10.8456
几天	-10.8456
境内	-10.8457
捐助	-10.846
某一	-10.8461
看出	-10.8461
能产生	-10.8463
并不意味着	-10.8466
维持在	-10.8467
纳德	-10.8468
做什么	-10.8468
大数据	-10.8469
的世界中	-10.8475
年轻的	-10.8477
今日	-10.8478
研究中心	-10.8479
和他的	-10.848
越来越多	-10.8481
外国投资者	-10.8483
至今仍	-10.8489
的话说	-10.8491
的两倍	-10.8495
会增加	-10.8501
联合政府	-10.8503
这一挑战	-10.8505
社会民主党	-10.8507
▁我们应该	-10.8507
雄心勃勃的	-10.8509
▁这里	-10.8516
现实是	-10.8518
较小	-10.8521
敢	-10.8521
多个国家	-10.8525
ion	-10.8528
已经从	-10.853
人心	-10.8541
的敌人	-10.8555
因为其	-10.8555
有超过	-10.8564
债务国	-10.8565
一句	-10.8565
美国和中国	-10.8568
夏天	-10.8569
出手	-10.8574
内政	-10.8582
其国内	-10.8584
卫	-10.8588
31	-10.859
误导	-10.8592
举行了	-10.8592
出人意料	-10.8593
种类	-10.8598
对俄罗斯	-10.8599
Sa	-10.86
市值	-10.8601
扩大到	-10.8601
这只是	-10.8602
制药	-10.8602
▁我们可以	-10.8603
有价值的	-10.8604
杜	-10.8605
雄	-10.8605
海平面	-10.8605
阵	-10.8606
村	-10.8606
援	-10.8606
▁这对于	-10.8607
俗	-10.8607
癌	-10.8607
帐	-10.8608
弗里德曼	-10.8608
奴	-10.8608
检察官	-10.8608
喊	-10.8608
大相径庭	-10.8608
经通胀调整	-10.8608
资本外逃	-10.8608
哥斯达黎加	-10.8608
雷曼兄弟	-10.8608
氛围	-10.8608
TTIP	-10.8608
妄	-10.8608
蓬勃发展	-10.8608
亚洲基础设施投资银行	-10.8608
搬	-10.8608
辉	-10.8608
不复存在	-10.8608
艰苦	-10.8608
▁Development	-10.8608
掠夺	-10.8608
搜索	-10.8608
悖论	-10.8608
细菌	-10.8608
大西洋两岸	-10.8608
挫折	-10.8608
储户	-10.8609
单纯	-10.8609
约翰逊	-10.8609
拨款	-10.8609
派遣	-10.8609
撤离	-10.8609
五分之一	-10.8609
令人不安的	-10.861
反驳	-10.861
何处	-10.861
短视	-10.861
债权国	-10.8612
迪拜	-10.8612
经费	-10.8612
远高于	-10.8612
高水平	-10.8614
种种	-10.8614
高效的	-10.8614
潮流	-10.8615
讽刺的是	-10.8615
同时还	-10.8616
各项	-10.8617
的诱惑	-10.8618
无限	-10.8619
偏向	-10.8622
优质	-10.8622
习近平主席	-10.8625
可疑	-10.8627
EC	-10.8627
欧盟委员会主席	-10.8629
压倒性	-10.8629
约有	-10.8629
大脑	-10.8631
的愤怒	-10.8631
能得到	-10.8632
描绘	-10.8634
出发	-10.8636
▁无论是	-10.8643
有所不同	-10.8646
可以成为	-10.8651
选民们	-10.8654
活动家	-10.8655
od	-10.8656
宏观经济政策	-10.8665
一致性	-10.8667
大部	-10.8671
长久	-10.8671
ov	-10.8672
的背景下	-10.8672
进来	-10.8675
理由是	-10.8676
就是一个	-10.8679
成为全球	-10.8681
拉低	-10.8686
受影响	-10.8688
长期增长	-10.8693
洲	-10.8693
▁但即使	-10.8693
的净	-10.8695
▁在这种情况下	-10.8696
信息技术	-10.8698
这个世界	-10.87
成分	-10.8701
这三个	-10.8703
美国和英国	-10.8707
上世纪	-10.8709
这样一种	-10.8709
欧元危机	-10.8709
仅占	-10.8716
se	-10.8723
明星	-10.8727
该党	-10.8728
预见	-10.8733
富裕的	-10.8737
解决的问题	-10.8738
发展中	-10.8738
正在经历	-10.8745
地带	-10.8746
▁但这样的	-10.8749
威胁要	-10.8749
般的	-10.8755
的口号	-10.8756
▁2001	-10.8762
中扮演	-10.8764
分钟	-10.8767
不安全	-10.8769
两人	-10.8772
部分是因为	-10.8775
生产性	-10.878
司	-10.8783
ru	-10.8785
恰当的	-10.8785
更广泛	-10.8793
▁在英国	-10.8793
▁这对	-10.8797
37	-10.88
政府可以	-10.8801
中国官员	-10.8803
令人担忧	-10.8808
认为美国	-10.8811
的第二个	-10.8819
39	-10.882
贫困国家	-10.8822
两位数	-10.8823
ang	-10.8825
相对较	-10.8826
一如	-10.8828
的主要原因	-10.8829
民意	-10.883
孟加拉	-10.8834
发生过	-10.8837
不作为	-10.8837
醒	-10.8839
牙	-10.8839
跃	-10.884
牧	-10.884
辱	-10.884
浮动	-10.884
灾害	-10.8841
窄	-10.8841
浅	-10.8841
糖	-10.8841
罗姆人	-10.8841
孙	-10.8841
小儿麻痹症	-10.8841
愈演愈烈	-10.8841
法塔赫	-10.8841
1993	-10.8841
亚努科维奇	-10.8841
玻利维亚	-10.8841
爱因斯坦	-10.8841
猛烈	-10.8841
恐怕	-10.8841
钓鱼岛	-10.8841
奋斗	-10.8841
批判	-10.8841
▁具体而言	-10.8841
顶尖	-10.8841
不对称	-10.8841
先锋	-10.8841
伤亡	-10.8841
清洗	-10.8841
0.3	-10.8842
不断地	-10.8842
包装	-10.8842
找不到	-10.8842
启发	-10.8842
反馈	-10.8842
海域	-10.8842
缴纳	-10.8842
转折点	-10.8842
僵化	-10.8843
收获	-10.8843
春天	-10.8843
更深层次的	-10.8843
一贯	-10.8844
令人沮丧	-10.8844
清理	-10.8844
结局	-10.8844
顺利	-10.8845
死亡人数	-10.8846
政策制定者们	-10.8847
日趋	-10.8848
战场	-10.8849
花钱	-10.8851
额度	-10.8852
大卫	-10.8852
分类	-10.8852
由美国	-10.8854
▁一方面	-10.8854
才能实现	-10.8854
物价稳定	-10.8854
▁第一个	-10.8854
普通民众	-10.8855
任何时候	-10.8855
急于	-10.8857
同一个	-10.8858
急需的	-10.8858
这并不是	-10.8859
四大	-10.886
携带	-10.8862
政客们	-10.8864
1960	-10.8867
基础设施建设	-10.8868
今年夏天	-10.8868
真空	-10.8872
整个地区	-10.8873
遏制气候变化	-10.8878
集中于	-10.8879
表现得	-10.888
旅游	-10.888
史上	-10.8882
对以色列	-10.8885
前苏联	-10.8894
黑人	-10.8894
而在于	-10.8899
将进一步	-10.8902
▁当今	-10.8907
中欧	-10.8909
设想	-10.8911
早在	-10.8912
全世界最	-10.8914
将注意力	-10.8919
某些国家	-10.892
家庭收入	-10.8922
较高	-10.8927
更强大	-10.8928
有一种	-10.8928
恰当	-10.893
充足	-10.8932
社会党	-10.8932
实现这一点	-10.8932
知名	-10.8932
任何国家	-10.8932
仅为	-10.8934
矿产	-10.8938
解决这一问题	-10.8939
▁近几年来	-10.894
um	-10.8943
抱有	-10.8948
来进行	-10.895
est	-10.8951
▁如果不	-10.8953
负责任	-10.8954
不公	-10.8956
马拉	-10.8958
有些人	-10.8959
中印	-10.896
适	-10.8963
▁该计划	-10.8964
一百万	-10.8965
首位	-10.898
库尔德	-10.8983
相似的	-10.8983
了一系列	-10.8993
主要由	-10.8994
英国选民	-10.8995
中国股市	-10.8998
影子银行	-10.9006
书中	-10.9007
关键问题	-10.9012
劳动生产率	-10.9014
抛	-10.9015
之多	-10.9016
▁首先是	-10.9019
认	-10.902
可以帮助	-10.9022
地球上	-10.9029
并以此	-10.9036
某种形式的	-10.904
域	-10.9059
找到了	-10.9059
流出	-10.906
本身就	-10.9062
适当	-10.9066
的研究表明	-10.9066
续	-10.9066
英格兰	-10.9068
倾	-10.9069
累	-10.9076
论者	-10.9076
桶	-10.9077
状	-10.9077
耕	-10.9078
刺	-10.9078
绿	-10.9078
芬	-10.9078
丑	-10.9079
臭名昭著	-10.9079
泽	-10.9079
茨	-10.9079
耶路撒冷	-10.9079
鸦片	-10.9079
乌托邦	-10.9079
1996	-10.9079
2008—2009	-10.9079
雪上加霜	-10.9079
饥荒	-10.9079
戴高乐	-10.9079
傲慢	-10.9079
摩擦	-10.9079
经常账户	-10.9079
顶峰	-10.9079
罚款	-10.9079
监禁	-10.9079
国民阵线	-10.9079
标题	-10.908
违背	-10.908
坏消息	-10.908
微弱	-10.908
感谢	-10.908
记住	-10.9081
必须认识到	-10.9081
站出来	-10.9081
比方说	-10.9081
买单	-10.9082
分割	-10.9082
最小化	-10.9083
专业人士	-10.9083
成效	-10.9083
古老的	-10.9086
过度负债	-10.9088
落入	-10.9089
评论家	-10.9089
存量	-10.9091
世行	-10.9091
就此	-10.9092
竞选活动	-10.9093
愿望	-10.9093
负面影响	-10.9094
同行	-10.9097
涌现	-10.9098
储备货币	-10.91
新政	-10.91
殖民地	-10.91
被允许	-10.9104
经历过	-10.9106
所说	-10.9106
新时代	-10.9106
不允许	-10.9106
一份报告	-10.9106
这个词	-10.9108
这方面	-10.9109
在叙利亚	-10.9111
暴露出	-10.9114
比索	-10.9115
你可以	-10.9116
层面上	-10.9117
生活质量	-10.9117
月初	-10.9118
▁普林斯顿	-10.912
▁2017	-10.9122
一张	-10.9124
的榜样	-10.9124
医疗体系	-10.9125
不惜	-10.9127
多年前	-10.913
同样重要	-10.9135
继续下去	-10.9137
48	-10.9139
会发生	-10.9141
手里	-10.9148
最初的	-10.915
的意见	-10.9153
▁但我	-10.9155
是否应该	-10.9156
等到	-10.9161
量化	-10.9164
最近几年	-10.9168
移民政策	-10.917
会面	-10.9174
避免了	-10.918
▁在一个	-10.918
错误地	-10.9187
认为他们	-10.919
1.2	-10.9192
意味着什么	-10.9194
▁这也	-10.9194
仅限于	-10.9195
东方	-10.9195
很少有	-10.9196
许	-10.9197
服务于	-10.9207
少数群体	-10.921
ton	-10.9212
月底	-10.9215
全球基金	-10.9215
有用的	-10.9227
并通过	-10.9227
相关性	-10.9228
太少	-10.9229
欧盟和美国	-10.923
重回	-10.9234
独特	-10.9234
危及	-10.9236
一切都	-10.9236
更小	-10.9239
也不可能	-10.9242
引入了	-10.9248
都不能	-10.9251
军政府	-10.9251
当成	-10.9251
月以来	-10.9252
它可以	-10.9256
不一样	-10.9273
漫长的	-10.9273
发现自己	-10.9283
▁也就是说	-10.9284
以色列人	-10.9285
ng	-10.9286
青	-10.9288
的信念	-10.9289
男	-10.9289
194	-10.9289
诱惑	-10.9291
之地	-10.9292
暴行	-10.9294
德拉	-10.9304
美国财政部	-10.9305
部落	-10.9305
参与了	-10.9307
的动机	-10.9308
始	-10.9311
不用	-10.9312
有力的	-10.9314
操	-10.9316
Ben	-10.9317
燃	-10.9318
幻	-10.9319
银行贷款	-10.932
伏	-10.932
SA	-10.932
妙	-10.932
舆论	-10.932
鼓	-10.9321
瘫痪	-10.9321
厌	-10.9322
计价	-10.9322
床	-10.9322
克里米亚	-10.9323
X	-10.9323
娱乐	-10.9323
挑衅	-10.9323
世卫组织	-10.9323
在一定程度上	-10.9323
辅之以	-10.9323
分崩离析	-10.9323
哥	-10.9323
驾驶	-10.9323
肆虐	-10.9323
萨默斯	-10.9323
亚美尼亚	-10.9323
令人惊讶	-10.9323
灌溉	-10.9323
仅次于	-10.9323
莎	-10.9323
萨科齐	-10.9323
您	-10.9323
▁Party	-10.9323
检验	-10.9323
规避	-10.9323
招募	-10.9323
夸张	-10.9323
初衷	-10.9323
世界秩序	-10.9323
策划	-10.9323
邻居	-10.9323
耶伦	-10.9323
广播	-10.9324
徒劳	-10.9324
预警	-10.9324
黑客	-10.9324
截至	-10.9324
挑起	-10.9325
货物	-10.9325
布朗	-10.9325
不难理解	-10.9325
企业家精神	-10.9326
真理	-10.9326
前总理	-10.9326
原理	-10.9326
动乱	-10.9327
通信	-10.9328
发射	-10.9329
空白	-10.9329
华盛顿共识	-10.933
温和派	-10.933
威尔	-10.9331
接纳	-10.9331
做些什么	-10.9331
收入水平	-10.9332
摆脱贫困	-10.9334
局限性	-10.9335
很大程度上	-10.9336
大笔	-10.9336
多边主义	-10.9337
公共品	-10.9337
▁Economic	-10.9338
准备金	-10.9339
金融改革	-10.9339
IC	-10.9339
所发生的	-10.9341
可供	-10.9341
明天	-10.9342
做出反应	-10.9343
有意义	-10.9344
的焦点	-10.9348
相当大的	-10.9349
15%	-10.9351
▁有些人	-10.9353
下跌了	-10.9355
制造了	-10.9355
把它	-10.9356
贸易顺差	-10.936
等其他	-10.9368
世界贸易	-10.9371
小规模	-10.9373
Sh	-10.9374
低水平	-10.9376
而后者	-10.9377
法德	-10.9379
有大量	-10.9386
摆脱了	-10.9387
有很大	-10.9387
Pro	-10.9391
经合组织国家	-10.9393
左	-10.9394
有任何	-10.9396
▁这不是	-10.9397
比以往	-10.9403
英国将	-10.9404
2019	-10.9405
的继任者	-10.9415
技术官僚	-10.9418
货币市场	-10.9422
但我	-10.9422
的呼声	-10.9427
几乎是	-10.943
这一进程	-10.9434
而不仅仅是	-10.9437
诊	-10.9438
适当的	-10.9438
未经	-10.9444
如果你	-10.9448
必需	-10.945
潜	-10.9452
▁我们希望	-10.9452
抱	-10.9457
必须得到	-10.9458
▁除此之外	-10.946
已被	-10.9463
流行病	-10.9466
▁他还	-10.9466
许可	-10.9469
既有	-10.9472
最贫穷	-10.9473
所说的	-10.9477
大公司	-10.9478
纯	-10.9482
社会中	-10.9484
进了	-10.9485
欧盟必须	-10.9485
对于那些	-10.9486
受伤	-10.9488
将决定	-10.9488
国内经济	-10.9493
这些挑战	-10.9501
表达了	-10.9502
破裂	-10.9511
被忽视	-10.9512
刺激经济	-10.9516
深陷	-10.9516
的难度	-10.9517
幸	-10.9519
知识和	-10.9521
全球金融市场	-10.9522
从而导致	-10.9532
捕	-10.9539
介	-10.9544
这一决定	-10.9544
改善了	-10.9546
实际上是	-10.9553
董事	-10.9557
代人	-10.9557
将不得不	-10.9557
的愿望	-10.9559
洋	-10.956
反常	-10.9561
银	-10.9561
叛	-10.9562
大城市	-10.9563
握	-10.9564
目前正在	-10.9564
监	-10.9564
和其它	-10.9567
1.9	-10.9567
洪	-10.9568
耐	-10.957
渔	-10.957
密集型	-10.9571
荣	-10.9571
纵	-10.9571
镇	-10.9572
惯	-10.9572
炼	-10.9572
阴	-10.9572
拟	-10.9572
乔	-10.9572
钢	-10.9572
乘	-10.9572
馆	-10.9572
麻	-10.9573
边际	-10.9573
菜	-10.9573
页	-10.9573
常任理事国	-10.9573
阿尔巴尼亚	-10.9573
独一无二	-10.9573
一小撮	-10.9573
恋	-10.9573
ODA	-10.9573
背道而驰	-10.9573
阿里巴巴	-10.9573
不足为奇	-10.9573
创始人	-10.9573
增值税	-10.9573
迁移	-10.9573
背叛	-10.9573
借鉴	-10.9573
薄弱	-10.9573
高速公路	-10.9573
聚集	-10.9573
信奉	-10.9573
本月早些时候	-10.9573
由此产生的	-10.9574
昔日	-10.9574
结婚	-10.9574
原材料	-10.9574
客观	-10.9574
买卖	-10.9574
迟早	-10.9574
民主刚果	-10.9575
来支持	-10.9575
必定	-10.9575
远景	-10.9575
政界	-10.9576
▁但即便	-10.9577
米兰	-10.9577
清楚地表明	-10.9578
发现了	-10.958
比较优势	-10.958
也是一个	-10.958
步入	-10.9581
配合	-10.9581
埃尔	-10.9583
合约	-10.9583
最低工资	-10.9584
作战	-10.9586
其他许多	-10.9586
ve	-10.9586
执政联盟	-10.9586
要实现	-10.9587
名声	-10.959
本次	-10.9592
人民币汇率	-10.9593
不论是	-10.9597
合法化	-10.9598
完整	-10.9605
重心	-10.9607
几年前	-10.961
创造就业	-10.9611
多极	-10.9611
降临	-10.9612
法西斯主义	-10.9613
改革计划	-10.9614
通常会	-10.9615
致使	-10.9624
这是个	-10.9626
风能	-10.9634
▁而如果	-10.9637
的领导者	-10.9637
的位置	-10.9638
邻	-10.9642
事先	-10.9644
得起	-10.9646
不亚于	-10.9646
学到	-10.9649
原有	-10.9649
在明年	-10.9655
到处	-10.9661
父	-10.9662
收入分配	-10.9663
前提是	-10.9674
带有	-10.9679
工业化国家	-10.9682
得到解决	-10.9685
日子	-10.9686
它必须	-10.9692
不已	-10.9699
主要来自	-10.9699
能源政策	-10.9699
的增长模式	-10.9704
民主党人	-10.9705
无不	-10.9707
如果不是	-10.9708
能够让	-10.971
Ra	-10.971
经验表明	-10.9711
新生	-10.9716
低增长	-10.9721
一波	-10.9726
控制着	-10.9735
忘	-10.9738
▁更不用说	-10.9738
hi	-10.9741
存款保险	-10.9743
便已	-10.9746
一笔	-10.9747
其它国家	-10.9756
美国和欧盟	-10.9756
是一件	-10.9758
有责任	-10.9767
印象	-10.9768
的梦想	-10.9772
撤	-10.9778
西方人	-10.9779
Ma	-10.978
把他们	-10.9782
识	-10.9785
大战	-10.9786
年期间	-10.9792
涌	-10.9797
闭	-10.9806
重要的是	-10.981
渐	-10.9816
▁但它们	-10.9817
决定因素	-10.9818
更深	-10.982
主要原因是	-10.982
术	-10.9821
又会	-10.9822
结束后	-10.9825
航空	-10.9825
尊	-10.9826
只不过	-10.9826
▁而尽管	-10.9827
奥运会	-10.9827
讯	-10.9828
伪	-10.9828
的时机	-10.9828
新西兰	-10.9829
站不住脚	-10.9829
脉	-10.9829
赴	-10.9829
▁纽黑文	-10.9829
急切地	-10.9829
瑟	-10.9829
剥削	-10.9829
社会安全网	-10.9829
肿瘤	-10.9829
四分之三	-10.9829
1.4	-10.9829
搜集	-10.9829
源泉	-10.9829
赞扬	-10.9829
虚拟	-10.9829
靠拢	-10.9829
贩毒	-10.9829
脱盟	-10.983
结盟	-10.983
蓝图	-10.983
股份	-10.983
队伍	-10.983
坚守	-10.983
在这样的背景下	-10.983
的必要条件	-10.983
算不上	-10.983
德拉吉	-10.983
照顾	-10.983
头寸	-10.983
西岸	-10.9831
经常账户赤字	-10.9831
右派	-10.9831
法国和德国	-10.9831
留欧	-10.9831
偏远	-10.9832
在我看来	-10.9832
存活	-10.9832
见证	-10.9832
考量	-10.9833
付出代价	-10.9833
很久	-10.9833
解雇	-10.9834
美元计价	-10.9834
分支	-10.9834
知识分子	-10.9835
今年早些时候	-10.9835
德尔	-10.9836
机关	-10.9836
高级官员	-10.9836
精心	-10.9837
州长	-10.9837
▁美国剑桥	-10.9838
联合起来	-10.9838
记得	-10.9839
通货膨胀率	-10.984
写入	-10.984
赫尔	-10.9841
武装冲突	-10.9843
总统奥巴马	-10.9844
反击	-10.9846
清算所	-10.9847
那次	-10.9848
开战	-10.9849
明确表示	-10.985
毫不奇怪	-10.9851
还有很多	-10.9858
投票权	-10.9858
对中国来说	-10.9863
公里	-10.9863
tor	-10.9864
劳动力成本	-10.9872
涉及到	-10.9873
两家	-10.9873
暴力冲突	-10.9874
贸易协议	-10.9875
年份	-10.988
有史以来	-10.9889
看着	-10.989
全球气候	-10.9891
安全性	-10.9891
共有	-10.9892
一直以来	-10.9894
议会选举	-10.9895
这一切都	-10.9898
更有效的	-10.9902
34	-10.9906
气温	-10.9918
根深蒂固的	-10.9918
只是一个	-10.992
不敢	-10.992
进一步加剧	-10.9921
美国企业	-10.9921
究竟是	-10.9929
产业政策	-10.9931
▁归根结底	-10.9935
发展战略	-10.9937
讲话中	-10.9941
将达到	-10.9943
与印度	-10.9944
受到威胁	-10.9948
最重要的是	-10.995
研究发现	-10.9955
将近	-10.9956
解决这个问题	-10.9957
星球	-10.9963
形成一个	-10.997
他所	-10.9972
To	-10.9973
促成了	-10.9986
再到	-10.9991
我们正在	-10.9992
过去几年	-10.9993
就业创造	-10.9997
坚持认为	-11.0005
欧洲货币联盟	-11.0011
55	-11.0012
这两大	-11.0015
可以提供	-11.0022
支持率	-11.0027
法则	-11.0028
强劲增长	-11.0028
大部分国家	-11.0029
ction	-11.0032
佳	-11.0048
党内	-11.0051
来帮助	-11.0051
在今后	-11.0054
就在于	-11.0056
唯	-11.0064
截然不同	-11.0064
一个事实	-11.0064
市场力量	-11.0066
这种方法	-11.0067
幅	-11.0069
闻	-11.007
最有效的	-11.0071
可比	-11.0072
一个重要的	-11.0072
可再生	-11.0075
▁如果没有	-11.0075
伙伴国	-11.0076
要好	-11.0081
代理	-11.0082
将产生	-11.0084
影响着	-11.0085
能使	-11.0086
反恐	-11.0087
恐	-11.0087
医保	-11.0088
污	-11.0089
重创	-11.0089
浪	-11.009
洗	-11.009
鼓舞	-11.009
弊	-11.009
秘	-11.0091
里斯本	-11.0091
的角度看	-11.0091
障	-11.0092
基尼系数	-11.0092
插	-11.0092
达尔富尔	-11.0092
IPCC	-11.0092
庄稼	-11.0092
联邦基金利率	-11.0092
薄熙来	-11.0092
阿拉法特	-11.0092
勃	-11.0092
随处可见	-11.0092
第二次世界大战	-11.0092
阿巴斯	-11.0092
弹道导弹	-11.0092
保加利亚	-11.0092
巧妙	-11.0092
科尔宾	-11.0092
Davi	-11.0093
参考	-11.0093
轴心	-11.0093
寻常	-11.0093
古典	-11.0093
迎合	-11.0093
卫星	-11.0093
表态	-11.0093
业绩	-11.0093
缩短	-11.0093
清醒	-11.0093
沃伦	-11.0093
省份	-11.0093
现今	-11.0093
渔业	-11.0094
节省	-11.0094
放宽	-11.0094
认真对待	-11.0094
差不多	-11.0094
违法	-11.0094
助推	-11.0095
极端天气	-11.0095
▁Sch	-11.0095
坐视	-11.0095
起草	-11.0096
卡特尔	-11.0096
缩水	-11.0097
壮大	-11.0097
重演	-11.0097
教条	-11.0098
提起	-11.0099
传达	-11.0099
备受	-11.01
的产物	-11.0101
据此	-11.0101
飞行	-11.0101
局部	-11.0101
全球金融	-11.0101
强硬派	-11.0102
捕获	-11.0102
远见	-11.0103
说辞	-11.0104
从来没有	-11.0106
越发	-11.0108
买家	-11.0108
男人	-11.0109
生产国	-11.011
尽量	-11.0111
困扰着	-11.0113
穿越	-11.0115
爱国	-11.0116
之举	-11.0116
初期	-11.0117
和爱尔兰	-11.0117
集体行动	-11.0119
最基本的	-11.012
领导地位	-11.0121
象征性	-11.0125
军力	-11.0126
穆斯林世界	-11.0127
专家们	-11.0127
良性	-11.0128
军事实力	-11.0129
出路	-11.013
同样重要的是	-11.0131
这种说法	-11.0132
对它们	-11.0135
苏联解体	-11.0135
麦克	-11.0137
不负责任的	-11.0138
所面临的挑战	-11.014
以避免	-11.014
老化	-11.0143
农地	-11.0144
够	-11.0145
这些风险	-11.0145
职能	-11.0146
简单地	-11.0148
和其他地区	-11.015
是不可避免的	-11.0152
技能和	-11.0154
▁如果说	-11.016
应该得到	-11.0161
高技能	-11.0163
地图	-11.017
的典型	-11.0175
广义	-11.0179
新成员国	-11.018
解释是	-11.018
拉美国家	-11.0186
最需要	-11.0191
大部分地区	-11.0195
有一天	-11.0201
的著作	-11.0203
过热	-11.0203
岸	-11.0205
中国当局	-11.0208
我认为	-11.0212
受到影响	-11.0215
并不像	-11.0216
教学	-11.0227
在发达国家	-11.0229
所获得的	-11.023
制作	-11.0232
以内	-11.0232
我们无法	-11.0239
善意	-11.0241
5000	-11.0243
该项目	-11.0248
银行监管	-11.0249
▁比如说	-11.025
掩盖了	-11.0254
在巴黎	-11.027
美国消费者	-11.0276
和南非	-11.0277
纯粹的	-11.0285
政治改革	-11.0285
不喜欢	-11.0287
家庭消费	-11.0288
中立	-11.0289
也不应该	-11.029
迫	-11.0291
社会动荡	-11.0302
趋	-11.0304
这一局面	-11.0308
的一个重要	-11.0308
大幅提高	-11.0309
下一代	-11.0311
国民债务	-11.0311
游客	-11.0319
昂	-11.032
将取决于	-11.0321
典型的	-11.0321
足以让	-11.0324
增长和就业	-11.0326
不大	-11.0327
可能发生	-11.0331
视频	-11.0334
空中	-11.0334
给出了	-11.0336
也有助于	-11.0337
兑美元	-11.0337
这种状况	-11.034
加利福尼亚	-11.034
突	-11.0343
政治精英	-11.0351
lan	-11.0358
芝加哥	-11.0359
哈佛	-11.036
虎	-11.0361
朱	-11.0362
仓	-11.0362
蓄	-11.0362
埋	-11.0363
大规模杀伤性武器	-11.0363
葬	-11.0363
淘汰	-11.0363
迈克尔	-11.0363
瘾	-11.0363
骄傲	-11.0363
各不相同	-11.0363
皮凯蒂	-11.0363
擅长	-11.0363
技巧	-11.0363
恐吓	-11.0363
西班牙和意大利	-11.0363
燃煤	-11.0363
幻觉	-11.0363
弥合	-11.0363
肯尼迪	-11.0363
委托	-11.0364
营销	-11.0364
逃脱	-11.0364
旅游业	-11.0364
范例	-11.0364
区区	-11.0364
冲动	-11.0365
剔除	-11.0365
女儿	-11.0365
拖入	-11.0366
原油	-11.0367
惠及	-11.0367
派系	-11.0367
固定汇率	-11.0367
品牌	-11.0368
光靠	-11.0369
另一场	-11.037
走势	-11.037
托尼	-11.0371
宽带	-11.0371
货币宽松	-11.0375
在此过程中	-11.0376
头条	-11.0377
令人震惊的	-11.0379
服用	-11.0381
乐于	-11.0381
资产泡沫	-11.0381
误导性	-11.0382
贫困线	-11.0382
每一次	-11.0382
是否真的	-11.0383
十分困难	-11.0383
特区	-11.0385
所指出的那样	-11.0385
效率低下	-11.0385
主权债务危机	-11.0388
过早	-11.0389
增长前景	-11.0392
可言	-11.0392
受过	-11.0393
教育体系	-11.0395
中低收入国家	-11.04
不断扩大的	-11.0404
印度和中国	-11.0405
后面	-11.0405
两名	-11.0406
应有的	-11.0408
籍	-11.0411
预防性	-11.0412
经济关系	-11.0417
商业领袖	-11.0424
▁而事实上	-11.0429
投资项目	-11.0431
毫	-11.0431
不好	-11.0433
私营	-11.0434
于此	-11.0436
▁000	-11.0436
商业模式	-11.0438
经济学家们	-11.0442
领导人们	-11.0444
网上	-11.0445
欧元区危机	-11.0448
不相信	-11.045
在发展中国家	-11.0451
120	-11.0459
就不可能	-11.046
▁这不仅	-11.0464
刺激增长	-11.0464
ari	-11.0466
人们认为	-11.0477
大大增加	-11.048
多项	-11.0481
孤立主义	-11.0483
▁即便是	-11.0487
过去二十年	-11.0489
回来	-11.0492
不清	-11.0493
意在	-11.0493
安全感	-11.0498
经济停滞	-11.0505
哪里	-11.0508
市场化	-11.051
0.7	-11.051
正确地	-11.0517
让自己	-11.0522
应该采取	-11.0525
积极地	-11.0525
不平等状况	-11.0525
上学	-11.0527
一本	-11.0527
低通胀	-11.053
可以用来	-11.0537
可以作为	-11.0543
第三大	-11.0544
竞争者	-11.0549
已故	-11.0551
长期以来一直	-11.0554
精英们	-11.0561
经济制裁	-11.0568
未来十年	-11.0569
不清楚	-11.0571
沉重	-11.0573
民营	-11.0574
这并不意味着	-11.0574
已经证明	-11.0577
短短	-11.0582
其中之一	-11.0586
想让	-11.0591
第一步	-11.0592
要点	-11.0603
归因于	-11.0606
读者	-11.0609
老年	-11.0613
丹	-11.0613
八年	-11.0615
在南海	-11.0617
阴谋	-11.0619
诉	-11.0621
教徒	-11.0623
数据显示	-11.0628
绕	-11.0635
腐	-11.0635
宪章	-11.0637
右	-11.0638
刊	-11.0638
卷	-11.0638
教堂	-11.0639
彩	-11.0639
互联	-11.0639
池	-11.0639
钻	-11.0639
孔	-11.064
少数族裔	-11.064
佐	-11.064
勤	-11.064
桑托斯	-11.064
公务员	-11.064
斯诺登	-11.064
不惜一切代价	-11.064
托马斯	-11.064
正因如此	-11.064
理所当然	-11.064
缝	-11.064
eph	-11.064
不动产	-11.064
罗姆尼	-11.064
arry	-11.064
国民生产总值	-11.064
懂	-11.064
金正恩	-11.064
铭记	-11.064
寒	-11.064
培育	-11.064
悲惨	-11.064
▁果真如此	-11.064
幽灵	-11.0641
报酬	-11.0641
规律	-11.0641
采访	-11.0641
亨利	-11.0641
健全	-11.0641
申根	-11.0641
赌博	-11.0641
弊端	-11.0641
民意调查	-11.0641
意料	-11.0641
冷静	-11.0641
捷克	-11.0641
抬头	-11.0641
正好相反	-11.0641
征服	-11.0641
汇款	-11.0641
服装	-11.0641
朝鲜半岛	-11.0642
智库	-11.0642
赚取	-11.0642
掀起	-11.0642
自然灾害	-11.0642
赋权	-11.0642
Jos	-11.0643
频率	-11.0643
动议	-11.0644
清单	-11.0644
可信度	-11.0645
领土主张	-11.0645
很难想象	-11.0646
卢拉	-11.0646
打消	-11.0646
触及	-11.0647
建筑业	-11.0648
加强了	-11.065
接入	-11.0652
贸易壁垒	-11.0652
一次性	-11.0653
笔者	-11.0655
物流	-11.0657
开罗	-11.0658
靠近	-11.0658
重新思考	-11.0658
兑	-11.0659
经常项目	-11.0661
第三方	-11.0662
最优	-11.0662
开明	-11.0663
商业周期	-11.0664
带领	-11.0664
国际货币	-11.0664
退化	-11.0664
浮现	-11.0671
有多大	-11.0673
真是	-11.0679
外长	-11.068
权势	-11.0682
反犹主义	-11.0684
至少有	-11.0686
马德里	-11.0686
世界人口	-11.0687
大气中	-11.0688
马尔	-11.0689
新自由主义	-11.069
不断增长的	-11.0692
政治权力	-11.0697
预见到	-11.0709
金融动荡	-11.0711
曾经是	-11.0712
反美	-11.0712
▁但由于	-11.0713
财政调整	-11.0714
言之	-11.0714
大企业	-11.0715
vi	-11.0719
已经达到了	-11.0724
中左翼	-11.0726
降低利率	-11.0727
广大	-11.0728
执政党	-11.0733
至少是	-11.0736
八个	-11.0736
展	-11.0739
一周	-11.0742
另	-11.0745
消费支出	-11.0749
亿人口	-11.0749
可能不会	-11.0751
公布的	-11.0752
有组织	-11.0755
本能	-11.0757
近几十年来	-11.0772
每天都	-11.078
说服力	-11.0781
其他任何	-11.0781
表面上	-11.0811
越来越多的人	-11.0812
Hu	-11.0812
针	-11.0813
气候政策	-11.0816
高额	-11.0818
时间里	-11.0819
体系中	-11.082
不同于	-11.082
名叫	-11.0825
▁De	-11.0827
不去	-11.0832
▁在这里	-11.0834
发展模式	-11.0836
收入差距	-11.0845
融	-11.0851
相符	-11.0855
高位	-11.0858
只有通过	-11.0859
持有者	-11.0861
数十亿	-11.0861
数十万	-11.0861
环境问题	-11.0863
房地产泡沫	-11.0866
对于中国	-11.0868
44	-11.0875
生活中	-11.088
斯塔	-11.0881
fi	-11.0883
诱	-11.0883
多于	-11.0884
中间派	-11.0888
来衡量	-11.0889
为中心	-11.0895
350	-11.0896
远远超过	-11.0897
常常被	-11.0905
感受	-11.0906
所得	-11.0909
极少数	-11.0909
是多么	-11.0912
己	-11.0918
涉	-11.092
任总统	-11.0923
妇	-11.0923
更加复杂	-11.0923
优惠	-11.0924
古老	-11.0925
谱	-11.0925
幼	-11.0925
衷	-11.0926
撞	-11.0926
摄	-11.0926
跑	-11.0926
酸	-11.0926
罗塞夫	-11.0926
拓展	-11.0926
枚	-11.0926
闪	-11.0926
韦	-11.0926
鼠	-11.0926
湖	-11.0926
金本位	-11.0926
巡	-11.0926
热衷于	-11.0926
可以追溯到	-11.0926
顾虑	-11.0926
1982	-11.0926
畜	-11.0926
英国独立党	-11.0926
军备竞赛	-11.0926
两极分化	-11.0926
蔑视	-11.0926
闹剧	-11.0926
齐聚	-11.0926
附加	-11.0927
标签	-11.0927
匿名	-11.0927
审计	-11.0927
包围	-11.0927
离岸	-11.0927
仇外	-11.0927
脸书	-11.0927
坚信	-11.0927
种族隔离	-11.0928
携手	-11.0928
核裁军	-11.0928
参选	-11.0928
鲜明	-11.0929
顶级	-11.0929
公共资金	-11.0929
氧化	-11.0929
购物	-11.093
欧洲经济区	-11.093
市政	-11.093
所说的那样	-11.0931
金属	-11.0931
定居	-11.0931
退休基金	-11.0931
逃税	-11.0931
平价	-11.0933
描述了	-11.0933
还要多	-11.0934
一股	-11.0934
与会者	-11.0935
▁Li	-11.0935
枪支	-11.0936
可能引发	-11.0937
信用卡	-11.0938
源自于	-11.0939
中日	-11.0939
调查显示	-11.0939
个别	-11.0941
俄罗斯人	-11.0943
卡特	-11.0946
过往	-11.0946
强度	-11.0946
暂时性	-11.0949
首尔	-11.0949
大面积	-11.095
更有效地	-11.0952
才有可能	-11.0952
源头	-11.0955
所处的	-11.0961
革新	-11.0962
公司税	-11.0967
本书	-11.0969
核电	-11.097
1.6	-11.097
对环境	-11.0972
民主政体	-11.0974
走到	-11.0976
拒绝接受	-11.0976
不断上升	-11.0978
在此之前	-11.098
▁这是因为	-11.0981
外围国家	-11.0984
已经取得了	-11.0988
数十	-11.0992
更加严重	-11.0992
数据表明	-11.0993
落在	-11.0993
我所	-11.1006
这一状况	-11.1007
宏大的	-11.101
目前为止	-11.1013
军官	-11.102
不同的是	-11.102
▁Institute	-11.1023
批准了	-11.1029
美国银行	-11.1036
发展出	-11.1038
这些公司	-11.1039
上市	-11.104
▁而当	-11.1042
库尔德人	-11.1043
小企业	-11.1044
粮食安全	-11.1046
定向	-11.1048
▁我认为	-11.1048
主要经济体	-11.1062
银行体系	-11.1063
共同点	-11.1064
总共	-11.107
生物学	-11.1073
美洲	-11.1079
许多发展中国家	-11.1087
曾说	-11.109
马克思	-11.1091
同步	-11.1093
一个由	-11.1096
没有理由	-11.1102
ll	-11.1103
大得多	-11.1106
多数人	-11.1106
纳税	-11.1115
来推动	-11.1115
实用	-11.1116
才能够	-11.1117
让英国	-11.1117
和其他人	-11.1122
1.8	-11.1122
国集团	-11.1125
就是如此	-11.1128
2.2	-11.1135
十年期	-11.1136
创造一个	-11.1137
兑换	-11.1138
揭示	-11.1145
更强	-11.1146
与其说是	-11.1149
使人们	-11.1151
年长	-11.1152
统治下	-11.1153
这些机构	-11.1155
是世界上	-11.1155
过去几十年	-11.1162
革命性	-11.1163
耗资	-11.1164
Da	-11.117
把持	-11.1171
出口增长	-11.1175
削减了	-11.1176
假新闻	-11.1179
世纪末	-11.1179
成立一个	-11.1182
容易受到	-11.1186
不必要的	-11.1188
社会民主	-11.1191
更加糟糕	-11.1191
核心利益	-11.1192
外围	-11.1192
滑向	-11.1194
95	-11.1198
近一半	-11.1199
大幅降低	-11.1208
生育	-11.1211
页岩	-11.1212
此外	-11.1216
努	-11.1217
牛津	-11.1217
尖	-11.1219
裁军	-11.1219
邮	-11.122
虫	-11.122
酝酿	-11.122
蛋白质	-11.122
铺	-11.122
厄瓜多尔	-11.122
麦肯锡	-11.122
哈梅内伊	-11.122
桥梁	-11.122
肺结核	-11.122
可卡因	-11.122
相提并论	-11.122
萨尔科奇	-11.122
乳腺癌	-11.122
凸显了	-11.122
无处不在	-11.122
验证	-11.122
创纪录的	-11.122
灰	-11.122
法兰克福	-11.122
DNA	-11.122
隐瞒	-11.122
奔	-11.122
村庄	-11.122
刑讯	-11.122
宣告	-11.1221
宁愿	-11.1221
盯住	-11.1221
跟踪	-11.1221
劣势	-11.1221
残暴	-11.1221
例子是	-11.1221
测算	-11.1221
骗局	-11.1222
听众	-11.1222
戴维	-11.1223
表面	-11.1223
之旅	-11.1223
品质	-11.1223
偶尔	-11.1224
世界经济论坛	-11.1224
瓦解	-11.1224
宗派	-11.1225
在全球范围内	-11.1225
绕过	-11.1226
不仅限于	-11.1227
外包	-11.1227
独裁政权	-11.1227
心脏病	-11.1227
不幸	-11.1228
农产品	-11.1228
效力	-11.1229
上帝	-11.1229
达成共识	-11.123
很简单	-11.1231
合格	-11.1231
忙于	-11.1231
几位	-11.1232
有待	-11.1232
是至关重要的	-11.1233
▁即便如此	-11.1233
角度讲	-11.1234
政治体制	-11.1234
利差	-11.1234
名义利率	-11.1234
劳动收入	-11.1235
依然存在	-11.1235
却无法	-11.1235
零利率	-11.1236
非洲开发银行	-11.1236
新兴市场经济体	-11.1237
看不到	-11.1239
高盛	-11.1241
标志性	-11.1244
可行性	-11.1244
绿色能源	-11.1244
这些数字	-11.1245
节能	-11.1246
长期存在的	-11.1246
尽力	-11.1247
这是因为	-11.1251
50,000	-11.1252
释放出	-11.1253
叙利亚难民	-11.1254
资产购买	-11.1255
8,000	-11.1256
杀人	-11.1257
4,000	-11.1259
外部需求	-11.1263
欧洲需要	-11.1264
投向	-11.1264
临时性	-11.1265
Con	-11.1268
它应该	-11.1268
全球经济危机	-11.1273
不会发生	-11.1274
令人担忧的	-11.1276
恰恰相反	-11.1281
在这个问题上	-11.1281
我们应当	-11.1282
在华盛顿	-11.1283
六个月	-11.1283
ner	-11.1284
的基石	-11.1286
更多的人	-11.1287
风险管理	-11.1287
所拥有的	-11.1293
泡沫破裂	-11.1294
陷于	-11.1295
首先是	-11.1296
▁圣地亚哥	-11.1298
变得日益	-11.1299
多名	-11.1305
纯粹	-11.1306
就职	-11.1306
已经超过了	-11.1309
说话	-11.131
也就是说	-11.1317
甚于	-11.1318
人民银行	-11.132
小学	-11.1323
▁但对于	-11.1323
外国投资	-11.1327
结论是	-11.1331
却依然	-11.1332
中国崛起	-11.1333
几个国家	-11.1333
扮演着	-11.134
最小	-11.1344
超国家	-11.1347
描述为	-11.1354
离婚	-11.1355
统计数据	-11.1357
美国外交政策	-11.1359
迫在眉睫的	-11.1365
并确保	-11.1365
两方面	-11.1367
南北	-11.1374
亿美元用于	-11.1375
来维持	-11.1375
上面	-11.1376
发生改变	-11.1381
资本要求	-11.1383
中国的经济	-11.1386
后代	-11.1387
美元贬值	-11.139
900	-11.1395
评级机构	-11.1396
福利国家	-11.1398
难免	-11.1399
特性	-11.14
入狱	-11.1404
成百上千万	-11.1406
核设施	-11.1406
归属	-11.1408
他自己	-11.1409
根本性的	-11.1409
被动	-11.1414
一只	-11.1436
拉斯	-11.1438
他说	-11.1438
没有哪个	-11.1443
退出欧元区	-11.1444
出口商	-11.1447
ine	-11.1451
一个月	-11.1451
可以理解	-11.1466
ran	-11.1469
这就意味着	-11.1471
all	-11.1474
出口市场	-11.1475
十个	-11.1483
开来	-11.1486
这一现象	-11.1486
促	-11.1487
海湾	-11.1487
也意味着	-11.1489
能给	-11.1495
非理性	-11.1498
吞	-11.1506
偿	-11.1514
上下	-11.1514
永	-11.1516
这部分	-11.1516
辈	-11.1516
似乎正在	-11.1516
授	-11.1519
逼	-11.152
Q	-11.1522
液	-11.1522
漏	-11.1522
钞	-11.1522
重要角色	-11.1523
鸡	-11.1523
天主教	-11.1523
驾	-11.1523
自上而下	-11.1523
嘴	-11.1523
掣肘	-11.1523
朴槿惠	-11.1523
史无前例	-11.1523
昆	-11.1523
George	-11.1523
悬	-11.1523
戏剧性	-11.1523
抗药性	-11.1523
囊	-11.1523
渺	-11.1523
教科书	-11.1523
鸟	-11.1523
汉密尔顿	-11.1523
亏损	-11.1523
困惑	-11.1523
典范	-11.1523
勉强	-11.1523
监测	-11.1523
车臣	-11.1524
双轨	-11.1524
一定程度的	-11.1524
▁说到底	-11.1524
达尔文	-11.1524
福音	-11.1524
微软	-11.1524
装备	-11.1524
霸主	-11.1524
添加	-11.1525
遍布	-11.1525
非传染性疾病	-11.1525
减支	-11.1525
司机	-11.1525
供给侧	-11.1525
的前提下	-11.1525
入盟	-11.1526
无限期	-11.1526
刻意	-11.1526
极具	-11.1526
由此带来的	-11.1526
新疆	-11.1527
非常规货币政策	-11.1527
老板	-11.1527
欧亚	-11.1527
罪恶	-11.1527
预先	-11.1528
硬实力	-11.1528
来临	-11.1529
牵涉到	-11.1529
普世	-11.1529
沿着	-11.1529
仅靠	-11.1529
把握	-11.1531
末日	-11.1531
借入	-11.1531
▁In	-11.1531
创造就业机会	-11.1532
输家	-11.1533
一大半	-11.1533
五倍	-11.1533
引力	-11.1533
陷入困境	-11.1533
次级	-11.1534
抗议活动	-11.1535
终身	-11.1536
几次	-11.1536
呈现出	-11.1538
四倍	-11.1538
外币	-11.1539
与否	-11.154
支付系统	-11.154
管理层	-11.1541
印度人	-11.1541
轻易地	-11.1546
新任	-11.1546
书籍	-11.1546
68	-11.1547
资本重组	-11.1548
告诉我	-11.1549
持续增长	-11.1551
斗争中	-11.1552
甘地	-11.1553
还未	-11.1553
规模最大的	-11.1556
巴勒斯坦国	-11.1558
完全不同的	-11.156
格尔	-11.1562
很明显	-11.1566
跨国企业	-11.1567
输送	-11.1569
税收改革	-11.1576
慢性病	-11.1579
任由	-11.158
通用	-11.1582
结成	-11.1585
激励机制	-11.159
家长	-11.1591
可以避免	-11.1592
对冲	-11.1593
天真	-11.1595
后不久	-11.1597
自行	-11.1601
过渡期	-11.1601
.8%	-11.1601
能源安全	-11.1602
与过去	-11.1605
体现出	-11.1607
与土耳其	-11.1607
论据	-11.1608
发展目标	-11.1609
国家主席	-11.1616
坝	-11.1618
所要求的	-11.162
ate	-11.162
减小	-11.1621
财政规则	-11.1621
开始时	-11.1629
全球金融危机爆发	-11.163
而这正是	-11.1631
中右翼	-11.1634
no	-11.1635
不在于	-11.1637
解决这些问题	-11.165
下令	-11.1652
一项研究	-11.1654
这一情况	-11.1654
马克思主义	-11.1659
都表明	-11.1659
这些企业	-11.166
最严重	-11.1663
在面对	-11.1664
手段来	-11.1666
演变	-11.1667
地区性	-11.1669
tion	-11.167
这也许是	-11.1671
全球气温	-11.1681
为零	-11.1681
那就	-11.1684
诊所	-11.1686
该行业	-11.1689
所言	-11.1692
蒙受	-11.1694
完全没有	-11.1695
ies	-11.17
ud	-11.1704
最新研究	-11.1706
其主要	-11.1711
税收制度	-11.1713
两项	-11.1714
合并	-11.172
强烈反对	-11.1721
并将其	-11.1725
留下了	-11.1726
主权国家	-11.1729
合理性	-11.1732
研究成果	-11.1734
应该由	-11.1737
念	-11.1739
的最重要	-11.1747
五大	-11.1748
严重依赖	-11.1758
欧洲议会选举	-11.1764
亿吨	-11.1764
经济机会	-11.1771
背	-11.1771
▁恰恰相反	-11.1773
推出了	-11.1777
残疾	-11.1778
ern	-11.178
秀	-11.1782
在世界上	-11.1784
三项	-11.1785
储	-11.1786
出去	-11.1787
远超	-11.179
他国	-11.1794
永远无法	-11.1798
判	-11.1803
他们应该	-11.1813
西非	-11.1813
沿	-11.1818
诗	-11.182
会引起	-11.1825
ver	-11.1827
你会	-11.183
偶	-11.1831
霸	-11.1832
秘书长	-11.1832
秋	-11.1834
荡	-11.1834
这段	-11.1835
宿	-11.1835
斥	-11.1835
劫	-11.1835
弗兰克	-11.1835
井	-11.1835
磨	-11.1835
...	-11.1835
档	-11.1836
费舍尔	-11.1836
梅德韦杰夫	-11.1836
撒切尔	-11.1836
畏	-11.1836
针锋相对	-11.1836
总而言之	-11.1836
职业生涯	-11.1836
先决条件	-11.1836
尼古丁	-11.1836
捐赠	-11.1836
咒	-11.1836
切尔诺贝利	-11.1836
可支配收入	-11.1836
微不足道	-11.1836
皆	-11.1836
AMR	-11.1836
实实在在的	-11.1836
约瑟夫	-11.1836
锡	-11.1836
▁Bank	-11.1836
糖尿病	-11.1836
这件事	-11.1836
通货紧缩	-11.1836
富兰克林	-11.1836
掩饰	-11.1836
抵挡	-11.1836
尊敬	-11.1836
翻番	-11.1836
FDI	-11.1836
沙漠	-11.1836
残忍	-11.1836
封锁	-11.1836
钻石	-11.1836
色彩	-11.1836
火箭	-11.1836
警示	-11.1837
抽象	-11.1837
原始	-11.1837
阵线	-11.1837
受害	-11.1837
略微	-11.1837
叛军	-11.1838
言辞	-11.1838
防范	-11.1838
在过去十年中	-11.1838
停留在	-11.1838
肉类	-11.1838
平静	-11.1838
想象一下	-11.1838
资本外流	-11.1838
维系	-11.1838
男子	-11.1839
亲密	-11.1839
发电厂	-11.1839
电视台	-11.1839
现存	-11.1839
有三个	-11.184
华盛顿特区	-11.184
处境	-11.184
热带	-11.1841
惨重	-11.1842
怎么做	-11.1842
电信	-11.1842
ly	-11.1842
解散	-11.1843
将军们	-11.1843
无序	-11.1843
职场	-11.1843
市民	-11.1843
陷入停滞	-11.1844
观看	-11.1844
重获	-11.1845
几千	-11.1845
安南	-11.1845
不合理	-11.1846
年之久	-11.1846
国有化	-11.1849
消化	-11.1849
1962	-11.1849
那场	-11.185
关税联盟	-11.1854
几乎完全	-11.1856
化解	-11.1856
下注	-11.1857
多达	-11.1858
开出	-11.186
余额	-11.1862
年末	-11.1863
债务上限	-11.1863
第一位	-11.1864
承担责任	-11.1864
暗中	-11.1867
隐性	-11.1868
世界其他地方	-11.1871
市场份额	-11.1872
激起了	-11.1873
一百	-11.1876
几乎不可能	-11.1877
结构转型	-11.1877
欧元债券	-11.1877
33	-11.1877
更加难以	-11.1881
赶上	-11.1882
好转	-11.1883
7.5	-11.1884
拿到	-11.1887
投资组合	-11.189
舰	-11.1891
别国	-11.1895
没有必要	-11.1898
人类活动	-11.19
这样的结果	-11.19
健康状况	-11.1902
结构调整	-11.1903
之间的冲突	-11.191
以一种	-11.1914
交易成本	-11.1917
一路	-11.1918
情形中	-11.1918
大气	-11.1927
做好了	-11.1928
千万	-11.193
转向了	-11.1934
十分重要	-11.1936
暴露了	-11.1937
仍未	-11.1939
我们自己	-11.1939
民主体制	-11.1948
水平上	-11.1948
另一些	-11.1948
又一个	-11.1949
这项工作	-11.1952
机构投资者	-11.1954
不禁	-11.1954
▁放眼	-11.1958
一生	-11.1959
每月	-11.196
一度	-11.1967
世界上最大的	-11.1969
谁能	-11.1973
4.5	-11.1983
排除在外	-11.1985
哪怕是	-11.1989
1.1	-11.1991
蔓延到	-11.1991
这一转变	-11.1997
不公正	-11.1999
▁随着中国	-11.2001
乌克兰人	-11.2003
丧失了	-11.2005
在埃及	-11.201
特朗普总统	-11.2017
欧洲中央银行	-11.2018
多元	-11.2028
克里	-11.2035
十亿	-11.2043
采用了	-11.2046
新总统	-11.2051
占世界	-11.2061
东海	-11.2062
倒是	-11.2063
0.8	-11.2063
态	-11.2063
数字经济	-11.2071
ash	-11.2079
巩固了	-11.208
限于	-11.2084
人文	-11.2085
获得成功	-11.2097
法定	-11.2098
任职	-11.2098
知情	-11.2099
结构变化	-11.2099
可以使	-11.2105
商业投资	-11.2109
为了避免	-11.211
万名	-11.2113
严重问题	-11.2115
无法避免	-11.2116
多万	-11.2117
尤其重要	-11.2123
总统任期	-11.2126
Mari	-11.2126
私人消费	-11.2128
慢性	-11.213
企	-11.2131
研	-11.2132
堪	-11.2133
损害了	-11.2138
裂	-11.2146
债权	-11.2146
陷	-11.2147
悔	-11.2148
豪	-11.2151
欧洲其他国家	-11.2152
牵	-11.2154
骗	-11.2154
魔	-11.2154
桌	-11.2155
已知	-11.2155
就意味着	-11.2156
忠	-11.2156
补助	-11.2157
揭	-11.2157
垮	-11.2158
香	-11.2158
愤	-11.2158
撒	-11.2158
兴奋	-11.2158
妹	-11.2158
耀	-11.2158
愚	-11.2158
自民党	-11.2158
潜艇	-11.2158
炉	-11.2158
猎	-11.2158
搭	-11.2158
腰	-11.2158
挖掘	-11.2158
无动于衷	-11.2158
齐心协力	-11.2158
以失败告终	-11.2158
泛美开发银行	-11.2158
泡	-11.2158
谜	-11.2158
螺旋	-11.2158
Financi	-11.2158
分水岭	-11.2158
鸿沟	-11.2158
僵尸	-11.2158
卢森堡	-11.2158
安哥拉	-11.2158
悠久	-11.2158
[	-11.2158
]	-11.2158
俩	-11.2158
脱钩	-11.2158
CDS	-11.2158
饮用水	-11.2158
耻辱	-11.2158
宏伟	-11.2158
沿岸	-11.2158
冷漠	-11.2158
新生儿	-11.2159
付诸	-11.2159
以防止	-11.2159
纲领	-11.2159
挑选	-11.2159
偶然	-11.2159
景象	-11.2159
减贫	-11.216
裁定	-11.216
抵押品	-11.216
医药	-11.216
神圣	-11.216
王朝	-11.216
埃博拉病毒	-11.2161
令人鼓舞	-11.2161
商界领袖	-11.2161
调节	-11.2161
公平竞争	-11.2162
马丁	-11.2162
主办	-11.2162
空袭	-11.2162
根基	-11.2162
核电站	-11.2163
财政悬崖	-11.2163
自由贸易区	-11.2164
安倍经济学	-11.2164
含量	-11.2165
位居	-11.2165
位列	-11.2166
不断扩大	-11.2166
听取	-11.2166
找出	-11.2167
阳性	-11.2167
的帮助下	-11.2167
每周	-11.2167
加息	-11.2167
益处	-11.2168
使用武力	-11.217
美国宪法	-11.2171
选区	-11.2172
确切	-11.2172
还存在	-11.2174
诗人	-11.2175
关于如何	-11.2175
战线	-11.2176
精英阶层	-11.2176
保住	-11.2177
平均而言	-11.2178
做出贡献	-11.2178
唯有	-11.2179
视作	-11.2179
利亚	-11.2179
小额	-11.218
下属	-11.218
正面临	-11.218
形成一致	-11.2181
报告显示	-11.2181
不佳	-11.2182
之处在于	-11.2182
贸易自由化	-11.2183
局长	-11.2183
还不如	-11.2183
变量	-11.2184
日益严重的	-11.2184
加利福尼亚州	-11.2185
外汇市场	-11.2186
下一步	-11.2193
以换取	-11.2193
并不总是	-11.2194
如此多的	-11.2196
无疑是	-11.2196
海湾国家	-11.2199
国家主权	-11.22
幕后	-11.22
孩子们	-11.2201
卫队	-11.2201
本已	-11.2206
经济减速	-11.2207
关键领域	-11.2207
危机期间	-11.2207
不完美	-11.2213
增大	-11.2214
北欧国家	-11.2217
进口国	-11.2223
全欧洲	-11.2225
▁La	-11.2229
2.8	-11.2237
75%	-11.2249
▁可是	-11.2249
这两个国家	-11.225
环境破坏	-11.2251
3.5	-11.2255
世界观	-11.2255
取消了	-11.2256
所必须的	-11.2262
不仅包括	-11.227
正好	-11.2273
比以前	-11.2276
女人	-11.2277
公司治理	-11.2281
国际体系	-11.2282
价格下跌	-11.2282
亚洲地区	-11.2283
对自身	-11.2283
很多国家	-11.2284
的一个关键	-11.2285
小农	-11.2286
年以后	-11.2294
ns	-11.23
可预测的	-11.2304
流通	-11.231
主人	-11.2315
度过	-11.2315
和平谈判	-11.2319
越是	-11.2321
演变成	-11.2322
ence	-11.2324
对俄	-11.2332
开启了	-11.2333
▁但正如	-11.2337
2.7	-11.2343
事务上	-11.2347
将很快	-11.2348
优化	-11.235
万个	-11.235
工作机会	-11.2354
丧生	-11.2354
bor	-11.2356
会不会	-11.236
3.2	-11.2363
大小	-11.2365
绝不会	-11.2368
在许多国家	-11.2368
金融资产	-11.2371
这种方式	-11.2374
国内需求	-11.2376
既不	-11.2381
几乎肯定	-11.2404
自称	-11.2406
附	-11.2411
0.4	-11.2415
高级别	-11.2419
返	-11.2419
许多人认为	-11.2427
欧元区外围	-11.2428
这一概念	-11.2428
共同货币	-11.2437
构建一个	-11.2442
庭	-11.2443
方面发挥	-11.2445
所实施的	-11.2446
be	-11.245
近邻	-11.2451
政治压力	-11.2456
目的地	-11.246
越来越多地	-11.2463
更健康	-11.2469
能源供应	-11.2471
仍能	-11.2472
摆在	-11.2476
利益集团	-11.2478
律	-11.2481
追随	-11.2481
伟	-11.2481
使它们	-11.2482
忍	-11.2485
惠	-11.2485
远远不够	-11.2487
就业增长	-11.2488
漫	-11.2488
洞	-11.2489
猛	-11.249
巧	-11.249
隐含	-11.249
蓝	-11.2491
辨	-11.2491
棒	-11.2491
译	-11.2491
顽	-11.2491
填	-11.2491
伸	-11.2491
寄希望于	-11.2492
屡	-11.2492
施罗德	-11.2492
灭绝	-11.2492
天安门	-11.2492
内塔尼亚胡	-11.2492
固定资产投资	-11.2492
里程碑	-11.2492
毋庸置疑	-11.2492
波多黎各	-11.2492
摇摇欲坠	-11.2492
倾斜	-11.2492
前瞻性	-11.2492
腹	-11.2492
刀	-11.2492
殆尽	-11.2492
重中之重	-11.2492
有利可图	-11.2492
port	-11.2492
无助于	-11.2492
砍伐	-11.2492
1/3	-11.2492
▁Commission	-11.2492
推动力	-11.2492
AKP	-11.2492
辅助	-11.2492
威廉	-11.2492
拥抱	-11.2492
无所作为	-11.2492
振兴	-11.2492
稀土	-11.2492
足迹	-11.2492
10,000	-11.2492
准确地	-11.2492
初始	-11.2492
君主	-11.2492
戈登	-11.2492
契合	-11.2492
宝座	-11.2493
劳动密集型	-11.2493
仪式	-11.2493
剩下的	-11.2493
降雨	-11.2493
视野	-11.2493
核不扩散条约	-11.2493
这样一来	-11.2493
轻微	-11.2493
亚太	-11.2493
避开	-11.2493
激活	-11.2493
里斯本条约	-11.2494
派别	-11.2494
观众	-11.2494
面临的挑战	-11.2494
举债	-11.2494
构想	-11.2495
正规	-11.2495
谈话	-11.2495
▁这就是为什么	-11.2495
纳米技术	-11.2495
追加	-11.2495
闻名	-11.2496
长久以来	-11.2496
奖金	-11.2496
这笔钱	-11.2496
远程	-11.2496
巨型	-11.2497
年下半年	-11.2497
指南	-11.2497
输入	-11.2498
头脑	-11.2498
杀手	-11.2498
人手	-11.2498
不可接受的	-11.2498
原先	-11.2499
关系到	-11.25
打败	-11.25
词汇	-11.2501
制药公司	-11.2502
面目	-11.2502
经济合作	-11.2503
金额	-11.2504
除外	-11.2506
所引起的	-11.2507
冒着	-11.2507
开始实施	-11.2508
不振	-11.2508
三种	-11.2508
恐怖组织	-11.2509
消极影响	-11.2512
收入和财富	-11.2512
两难	-11.2512
既定	-11.2515
科学家们	-11.2515
fe	-11.2515
治理结构	-11.2515
数据库	-11.2515
遗留	-11.2519
被用来	-11.252
负利率	-11.2521
不断恶化	-11.2521
出资者	-11.2523
低位	-11.2523
总部	-11.2525
这种观点	-11.2525
强权	-11.2526
同期	-11.2528
哈里	-11.2529
分析家	-11.253
更多的钱	-11.253
持续性	-11.253
通胀压力	-11.2532
破坏力	-11.254
从来不	-11.254
工资增长	-11.2541
只有不到	-11.2542
离开欧盟	-11.2543
自利	-11.2544
返回	-11.2545
基本权利	-11.255
第三种	-11.2556
减少贫困	-11.2559
低廉	-11.2561
第二种	-11.2562
迈出了	-11.2563
ach	-11.2564
很长时间	-11.2564
也随之	-11.2566
继续保持	-11.2568
碳排放量	-11.257
不幸的是	-11.2578
有所增加	-11.2578
无条件	-11.258
五年前	-11.2582
克莱	-11.2584
这一幕	-11.2588
消费量	-11.2592
mi	-11.2593
偿还债务	-11.2596
变得更为	-11.2599
不属于	-11.2601
该条约	-11.2602
外交关系	-11.2605
该政策	-11.2605
中断	-11.2613
波及	-11.2616
构	-11.2619
也曾	-11.2619
54	-11.2619
无论如何	-11.2625
180	-11.2625
所知	-11.2626
贫穷国家	-11.2628
每个人	-11.2628
两周	-11.2629
▁而随着	-11.2638
抛弃了	-11.2639
关注点	-11.2639
小于	-11.265
框架下	-11.2654
这一次	-11.2655
主席国	-11.2658
天才	-11.2665
绝不能	-11.2676
即便在	-11.2691
2.4	-11.2692
这些项目	-11.2697
付出的代价	-11.2697
接近于	-11.2701
政府干预	-11.2701
宪法条约	-11.2702
42	-11.2703
无法再	-11.2705
已经不再	-11.2706
资源配置	-11.2712
都有可能	-11.2717
已经存在	-11.2719
在这场	-11.272
么	-11.2722
已经有了	-11.2726
是不可持续的	-11.273
认为这是	-11.2734
公私	-11.2734
Mar	-11.2736
人口比例	-11.2746
被证明	-11.2747
关键要素	-11.2748
政治化	-11.2756
这两者	-11.2763
给自己	-11.2765
投资基金	-11.2767
埃及人	-11.2773
重点是	-11.2773
人工	-11.2774
▁-3.	-11.2784
概	-11.279
两个月	-11.279
证实了	-11.2796
不具有	-11.2796
地产	-11.2801
▁Ch	-11.2804
意思	-11.2817
渡	-11.2825
说出	-11.2829
胜过	-11.2829
int	-11.2831
券	-11.2832
氧	-11.2832
罚	-11.2833
申	-11.2833
答	-11.2833
遍	-11.2834
店	-11.2834
济	-11.2835
择	-11.2835
屋	-11.2835
牢	-11.2835
反应堆	-11.2836
材	-11.2836
盖	-11.2836
唐	-11.2836
详	-11.2836
斯洛伐克	-11.2836
妥	-11.2836
郎	-11.2836
悟	-11.2836
BRCA	-11.2836
摸	-11.2836
汗	-11.2836
跨太平洋合作伙伴关系	-11.2836
建制派	-11.2836
笼	-11.2836
追溯	-11.2836
塞拉利昂	-11.2836
希拉克	-11.2836
图书馆	-11.2836
波罗的海	-11.2836
或多或少	-11.2836
珠	-11.2836
粒	-11.2836
巴格达	-11.2836
狗	-11.2836
FOMC	-11.2836
巴拿马	-11.2836
侯赛因	-11.2836
气氛	-11.2836
祸	-11.2836
Climate	-11.2836
令人印象深刻	-11.2836
无异于	-11.2837
欧洲人民党	-11.2837
饭店	-11.2837
赔偿	-11.2837
太大而不能倒	-11.2837
纸币	-11.2837
压抑	-11.2837
九十年代	-11.2837
▁Fund	-11.2837
审议	-11.2837
萎靡不振	-11.2837
延迟	-11.2837
菲永	-11.2837
救济	-11.2837
尖端	-11.2837
CCS	-11.2837
修补	-11.2837
脱贫	-11.2837
常识	-11.2837
欠缺	-11.2837
沙龙	-11.2838
提炼	-11.2838
确信	-11.2838
电池	-11.2838
固有	-11.2838
巨资	-11.2838
创设	-11.2838
环节	-11.2838
导弹防御	-11.2838
基辛格	-11.2838
付款	-11.2838
图景	-11.2839
祖先	-11.2839
秋天	-11.2839
弗雷	-11.2839
产品和服务	-11.2839
享受到	-11.2839
警报	-11.2839
浮动汇率	-11.2839
赚钱	-11.284
迷失	-11.284
炮制	-11.284
New	-11.2841
点燃	-11.2841
岁以下	-11.2841
沃尔	-11.2841
学位	-11.2842
其成员国	-11.2842
别处	-11.2842
运气	-11.2842
han	-11.2843
分销	-11.2843
最佳实践	-11.2843
战士	-11.2845
另一项	-11.2845
入境	-11.2845
长期投资	-11.2845
关门	-11.2845
贸易盈余	-11.2846
少数派	-11.2846
在实践中	-11.2846
身边	-11.2846
没有理由认为	-11.2846
已不再是	-11.2847
正处在	-11.2847
变动	-11.2848
大幅贬值	-11.2851
过去两年	-11.2852
发生了什么	-11.2853
所描述的	-11.2854
首脑会议	-11.2854
抑或	-11.2855
专业知识	-11.2856
按揭贷款	-11.2858
扣除	-11.2859
人民币贬值	-11.286
构成威胁	-11.2861
落后于	-11.2861
十亿人	-11.2862
高官	-11.2862
注定要	-11.2864
更严格的	-11.2864
不是为了	-11.2865
债务融资	-11.2867
自满	-11.2867
巴黎协定	-11.2869
在我们的	-11.287
日益增长的	-11.287
拒绝承认	-11.287
资金支持	-11.2872
到位	-11.2873
正面临着	-11.2874
治理体系	-11.2879
综合性	-11.2882
泛欧洲	-11.2883
相对较低	-11.2885
被判	-11.2889
ya	-11.2895
方面取得了	-11.2898
卖出	-11.29
必须承认	-11.2901
下降至	-11.2902
该区域	-11.2903
▁Pa	-11.292
应用于	-11.2923
国会议员	-11.2924
共存	-11.2926
提供融资	-11.293
军事冲突	-11.2931
七十	-11.2935
高点	-11.2936
反周期	-11.2938
特别是考虑到	-11.2939
才开始	-11.2941
遇到了	-11.295
领导下的	-11.295
政治人物	-11.2951
在未来几年	-11.2952
所使用的	-11.2954
见到	-11.2955
拉里	-11.2957
总体上	-11.2957
后尘	-11.2957
整个世界	-11.2959
财政收入	-11.2967
危险性	-11.2967
承担起	-11.2968
倡导者	-11.297
此外还有	-11.2971
政府间	-11.2982
Re	-11.2982
直至	-11.2989
更难	-11.2998
世界范围内	-11.3001
全球经济增长	-11.3003
经济领域	-11.3006
也面临着	-11.3014
为了让	-11.3018
▁而如今	-11.302
▁Br	-11.3026
储蓄者	-11.3029
叫做	-11.3031
不透明	-11.3036
一件	-11.3036
都面临着	-11.3041
地指出	-11.3042
摧毁了	-11.3042
进行谈判	-11.3043
不容易	-11.3049
倡导	-11.3057
ary	-11.3058
下限	-11.3062
国际化	-11.3072
重新定义	-11.3072
学界	-11.3075
制度化	-11.3075
翼	-11.3084
这有助于	-11.3087
果真	-11.3088
所面临的问题	-11.309
该机构	-11.3102
整个欧盟	-11.3105
担	-11.3105
美元升值	-11.311
用作	-11.3119
国内政策	-11.3125
正在迅速	-11.313
商业化	-11.3133
整个国家	-11.3137
十二	-11.3143
78	-11.3146
市场参与者	-11.3147
也适用于	-11.3157
医疗卫生	-11.3162
被杀	-11.3166
AR	-11.3168
所认为的	-11.317
回国	-11.3171
国内市场	-11.3175
共同目标	-11.3179
外资	-11.318
经济理论	-11.3182
已久的	-11.3186
届政府	-11.3187
En	-11.3189
悬崖	-11.3189
中等收入	-11.3189
政治稳定	-11.319
将被迫	-11.319
符	-11.319
迁	-11.3191
迹	-11.3192
勇	-11.3192
献	-11.3192
黎	-11.3192
发言	-11.3192
炸	-11.3193
拼	-11.3193
微观	-11.3193
究	-11.3193
绑	-11.3193
雾	-11.3193
乌里韦	-11.3194
唱	-11.3194
仗	-11.3194
联邦调查局	-11.3194
出口导向型	-11.3194
一夜之间	-11.3194
穆沙拉夫	-11.3194
骑	-11.3194
肤	-11.3194
阔	-11.3194
相去甚远	-11.3194
缠	-11.3194
World	-11.3194
充其量	-11.3194
植根于	-11.3194
相关利益方	-11.3194
迷你电网	-11.3194
陈光诚	-11.3194
催化剂	-11.3194
皮涅拉	-11.3194
0.0	-11.3194
á	-11.3194
自然而然	-11.3194
迅猛	-11.3194
James	-11.3194
旷日持久	-11.3194
边境调节税	-11.3194
溢出效应	-11.3194
更不要说	-11.3194
旱灾	-11.3194
每一美元	-11.3194
100,000	-11.3194
呼吸	-11.3194
仿佛	-11.3194
跌幅	-11.3194
收拾	-11.3194
贩卖	-11.3194
免遭	-11.3194
海峡	-11.3194
伪善	-11.3194
丢掉	-11.3194
代际	-11.3194
许诺	-11.3194
过剩产能	-11.3194
智能手机	-11.3195
道歉	-11.3195
暴涨	-11.3195
▁有鉴于	-11.3195
冠军	-11.3195
装置	-11.3195
男女	-11.3195
商店	-11.3195
偿债能力	-11.3195
斯特恩	-11.3196
可悲	-11.3196
远远超出	-11.3196
前夕	-11.3196
暴政	-11.3196
某种意义上	-11.3196
鼓动	-11.3196
超导	-11.3196
算盘	-11.3196
ECB	-11.3196
卓越	-11.3196
▁其结果是	-11.3197
民兵	-11.3197
处置	-11.3198
彼得	-11.3198
弱势群体	-11.3198
没错	-11.32
不懈	-11.32
在这样的环境下	-11.32
权限	-11.32
恶意	-11.32
1929	-11.3201
超额	-11.3201
开设	-11.3201
领先地位	-11.3201
划分	-11.3202
相对较小	-11.3202
推理	-11.3203
起初	-11.3203
收取	-11.3203
公然	-11.3204
莱恩	-11.3204
新闻报道	-11.3204
叙利亚内战	-11.3204
在这一点上	-11.3204
49	-11.3204
列入	-11.3204
军费	-11.3205
人道主义援助	-11.3205
废水	-11.3205
供水	-11.3206
低碳能源	-11.3206
通道	-11.3207
所指出的	-11.3207
公共和私人	-11.3209
发言人	-11.3209
潜能	-11.321
生长	-11.3211
随时间	-11.3212
更像是	-11.3212
放心	-11.3213
发生了变化	-11.3214
独自	-11.3216
另有	-11.3217
简称	-11.3218
不丹	-11.3218
仍旧	-11.3219
眼里	-11.3221
投票率	-11.3223
免税	-11.3224
最终导致	-11.3224
▁-2.	-11.3226
无法接受	-11.3229
思想家	-11.3235
带来的好处	-11.3239
短期利率	-11.324
俄罗斯和中国	-11.3241
死去	-11.3241
更早	-11.3244
双边贸易	-11.3245
真实利率	-11.3247
预料到	-11.325
的世界里	-11.325
希望看到	-11.3252
波动性	-11.3252
问题不在于	-11.3253
贸易逆差	-11.3255
案例中	-11.3256
先前	-11.3258
亚洲金融危机	-11.3266
的速度增长	-11.3267
的唯一办法	-11.3269
重新谈判	-11.3274
驱动力	-11.3276
明智地	-11.328
不止于	-11.3281
仍处于	-11.3285
各国领导人	-11.3286
家里	-11.3287
十倍	-11.3288
量化宽松政策	-11.3288
重大挑战	-11.3292
市场波动	-11.3294
带到	-11.3295
大体	-11.3296
其中大部分	-11.3298
2.3	-11.3308
所追求的	-11.3312
下调	-11.3313
ok	-11.3313
核心国	-11.3316
制度改革	-11.3322
货币升值	-11.3326
ai	-11.3326
中国的崛起	-11.333
金融工具	-11.3338
委员会主席	-11.3342
制度性	-11.3344
监管措施	-11.3347
最富有的	-11.3348
最紧迫的	-11.335
一同	-11.335
这一事件	-11.3357
国家和地区	-11.3357
十年来	-11.336
信用评级	-11.336
可持续增长	-11.3364
就变得	-11.3366
错过	-11.337
les	-11.3371
常常会	-11.3372
部分原因是	-11.3375
否决了	-11.339
快乐	-11.3393
这一方案	-11.3395
国内储蓄	-11.3403
胆	-11.3403
第十	-11.3414
冷战结束	-11.3434
这些趋势	-11.3436
▁Ho	-11.3441
两国都	-11.3449
重现	-11.3454
国籍	-11.3469
加工	-11.3472
.6%	-11.3479
为了应对	-11.3484
这不仅	-11.3485
贸易谈判	-11.3487
原教旨主义	-11.3488
确认了	-11.35
一种新的	-11.3505
样子	-11.3512
3000	-11.3526
币	-11.3537
州和地方	-11.3539
耐药	-11.3549
滞	-11.355
盲	-11.3554
不仅要	-11.3554
赋	-11.3559
心脏	-11.3559
细	-11.356
民粹	-11.3561
经济基本面	-11.3561
乃	-11.3562
核不扩散	-11.3562
伍	-11.3563
勾	-11.3563
午	-11.3564
敲	-11.3564
川	-11.3564
庄	-11.3564
唤	-11.3564
哥伦比亚革命武装力量	-11.3564
深思熟虑	-11.3564
宴	-11.3564
悲哀	-11.3564
罪魁祸首	-11.3564
仲裁	-11.3564
勘探	-11.3564
受制于	-11.3564
奥斯本	-11.3564
莫拉莱斯	-11.3564
理查德	-11.3564
逝	-11.3564
喀	-11.3564
塞内加尔	-11.3564
斯德哥尔摩	-11.3564
阻挡	-11.3564
四分五裂	-11.3564
束手无策	-11.3564
凌驾于	-11.3564
利比里亚	-11.3564
聊	-11.3564
1984	-11.3564
各种各样的	-11.3564
各自为政	-11.3564
替罪羊	-11.3564
国际象棋	-11.3564
备忘录	-11.3564
麻省理工学院	-11.3564
游击队	-11.3564
发酵	-11.3564
▁这并不是说	-11.3564
互惠	-11.3564
引渡	-11.3564
进一步增加	-11.3564
连贯	-11.3564
捷克共和国	-11.3565
符号	-11.3565
癌细胞	-11.3565
浓度	-11.3565
东北亚	-11.3565
保卫	-11.3565
注资	-11.3565
强奸	-11.3565
竟然	-11.3565
神秘	-11.3565
激怒	-11.3565
撤退	-11.3565
种族灭绝	-11.3565
不至于	-11.3565
监视	-11.3565
巧合	-11.3565
攻势	-11.3565
整顿	-11.3565
马琳	-11.3565
认清	-11.3565
宏观审慎	-11.3565
改良	-11.3565
伊始	-11.3565
脱节	-11.3565
行径	-11.3566
协同	-11.3566
赞美	-11.3566
从现在开始	-11.3566
锁定	-11.3566
长大	-11.3566
疑问	-11.3566
对冲基金	-11.3566
名誉	-11.3566
养活	-11.3566
天赋	-11.3566
推测	-11.3566
毁掉	-11.3566
只需	-11.3567
蒙受损失	-11.3567
发言权	-11.3567
突发	-11.3567
错配	-11.3567
处决	-11.3567
曲线	-11.3567
群岛	-11.3568
基于规则的	-11.3568
救命	-11.3568
获利	-11.3568
法治精神	-11.3569
水域	-11.3569
北极	-11.3569
走私	-11.357
罗斯	-11.357
剂量	-11.357
所做的那样	-11.3571
信托	-11.3571
核扩散	-11.3571
半岛	-11.3571
原因很简单	-11.3572
核试验	-11.3573
美俄	-11.3573
传统智慧	-11.3574
克劳	-11.3575
执政期间	-11.3575
解决之道	-11.3575
统计数字	-11.3576
另一位	-11.3576
总统巴沙尔	-11.3576
蒙特	-11.3576
定罪	-11.3577
物理学家	-11.3578
IT	-11.3579
大体上	-11.3579
财政契约	-11.358
世纪中叶	-11.3584
私下	-11.3585
ev	-11.3587
去年夏天	-11.3589
单边主义	-11.3589
怀疑派	-11.359
重新分配	-11.3592
伊朗核计划	-11.3592
三次	-11.3592
非洲领导人	-11.3593
保证金	-11.3593
一个简单的	-11.3595
▁但这并不意味着	-11.3596
基础之上	-11.36
低效率	-11.3605
卸任	-11.3605
6,000	-11.3606
积极影响	-11.3608
听说	-11.3608
外交手段	-11.3614
并不容易	-11.3615
投入到	-11.3616
阿里	-11.3618
公共利益	-11.3621
为什么要	-11.3626
这家	-11.3626
余地	-11.3633
带来严重	-11.3634
公共健康	-11.3636
重新考虑	-11.3642
中国和美国	-11.3643
整个经济	-11.3644
移民危机	-11.3644
据称	-11.3648
只关注	-11.365
▁Ha	-11.365
全球失衡	-11.3651
某种程度上	-11.3652
经济一体化	-11.3653
共同努力	-11.3657
最贫困国家	-11.3657
直接投资	-11.3663
第二天	-11.3663
其他部分	-11.3667
物理学	-11.3668
造成了严重	-11.367
并不足以	-11.3671
什么时候	-11.3672
之手	-11.3675
58	-11.3688
金融包容	-11.369
美国领导的	-11.369
税基	-11.3707
我本人	-11.371
现已	-11.3711
狱	-11.3712
还有一些	-11.3712
卖给	-11.3712
▁同样地	-11.3716
▁但今天	-11.3718
多家	-11.3729
这两项	-11.3729
货币化	-11.3739
提供帮助	-11.3742
最近一次	-11.3751
所属	-11.3752
公认	-11.3755
单个	-11.3756
政治和社会	-11.376
建立了一个	-11.376
发达世界	-11.3765
bi	-11.3767
投资不足	-11.3767
改革方案	-11.3767
采取更加	-11.3768
我们所有人	-11.377
路上	-11.3774
些什么	-11.378
颇有	-11.3786
十九	-11.3788
有一定	-11.379
气候行动	-11.3793
官僚机构	-11.3794
per	-11.3799
尘	-11.3815
res	-11.3822
伦理学	-11.3822
水库	-11.3831
少量	-11.3834
十年后	-11.3835
会发生什么	-11.3836
非盟	-11.3843
43	-11.3843
深感	-11.3846
金融稳定委员会	-11.3857
过去五年	-11.3857
美德	-11.3874
或至少	-11.3875
阿拉	-11.3875
人体	-11.3876
发起了	-11.3877
不可靠	-11.3884
2.1	-11.3888
他的政府	-11.3888
12%	-11.3893
举动	-11.3894
携	-11.3895
最强大的	-11.3911
激起	-11.3912
区间	-11.3914
至少从	-11.3916
每个国家	-11.3922
振	-11.3926
欧洲工程	-11.3926
正在日益	-11.3927
再融资	-11.3931
融化	-11.3931
递	-11.3932
47	-11.3936
列出	-11.3936
剩	-11.3938
讨	-11.3938
司法部	-11.3939
启	-11.3939
屈服	-11.3942
犹	-11.3943
劲	-11.3943
较弱	-11.3944
篮子	-11.3945
订	-11.3945
意味	-11.3945
奉	-11.3945
160	-11.3948
织	-11.3948
薄	-11.3948
嫌	-11.3948
恒	-11.3948
烦	-11.3948
Twitter	-11.3949
FARC	-11.3949
少之又少	-11.3949
瓶	-11.3949
陌	-11.3949
亿万富翁	-11.3949
博茨瓦纳	-11.3949
数以百万计	-11.3949
狼	-11.3949
黄热病	-11.3949
中汲取	-11.3949
拳	-11.3949
南斯拉夫	-11.3949
与日俱增	-11.3949
因果关系	-11.3949
伊斯坦布尔	-11.3949
县	-11.3949
斯堪的纳维亚	-11.3949
标准普尔	-11.3949
滴	-11.3949
诈	-11.3949
轻而易举	-11.3949
Health	-11.3949
国际能源署	-11.3949
始作俑者	-11.3949
托克维尔	-11.3949
赞赏	-11.3949
躲避	-11.3949
取而代之	-11.3949
瓶颈	-11.3949
夭折	-11.3949
裂痕	-11.3949
含糊	-11.3949
大不相同	-11.3949
淹没	-11.3949
兴旺	-11.3949
▁在这样的情况下	-11.3949
讨厌	-11.3949
丈夫	-11.3949
冰川	-11.3949
牢固	-11.3949
仿效	-11.3949
威尔逊	-11.3949
女权主义	-11.3949
考试	-11.3949
热烈	-11.3949
订立	-11.3949
筹资	-11.3949
压缩	-11.395
列宁	-11.395
宣战	-11.395
吸纳	-11.395
原料	-11.395
日本和韩国	-11.395
突变	-11.395
累进	-11.395
护士	-11.395
偏执	-11.3951
光荣	-11.3951
冰岛	-11.3951
定律	-11.3951
校园	-11.3951
毕业生	-11.3951
理智	-11.3951
失效	-11.3951
冒犯	-11.3951
初步	-11.3951
期刊	-11.3951
借债	-11.3952
付费	-11.3952
滞后	-11.3952
防治	-11.3952
两岸	-11.3952
官方发展援助	-11.3952
恰好	-11.3952
审核	-11.3952
盲目	-11.3953
学术界	-11.3953
总的来说	-11.3953
水坝	-11.3953
思路	-11.3953
照片	-11.3953
三角	-11.3953
世俗主义	-11.3953
剧变	-11.3954
困难重重	-11.3954
看护	-11.3956
薪水	-11.3958
预定	-11.3958
列强	-11.3958
冷战时期	-11.3959
游戏规则	-11.3959
并不十分	-11.3959
人口老龄化	-11.396
1971	-11.396
保护自己	-11.396
敢于	-11.3961
立足	-11.3961
第二轮	-11.3961
山区	-11.3963
趋向	-11.3963
银行家们	-11.3963
自私	-11.3965
风险溢价	-11.3966
或许可以	-11.3967
水准	-11.3967
食品价格	-11.3968
为止	-11.3968
没有哪个国家	-11.3969
不但要	-11.3969
诱人	-11.397
捐款	-11.397
民用	-11.3971
运动员	-11.3971
谈到	-11.3974
出人意料地	-11.3974
的方向发展	-11.3976
中央银行家	-11.3979
引向	-11.3982
科学研究	-11.3982
几个世纪	-11.3983
有核国家	-11.3985
最坏的	-11.3985
银行账户	-11.399
11%	-11.3992
所创造的	-11.3994
大幅削减	-11.3995
管理人员	-11.3995
其中许多	-11.3997
拥有核武器	-11.3999
暴力活动	-11.3999
有多么	-11.4
过度依赖	-11.4
延伸到	-11.4001
历史记录	-11.4002
数万亿美元	-11.4003
重新评估	-11.4003
出现过	-11.4004
南欧国家	-11.4006
驱逐出	-11.4007
潜在增长	-11.4009
所代表的	-11.401
量子	-11.4011
很难说	-11.4013
快于	-11.4024
就是这样	-11.4029
生意	-11.4029
假消息	-11.403
更高效	-11.4038
我们看到	-11.4039
比作	-11.4042
快速发展	-11.4043
子公司	-11.4044
亚洲经济体	-11.4048
揭示了	-11.4049
未来几十年	-11.4055
世界第一大	-11.4058
出任	-11.4058
实际情况	-11.4059
中美洲	-11.4064
跟上	-11.4064
否	-11.4067
这并非	-11.4071
可以肯定	-11.4074
-7	-11.4075
ali	-11.4081
根本不可能	-11.4087
忘了	-11.4087
研究显示	-11.4089
被剥夺	-11.4094
再次发生	-11.4094
并非所有	-11.4104
此事	-11.4108
必须找到	-11.4109
的原因之一	-11.4111
不会再	-11.4118
我们相信	-11.4122
融资成本	-11.4123
创出	-11.4124
军事化	-11.4127
年上半年	-11.413
金融危机爆发	-11.4131
加入到	-11.4132
利益冲突	-11.4135
这种现象	-11.4135
否则的话	-11.4142
▁Act	-11.4142
低工资	-11.4144
扩展到	-11.4145
重新获得	-11.4146
太阳	-11.4146
彼此之间	-11.4152
简直	-11.4155
无法得到	-11.4159
至少要	-11.4166
取得了成功	-11.4173
核武	-11.4179
个季度	-11.4184
美国总统大选	-11.4186
最早	-11.4195
为核心的	-11.4196
社会契约	-11.4197
坏事	-11.4199
至今日	-11.4201
市场竞争	-11.4204
捐助国	-11.4207
鼓吹者	-11.4209
根深蒂固	-11.4211
首个	-11.4212
支出削减	-11.4218
有时甚至	-11.4225
发动了	-11.4226
提出了一个	-11.4231
正在快速	-11.4235
紧密合作	-11.424
欧盟宪法	-11.424
yn	-11.4249
为什么不	-11.4252
该委员会	-11.4252
英国央行	-11.4255
ham	-11.4258
部长们	-11.4267
任何地方	-11.4267
惜	-11.4268
.5%	-11.4271
该如何	-11.4272
或以上	-11.4273
国防部	-11.4274
流域	-11.4275
自主权	-11.4275
Am	-11.4287
候选	-11.4293
也是最重要的	-11.4298
不再能够	-11.43
而这也是	-11.4305
滥	-11.4318
go	-11.433
这些经济体	-11.4332
违	-11.4334
裁	-11.4338
而与此同时	-11.4342
彼	-11.4342
吸	-11.4343
忧	-11.4346
察	-11.4347
况	-11.4347
贩	-11.4347
佛教	-11.4347
敏	-11.4347
疏	-11.4347
豆	-11.4348
荷	-11.4348
渴	-11.4348
欣	-11.4348
屏	-11.4348
循	-11.4348
榜	-11.4348
挪	-11.4348
掩	-11.4348
饭	-11.4348
挺	-11.4348
巴希尔	-11.4348
肝	-11.4348
烂	-11.4348
滚	-11.4349
最大限度地	-11.4349
无家可归	-11.4349
沉迷于	-11.4349
值得注意的是	-11.4349
垫	-11.4349
悬而未决	-11.4349
潘	-11.4349
生机勃勃	-11.4349
埃克森美孚	-11.4349
碎片化	-11.4349
胡锦涛	-11.4349
2/3	-11.4349
权宜之计	-11.4349
Martin	-11.4349
杀虫剂	-11.4349
HIV	-11.4349
内罗毕	-11.4349
双相障碍	-11.4349
羊	-11.4349
雕	-11.4349
国大党	-11.4349
拉加德	-11.4349
全要素生产率	-11.4349
泄漏	-11.4349
卓著	-11.4349
甲	-11.4349
绩效	-11.4349
荣誉	-11.4349
从某种程度上说	-11.4349
议定书	-11.4349
殴打	-11.4349
拥护	-11.4349
严酷	-11.4349
评判	-11.4349
挽回	-11.4349
肥料	-11.4349
复仇	-11.4349
牢记	-11.4349
几百年	-11.4349
终止	-11.4349
接近于零	-11.435
Charl	-11.435
虚弱	-11.435
得出结论	-11.435
怎么办	-11.435
移动电话	-11.435
博客	-11.435
疏远	-11.435
附加值	-11.435
民间团体	-11.435
叫停	-11.435
农作物	-11.435
教皇	-11.435
现成的	-11.4351
演员	-11.4351
在某些情况下	-11.4351
空气质量	-11.4351
大亨	-11.4351
细分	-11.4351
场景	-11.4352
街道	-11.4352
由此造成的	-11.4353
流亡	-11.4353
联合国秘书长	-11.4353
化肥	-11.4353
聚焦于	-11.4354
韧性	-11.4354
关切	-11.4354
公私合作	-11.4354
殖民主义	-11.4355
皇家	-11.4355
阿萨德政权	-11.4355
第六	-11.4355
自由世界秩序	-11.4355
论断	-11.4356
下一任	-11.4356
心理学	-11.4356
见解	-11.4356
推断	-11.4356
异见	-11.4356
一辆	-11.4356
通知	-11.4357
100%	-11.4357
二氧化碳排放量	-11.4357
应急	-11.4357
缺点	-11.4358
起源	-11.4358
盛行	-11.4358
套利	-11.4359
试点	-11.4359
的最佳方式	-11.4359
杠杆率	-11.436
热门	-11.436
医疗费用	-11.436
伯特	-11.4361
火车	-11.4362
民间社会	-11.4363
母国	-11.4363
发电量	-11.4364
加紧	-11.4365
内陆	-11.4365
刚刚结束	-11.4366
慈善机构	-11.4366
名列	-11.4368
战火	-11.4368
万亿欧元	-11.4369
最后一次	-11.4369
上诉	-11.437
紧张关系	-11.4371
亚洲开发银行	-11.4372
力求	-11.4372
一致同意	-11.4373
消费品	-11.4373
消除贫困	-11.4375
35%	-11.4375
一线	-11.4377
新闻媒体	-11.4377
竞争优势	-11.4384
经常会	-11.4387
日报	-11.4388
可以看到	-11.4392
快速变化	-11.4393
最明显的	-11.4398
这么多	-11.44
归功于	-11.4402
大片	-11.4405
时常	-11.4406
三个月	-11.4407
下降趋势	-11.4408
坚定地	-11.4409
不大可能	-11.4416
兼并	-11.4416
经济结构	-11.4418
左翼联盟	-11.442
不会受到	-11.4425
争相	-11.4426
货币紧缩	-11.4428
高兴	-11.443
等级	-11.4432
在短短	-11.4437
登上	-11.4437
普通人	-11.4438
是明确的	-11.4439
精神病	-11.4439
内心	-11.444
社会保险	-11.4452
的最佳办法	-11.4453
生产成本	-11.4455
国际收支	-11.4465
act	-11.4469
▁Ba	-11.4474
篇文章	-11.4474
保持稳定	-11.4476
最近几个月	-11.4479
影子	-11.448
德国总理	-11.4483
教会	-11.4489
一定要	-11.4489
更严重的	-11.4489
否则就	-11.4491
公民自由	-11.45
进一步扩大	-11.4503
可不是	-11.4508
经济萧条	-11.4509
被证明是	-11.451
是错的	-11.451
最成功的	-11.4515
强人	-11.4517
适应性	-11.4521
公布了	-11.4524
失业者	-11.4525
这样说	-11.4526
应该认识到	-11.453
开放社会	-11.4531
非洲联盟	-11.4538
ew	-11.4542
第一大	-11.4544
0.6	-11.4545
面对着	-11.4548
有活力的	-11.4551
人人都	-11.4557
成员国之间	-11.4563
军人	-11.4568
六个	-11.4569
预计到	-11.4583
尽管存在	-11.4593
大爆发	-11.4604
样本	-11.4607
可控	-11.4624
拥	-11.4628
会员	-11.4633
95%	-11.4633
普遍存在	-11.4634
全都	-11.4636
展示了	-11.4652
的国家之一	-11.4653
结果就是	-11.4654
欧洲统一	-11.4656
有史以来最	-11.4668
欧盟条约	-11.4686
国际援助	-11.4698
九个	-11.4703
有吸引力的	-11.4706
一类	-11.4711
奋	-11.4713
避税	-11.4718
140	-11.4729
单边	-11.4742
法律框架	-11.4742
技	-11.4752
避	-11.4754
熟	-11.4759
贸易平衡	-11.476
拒	-11.4761
保健	-11.4762
锁	-11.4762
京	-11.4763
丢	-11.4763
洁	-11.4764
溢	-11.4764
纲	-11.4764
柯	-11.4764
津	-11.4765
闹	-11.4765
饰	-11.4765
漂	-11.4765
畅	-11.4765
疯	-11.4765
鲍	-11.4765
泽纳维	-11.4765
猪	-11.4765
圆	-11.4765
颠	-11.4765
个基点	-11.4765
颗	-11.4765
坑	-11.4765
电动车	-11.4765
跨大西洋贸易和投资伙伴关系	-11.4765
卜	-11.4765
彭	-11.4765
瓜	-11.4765
贯彻	-11.4765
鞋	-11.4765
仰仗	-11.4765
自相矛盾	-11.4765
马斯特里赫特条约	-11.4765
坦桑尼亚	-11.4765
拿破仑	-11.4765
覆辙	-11.4765
铝	-11.4765
中央情报局	-11.4765
抗菌素耐药性	-11.4765
柔性力量	-11.4765
国际刑事法庭	-11.4765
外交和安全政策	-11.4765
僧	-11.4765
好莱坞	-11.4765
微乎其微	-11.4765
掏	-11.4765
朔伊布勒	-11.4765
话语权	-11.4765
不可思议	-11.4765
斯蒂格利茨	-11.4765
全民医疗覆盖	-11.4765
吞噬	-11.4765
Jean	-11.4765
NCD	-11.4765
妮	-11.4765
查尔斯	-11.4765
软着陆	-11.4765
野生动物	-11.4765
全方位	-11.4765
坠	-11.4765
提倡	-11.4765
乍	-11.4765
构筑	-11.4765
秒	-11.4765
金砖四国	-11.4765
代议制	-11.4765
听上去	-11.4765
熟练	-11.4765
咖啡	-11.4765
壳牌	-11.4765
联合国秘书长潘基文	-11.4765
金融时报	-11.4765
有损于	-11.4765
吞并克里米亚	-11.4765
在可预见的未来	-11.4765
轮值主席	-11.4765
嫌疑	-11.4765
购买力平价	-11.4766
漂亮	-11.4766
大手笔	-11.4766
圣诞节	-11.4766
启示	-11.4766
木材	-11.4766
酒店	-11.4766
Center	-11.4766
顺序	-11.4766
富豪	-11.4766
演习	-11.4766
警钟	-11.4766
盖茨基金会	-11.4766
损伤	-11.4766
松散	-11.4766
长期债券	-11.4766
Mark	-11.4766
样板	-11.4767
补救	-11.4767
愈加	-11.4767
板球	-11.4767
素质	-11.4768
引出了	-11.4768
禁运	-11.4768
坏账	-11.4768
减记	-11.4768
谋求	-11.4768
信徒	-11.4768
尼古拉斯	-11.4769
福岛	-11.4769
略高于	-11.4769
Inter	-11.4769
UN	-11.477
灵感	-11.477
调停	-11.477
担当	-11.477
术语	-11.477
红线	-11.4771
废物	-11.4771
Bern	-11.4771
公告	-11.4772
灾难性后果	-11.4772
变异	-11.4773
还远未	-11.4773
核弹	-11.4773
▁可以肯定的是	-11.4774
集权	-11.4774
代表团	-11.4775
受过教育的	-11.4775
随意	-11.4775
不断变化的	-11.4775
在本月	-11.4776
带动	-11.4776
面包	-11.4776
不平等现象	-11.4776
第一批	-11.4776
受灾	-11.4776
今年晚些时候	-11.4777
可笑	-11.4778
低收入家庭	-11.4778
调动	-11.4778
军事政变	-11.4778
卡车	-11.4779
制药企业	-11.4779
角度来看	-11.4779
恐怖活动	-11.478
感情	-11.478
人们普遍认为	-11.4781
Yo	-11.4781
团结起来	-11.4782
无穷	-11.4782
成本效益	-11.4782
无法想象	-11.4782
四处	-11.4783
尼亚	-11.4784
欧洲和日本	-11.4786
反对意见	-11.4787
王国	-11.4787
创业企业	-11.4788
高失业率	-11.4788
去杠杆	-11.4788
EP	-11.4788
通行	-11.4789
重要因素	-11.4791
在现实中	-11.4791
调低	-11.4791
网络空间	-11.4793
对欧洲来说	-11.4794
送到	-11.4795
大幅上升	-11.4795
右翼民粹主义	-11.4799
本国货币	-11.48
些许	-11.4803
诱惑力	-11.4803
许下	-11.4804
球队	-11.4805
欧元集团	-11.4808
消费税	-11.4809
美分	-11.481
感到失望	-11.4811
管用	-11.4813
多边机构	-11.4813
法制	-11.4814
严重不足	-11.4814
亚当	-11.4816
金融抑制	-11.4817
调查结果	-11.4817
没人知道	-11.4819
资本金	-11.4821
服从	-11.4821
核心国家	-11.4822
两国关系	-11.4823
意思是	-11.4824
的关键因素	-11.4825
远远超过了	-11.4835
end	-11.4837
核协议	-11.4838
全世界最大的	-11.4844
手下	-11.4845
增加值	-11.4848
mer	-11.485
成立于	-11.4852
决策者们	-11.4852
任何人都	-11.4853
总理温家宝	-11.4856
其他领域	-11.486
增长和发展	-11.4863
人的生命	-11.4865
执政者	-11.4867
所取代	-11.4868
东欧国家	-11.4875
创造新的	-11.4876
可用于	-11.488
来取代	-11.4881
更加容易	-11.4883
Le	-11.4884
世界级	-11.4886
uk	-11.4888
gi	-11.4893
全球金融体系	-11.4894
已成	-11.4897
相互依存	-11.4901
知道如何	-11.4902
最危险的	-11.4902
实用主义	-11.491
网络安全	-11.4912
他本人	-11.4912
带给	-11.4917
商业利益	-11.4917
纯属	-11.4918
更加困难	-11.4918
ick	-11.4922
关键问题是	-11.4928
过低	-11.4929
增加支出	-11.4932
前线	-11.4941
人力资源	-11.4942
有影响力的	-11.4943
已经进入了	-11.4948
口头	-11.4956
除此之外	-11.4957
一年后	-11.4966
我们还需要	-11.4967
卫生设施	-11.4969
▁Pen	-11.4969
已经失去了	-11.498
即所谓的	-11.4987
少数人	-11.4993
安全利益	-11.5001
独裁统治	-11.5004
7000	-11.502
其他发达国家	-11.5029
最著名的	-11.5037
这一立场	-11.5039
进口商品	-11.5041
许多地方	-11.5048
真实世界	-11.5056
高调	-11.5062
mar	-11.5076
收支平衡	-11.5086
这么一个	-11.5088
科学技术	-11.5088
债券收益率	-11.5108
领海	-11.5116
移交	-11.5147
沦	-11.5149
这些变化	-11.5158
实质上	-11.5167
有缺陷的	-11.5168
含有	-11.517
决策过程	-11.5172
所有这些都	-11.5182
强行	-11.5186
赞	-11.5189
从而降低	-11.5191
1900	-11.5192
2.0	-11.5192
宣	-11.5193
不如说是	-11.5193
轨	-11.5194
宜	-11.5196
所有成员国	-11.5196
仇	-11.5196
滋	-11.5198
冬	-11.5198
踪	-11.5198
窃	-11.5198
冠	-11.5198
欢	-11.5199
仿	-11.5199
竟	-11.5199
窗	-11.5199
抹	-11.5199
挣	-11.5199
垂	-11.52
怨	-11.52
喷	-11.52
厅	-11.52
轰	-11.52
绘	-11.52
躲	-11.52
桥	-11.52
关塔纳摩	-11.52
只剩下	-11.52
菲尔普斯	-11.52
月中旬	-11.52
克罗地亚	-11.52
彰显出	-11.52
墨	-11.52
先发制人	-11.52
承包商	-11.52
远见卓识	-11.52
债券持有人	-11.52
基督徒	-11.52
层出不穷	-11.52
昂山素季	-11.52
阿尔茨海默症	-11.52
侦	-11.52
劳动力大军	-11.52
姑	-11.52
礁	-11.52
令人振奋	-11.52
囤积	-11.52
腿	-11.52
太阳能电池板	-11.52
戈尔巴乔夫	-11.52
逾	-11.52
预期寿命	-11.52
欧洲央行行长德拉吉	-11.52
睡	-11.52
Thomas	-11.52
▁Summ	-11.52
悄悄	-11.52
几内亚	-11.52
博科圣地	-11.52
男孩	-11.52
巴切莱特	-11.52
拥挤	-11.52
聆听	-11.52
奴役	-11.52
尚不	-11.52
挥霍	-11.52
中东和北非	-11.52
从那以后	-11.52
市盈率	-11.52
厄运	-11.52
印刷	-11.52
翻一番	-11.52
泄露	-11.52
由来已久	-11.52
震荡	-11.52
电子商务	-11.52
减免	-11.52
丧命	-11.52
鬼城	-11.5201
所扮演的角色	-11.5201
不可逆转的	-11.5201
伪装	-11.5201
摇摆	-11.5201
钞票	-11.5201
存储	-11.5201
杜绝	-11.5201
消亡	-11.5201
迁往	-11.5201
经常账户盈余	-11.5201
法国和意大利	-11.5201
令人吃惊	-11.5202
已经过去了	-11.5202
告终	-11.5202
辩解	-11.5202
创伤	-11.5202
葛兰运动	-11.5202
却从未	-11.5202
相似之处	-11.5202
艺术品	-11.5202
▁现在的问题是	-11.5202
转折	-11.5202
陈旧	-11.5203
塞族	-11.5203
消退	-11.5203
南苏丹	-11.5203
延缓	-11.5203
乏力	-11.5203
集合	-11.5203
产值	-11.5204
▁总之	-11.5204
这座城市	-11.5204
去监管化	-11.5204
▁反之	-11.5204
输掉	-11.5204
假装	-11.5204
版图	-11.5204
明朗	-11.5204
谈判桌	-11.5204
结合起来	-11.5205
第三国	-11.5205
海平面上升	-11.5205
侵犯人权	-11.5205
货币篮子	-11.5206
最后贷款人	-11.5206
更具竞争力	-11.5206
降级	-11.5206
风险共担	-11.5206
坦克	-11.5207
现场	-11.5207
错失	-11.5207
心理学家	-11.5207
虚假信息	-11.5207
夺回	-11.5207
水泥	-11.5207
优越	-11.5207
收费	-11.5208
1933	-11.5209
艺术家	-11.521
精明	-11.521
冷战期间	-11.521
很清楚	-11.521
远远低于	-11.5211
上市公司	-11.5211
计入	-11.5212
让人感到	-11.5212
船只	-11.5213
带入	-11.5213
以致于	-11.5214
严峻的挑战	-11.5214
所达成的	-11.5214
却未能	-11.5214
格雷	-11.5214
认真考虑	-11.5214
人口红利	-11.5215
民族主义情绪	-11.5216
足够多的	-11.5216
主任	-11.5217
带头	-11.5217
最高领袖	-11.5218
递交	-11.5218
回收	-11.5219
解释为何	-11.522
太高	-11.522
英国和欧盟	-11.5221
严重损害	-11.5221
斯密	-11.5221
日期	-11.5221
卡尼	-11.5222
回合	-11.5222
系统性风险	-11.5223
习惯于	-11.5223
业务模式	-11.5224
发动战争	-11.5224
外部冲击	-11.5226
所遭受的	-11.5226
发生的事情	-11.5226
地域	-11.5228
杰出	-11.5228
网络攻击	-11.5228
弱化	-11.5229
供应量	-11.5231
东乌克兰	-11.5232
占据着	-11.5233
刺激经济增长	-11.5233
1914	-11.5235
改变现状	-11.5236
听证会	-11.5238
工作阶级	-11.5239
通胀预期	-11.5241
Nor	-11.5241
进出口	-11.5242
前首相	-11.5244
美国和日本	-11.5247
潜在增长率	-11.5248
加入其中	-11.5249
从来就	-11.5254
大谈	-11.5255
对美国来说	-11.5257
第三次	-11.5258
关键时刻	-11.5259
一直处于	-11.526
投资者们	-11.5261
基础设施支出	-11.5262
简单化	-11.5262
番	-11.5263
背上	-11.527
加入欧元区	-11.527
7,000	-11.5271
所有这一切	-11.5273
私人投资者	-11.5278
非法移民	-11.5278
反感	-11.5281
公海	-11.5287
高质量教育	-11.5288
之战	-11.5289
相比较	-11.5289
有义务	-11.5293
独有	-11.5297
其他成员国	-11.5298
贸易失衡	-11.5299
气候相关	-11.5305
欧洲投资银行	-11.5308
bo	-11.5312
协调一致	-11.5313
更喜欢	-11.5318
资本家	-11.5321
集会	-11.5322
给定	-11.5323
非常相似	-11.5326
只有少数	-11.5326
工资水平	-11.5332
这座	-11.5333
不稳定性	-11.5334
创造出来	-11.5336
看作是	-11.5343
市场失灵	-11.5346
几乎肯定会	-11.535
这是一种	-11.5354
世人	-11.5355
与其说	-11.5362
这一步	-11.5363
地下水	-11.5367
把钱	-11.5373
食品安全	-11.5376
身后	-11.5376
欧元区内部	-11.5379
ture	-11.5384
我们不应该	-11.539
被浪费	-11.5396
其背后	-11.5397
新开发银行	-11.5397
外流	-11.5404
伯克利	-11.5413
ris	-11.542
ica	-11.5434
趣	-11.5435
个体国家	-11.5436
und	-11.5443
普遍认为	-11.5452
一个原因是	-11.546
应该考虑	-11.5463
接触到	-11.5464
一百年	-11.5491
恰	-11.5491
五十	-11.5492
该战略	-11.5493
学历	-11.5497
房地产价格	-11.5499
好得多	-11.5503
判处	-11.5536
投机性	-11.5538
Di	-11.5542
最穷	-11.5545
人口结构	-11.5549
ker	-11.5552
政治进程	-11.5559
一点都不	-11.5563
法西斯	-11.5581
病患	-11.5581
典型	-11.5583
价格波动	-11.5586
农业生产率	-11.5588
Su	-11.5589
延伸	-11.5593
要归功于	-11.5594
bin	-11.5595
挤	-11.5601
提名人	-11.5603
自卫	-11.5605
两者之间	-11.561
两者都	-11.5611
想象力	-11.5619
社团	-11.5634
款项	-11.5635
挤出	-11.5636
主权债券	-11.5637
太低	-11.5639
ren	-11.5643
另一方	-11.5645
收支	-11.5645
亏	-11.5648
倾销	-11.5649
布雷顿森林	-11.5649
宪	-11.5651
驳	-11.5651
焦	-11.5651
饱	-11.5652
捷	-11.5652
指出的那样	-11.5652
孤	-11.5653
加勒比	-11.5653
泄	-11.5654
伐	-11.5654
惑	-11.5654
挫	-11.5654
赤	-11.5654
忌	-11.5654
拍	-11.5654
崩	-11.5654
旺	-11.5654
羞	-11.5654
躁	-11.5654
猜	-11.5654
陪	-11.5654
摊	-11.5654
菲利普	-11.5655
卡尔扎伊	-11.5655
挖	-11.5655
醉	-11.5655
堕落	-11.5655
阿卜杜拉	-11.5655
亚历山大	-11.5655
扎克伯格	-11.5655
碳氢化合物	-11.5655
自力更生	-11.5655
发病率	-11.5655
国会预算办公室	-11.5655
磁	-11.5655
资不抵债	-11.5655
栖息地	-11.5655
管理不善	-11.5655
芯片	-11.5655
FSB	-11.5655
郊	-11.5655
堡垒	-11.5655
营商环境	-11.5655
PISA	-11.5655
旧金山	-11.5655
李光耀	-11.5655
逍遥法外	-11.5655
Michael	-11.5655
流氓	-11.5655
袖手旁观	-11.5655
博物馆	-11.5655
拉姆斯菲尔德	-11.5655
捕捉	-11.5655
犹豫不决	-11.5655
皮诺切特	-11.5655
麦肯锡全球研究所	-11.5655
▁Policy	-11.5655
笼罩	-11.5655
花旗集团	-11.5655
▁Foundation	-11.5655
奥斯陆	-11.5655
马杜罗	-11.5655
1981	-11.5655
纽约时报	-11.5655
性价比	-11.5655
双管齐下	-11.5655
摄氏度	-11.5655
洛杉矶	-11.5655
ight	-11.5655
不无道理	-11.5655
苛刻	-11.5655
不切实际	-11.5655
次贷危机	-11.5655
招聘	-11.5655
相悖	-11.5655
过滤	-11.5655
抹杀	-11.5655
全球气候变暖	-11.5655
默许	-11.5655
共鸣	-11.5655
筹码	-11.5655
孤独	-11.5655
铲除	-11.5655
抗拒	-11.5655
宪政	-11.5655
纵容	-11.5655
辨别	-11.5655
认证	-11.5655
警觉	-11.5656
洪森	-11.5656
加沙地带	-11.5656
战役	-11.5656
抗生素耐药性	-11.5656
表演	-11.5656
大佬	-11.5656
ative	-11.5656
季节	-11.5656
退休年龄	-11.5657
夫妇	-11.5657
冬天	-11.5657
税收减免	-11.5657
异议	-11.5657
滋生	-11.5657
乱象	-11.5657
参照	-11.5657
表决	-11.5657
海牙	-11.5658
铁幕	-11.5658
做生意	-11.5658
主角	-11.5658
化疗	-11.5658
降息	-11.5658
收容	-11.5658
重返	-11.5658
删除	-11.5659
德国和法国	-11.5659
幸福感	-11.5659
推销	-11.5659
管辖权	-11.5661
收紧货币政策	-11.5661
税务	-11.5661
条例	-11.5661
▁Mc	-11.5661
在未来五年	-11.5662
收买	-11.5662
实例	-11.5662
早教	-11.5663
节制	-11.5664
平庸	-11.5664
拯救生命	-11.5664
腐败丑闻	-11.5664
1972	-11.5665
军事基地	-11.5665
施加压力	-11.5665
远未	-11.5666
广受	-11.5668
英联邦	-11.5668
极低利率	-11.5669
也同样如此	-11.567
任意	-11.5671
斯顿	-11.5671
更糟糕的	-11.5672
至关重要的作用	-11.5672
十分有限	-11.5674
离心	-11.5675
20,000	-11.5677
发声	-11.5677
水源	-11.5678
Law	-11.5678
气体	-11.5678
之间的差距	-11.5679
事项	-11.5679
▁有人说	-11.568
三方	-11.568
实力平衡	-11.5681
之苦	-11.5681
西奥	-11.5682
科学界	-11.5685
带来了巨大的	-11.5686
热点	-11.5686
凯恩斯主义者	-11.569
善于	-11.5691
平均每年	-11.5691
所经历的	-11.5691
off	-11.5691
190	-11.5692
进化论	-11.5692
伊斯兰革命	-11.5693
之源	-11.5693
work	-11.5693
很长	-11.5695
货币扩张	-11.5696
平衡预算	-11.5697
.1%	-11.5698
被控	-11.57
家庭和企业	-11.5701
是否愿意	-11.5705
两天	-11.5706
自由党	-11.5707
借用	-11.5707
监管框架	-11.5711
要归因于	-11.5711
管理局	-11.5712
巴尔	-11.5713
政治学家	-11.5716
有何	-11.5716
平常	-11.5718
邻邦	-11.5719
重新统一	-11.5722
后两者	-11.5724
约占	-11.5727
卫生工作者	-11.5731
银行存款	-11.5732
更廉价	-11.5733
▁Mi	-11.5734
最少	-11.5735
多位	-11.5739
数字时代	-11.5742
货币当局	-11.5743
处理好	-11.5743
高失业	-11.5744
增长引擎	-11.5747
不恰当	-11.5749
全人类	-11.5755
有理由相信	-11.5755
参与其中	-11.5755
而产生的	-11.5762
这才是	-11.5762
党员	-11.5767
最为重要的	-11.5769
官僚主义	-11.577
汇率波动	-11.5773
3.3	-11.5777
东盟成员国	-11.5791
就越大	-11.5793
效用	-11.5802
被推翻	-11.5803
患有	-11.5813
道德风险	-11.5814
高薪	-11.5814
相对稳定	-11.5817
确实如此	-11.5821
可以起到	-11.5823
人丧生	-11.5848
zi	-11.585
国旗	-11.5851
2.6	-11.5862
简直是	-11.5881
正在崛起	-11.589
5.5	-11.5899
被授予	-11.59
新德里	-11.5915
库存	-11.593
造成了巨大	-11.5936
que	-11.5955
以免	-11.5963
技术变革	-11.5972
令人瞩目	-11.5977
际	-11.5977
大家都	-11.5989
减少温室气体排放	-11.6018
存在巨大的	-11.6047
2.5%	-11.6047
这些东西	-11.6047
展现出	-11.6053
来形容	-11.6063
在于它	-11.6073
帝	-11.6077
仍有待	-11.6077
所领导的	-11.6081
寻	-11.6088
十五年	-11.6089
ler	-11.6092
这条路	-11.6093
乏	-11.6099
抑	-11.6102
予	-11.6104
密度	-11.6104
雇	-11.6116
辆	-11.612
骤	-11.6123
鉴	-11.6123
劝	-11.6124
病菌	-11.6124
挑	-11.6124
凝聚	-11.6127
催	-11.6128
添	-11.6129
令人感到	-11.6129
免不了	-11.6129
李克强	-11.6129
罢	-11.6129
练	-11.613
酷	-11.613
虽	-11.613
盯	-11.613
培	-11.613
册	-11.6131
锐	-11.6131
关塔那摩	-11.6131
齐奥塞斯库	-11.6131
诺贝尔和平奖	-11.6131
盾	-11.6131
罗格夫	-11.6131
眼睛	-11.6131
蛇	-11.6131
行不通	-11.6131
臭	-11.6131
凌	-11.6131
喘	-11.6131
晨	-11.6131
颂	-11.6131
麦肯锡全球研究院	-11.6131
地方政府融资平台	-11.6131
艘	-11.6131
莫桑比克	-11.6131
克什米尔	-11.6131
达赖喇嘛	-11.6131
猫	-11.6131
难以置信	-11.6131
&	-11.6131
死灰复燃	-11.6131
阿鲁纳恰尔邦	-11.6131
昧	-11.6131
心目中	-11.6131
救世主	-11.6131
汤	-11.6131
Richard	-11.6131
克格勃	-11.6131
卡斯特罗	-11.6131
国际清算银行	-11.6131
岌岌可危	-11.6131
方方面面	-11.6131
▁亲爱的	-11.6131
想方设法	-11.6131
andMe	-11.6131
穆兄会	-11.6131
铺平了道路	-11.6131
尼泊尔	-11.6131
惹	-11.6131
抗氧化剂	-11.6131
欧佩克	-11.6131
技术转让	-11.6131
漠不关心	-11.6131
单枪匹马	-11.6131
卡梅隆	-11.6131
马萨诸塞州	-11.6131
黑天鹅	-11.6131
血红蛋白	-11.6131
1986	-11.6131
就职演说	-11.6131
自那以后	-11.6131
赞誉	-11.6131
涨幅	-11.6131
怨恨	-11.6131
默认	-11.6131
从历史上看	-11.6131
奉献	-11.6131
冰盖	-11.6131
暴君	-11.6131
中欧和东欧	-11.6131
碰撞	-11.6131
邮件	-11.6131
泛滥	-11.6131
很长一段时间	-11.6131
挤压	-11.6131
腾讯	-11.6131
抵扣	-11.6131
闲置	-11.6131
挫败	-11.6131
电子邮件	-11.6131
北美自由贸易协定	-11.6131
勾结	-11.6131
公寓	-11.6131
一连串	-11.6131
中等收入陷阱	-11.6131
启蒙	-11.6131
优先事项	-11.6131
签字	-11.6132
汇集	-11.6132
罢工	-11.6132
劫持	-11.6132
构造	-11.6132
投诉	-11.6132
彩票	-11.6132
增幅	-11.6132
窗口	-11.6132
无非是	-11.6132
无可否认	-11.6132
怪异	-11.6132
处罚	-11.6132
卫生保健	-11.6132
珍视	-11.6132
尚不清楚	-11.6132
渔民	-11.6132
圣保罗	-11.6132
货币和财政政策	-11.6132
沃尔夫	-11.6133
泰勒	-11.6133
空洞	-11.6133
影片	-11.6133
丹尼	-11.6134
全民公投	-11.6134
作为一个整体	-11.6134
理顺	-11.6134
0.9	-11.6134
艰巨的挑战	-11.6134
拜登	-11.6134
新来者	-11.6134
意欲	-11.6134
放贷	-11.6134
演进	-11.6135
年轻一代	-11.6135
副主席	-11.6135
公众舆论	-11.6135
确诊	-11.6136
总有一天	-11.6136
伊斯兰教徒	-11.6136
的名言	-11.6136
专员	-11.6136
ama	-11.6136
课税	-11.6136
患病	-11.6136
创意	-11.6137
布雷顿森林体系	-11.6137
退步	-11.6137
制衣	-11.6137
好比是	-11.6137
近几年	-11.6137
反倾销	-11.6138
神奇	-11.6138
日本首相安倍晋三	-11.6138
安装	-11.6138
小麦	-11.6139
吸毒者	-11.6139
古代	-11.6139
否决权	-11.614
另一条	-11.6141
以色列和巴勒斯坦	-11.6141
盈利能力	-11.6141
外交部	-11.6141
布鲁	-11.6142
私营企业	-11.6142
线索	-11.6143
回升	-11.6143
弗拉	-11.6143
中美关系	-11.6143
偿付能力	-11.6143
还远远不够	-11.6143
感知	-11.6144
施行	-11.6145
几种	-11.6145
版权	-11.6145
二战以来	-11.6146
一件事	-11.6146
舒适	-11.6147
税法	-11.6149
抓住机会	-11.6152
先生	-11.6152
原子	-11.6152
回落	-11.6154
界线	-11.6154
出访	-11.6155
完整性	-11.6155
议会席位	-11.6156
作业	-11.6156
机动	-11.6156
工资税	-11.6157
吞并	-11.6158
上游	-11.616
的大头	-11.616
相一致	-11.616
所急需的	-11.6161
用词	-11.6162
哈特	-11.6162
主要集中在	-11.6162
断言	-11.6162
▁但不幸的是	-11.6162
重新回到	-11.6162
不满情绪	-11.6163
证券化	-11.6165
看见	-11.6165
高压	-11.6168
发生了改变	-11.6168
陷入衰退	-11.6169
安全部队	-11.617
非洲年轻人	-11.617
在未来几年中	-11.6171
是可以理解的	-11.6172
接过	-11.6173
合力	-11.6175
仍在继续	-11.6175
共同价值观	-11.6177
不可行	-11.6178
还债	-11.618
传说	-11.6182
天生	-11.6185
重大进步	-11.6186
证明了这一点	-11.6188
联合行动	-11.6188
数十年来	-11.6192
证据证明	-11.6193
中国和南非	-11.6195
地方官员	-11.6195
有所帮助	-11.6196
远非	-11.6197
更倾向于	-11.6197
达尔	-11.6197
着实	-11.6197
▁关键是	-11.6198
时间表	-11.62
农业部门	-11.6209
环境恶化	-11.621
之门	-11.621
报告指出	-11.6212
安全保障	-11.6213
出身	-11.6214
人类健康	-11.6214
信任度	-11.6219
更快地	-11.6222
空前	-11.6224
另外一种	-11.6225
土地使用	-11.6227
电站	-11.624
大增	-11.6243
英国退出欧盟	-11.6251
抛出	-11.6259
无法容忍	-11.6261
所出现的	-11.6262
但它也	-11.6264
的唯一方法	-11.6267
过去三十年	-11.6267
还要高	-11.628
深受	-11.6283
糟	-11.6284
正在进行的	-11.6285
认识到这一点	-11.6289
大大降低	-11.6289
只是为了	-11.6312
8.5	-11.6322
ram	-11.6339
表面上看	-11.6355
克里斯	-11.636
投机者	-11.6362
周末	-11.6382
▁但这并不是	-11.6384
太久	-11.6388
国有银行	-11.6398
发生的事件	-11.6401
粮食生产	-11.6415
人口数量	-11.6421
各级	-11.6454
限定	-11.6456
这一情景	-11.6469
破产法	-11.6481
是一个错误	-11.6483
其他形式的	-11.6484
第三世界	-11.6485
月举行的	-11.6488
此项	-11.6488
继任者	-11.6502
十八	-11.6508
跟随	-11.6517
多余	-11.6523
基石	-11.6526
政体	-11.6557
一番	-11.6557
旨	-11.6558
退欧派	-11.6559
至此	-11.656
五十年	-11.6579
民权	-11.6588
越好	-11.6593
min	-11.6594
货币基金组织	-11.6606
Ch	-11.6607
高端	-11.661
采	-11.6611
这片	-11.6617
受审	-11.6623
背负	-11.6627
庆	-11.6628
截	-11.6628
愈	-11.6628
斯坦福	-11.6628
二战结束	-11.6629
毕	-11.6629
罕	-11.663
训	-11.663
串	-11.663
挡	-11.663
督	-11.663
肺	-11.6631
所表明的那样	-11.6631
寿命预期	-11.6631
喝	-11.6631
滩	-11.6631
公立学校	-11.6631
溃	-11.6631
苦苦挣扎	-11.6631
喀拉拉邦	-11.6631
浩	-11.6631
肿	-11.6631
阿联酋	-11.6631
亚的斯亚贝巴	-11.6631
大猩猩	-11.6631
杆	-11.6631
防空识别区	-11.6631
MGI	-11.6631
临界点	-11.6631
大获全胜	-11.6631
政府间气候变化专门委员会	-11.6631
阿勒颇	-11.6631
1/4	-11.6631
▁Krugman	-11.6631
一厢情愿	-11.6631
入主白宫	-11.6631
化学武器	-11.6631
百分比	-11.6631
重商主义	-11.6631
陈词滥调	-11.6631
í	-11.6631
国际足联	-11.6631
太阳能和风能	-11.6631
如出一辙	-11.6631
归结为	-11.6631
肆无忌惮	-11.6631
胸	-11.6631
趁	-11.6631
▁Bernanke	-11.6631
安德鲁	-11.6631
宠	-11.6631
自贸协议	-11.6631
兽	-11.6631
危地马拉	-11.6631
啊	-11.6631
精诚合作	-11.6631
随心所欲	-11.6631
玻	-11.6631
阿姆斯特丹	-11.6631
▁Partnership	-11.6631
中华人民共和国	-11.6631
刘	-11.6631
多哈回合	-11.6631
感到惊讶	-11.6631
栏	-11.6631
棘手问题	-11.6631
爱沙尼亚	-11.6631
立陶宛	-11.6631
自给自足	-11.6631
行之有效	-11.6631
叉	-11.6631
西雅图	-11.6631
摘	-11.6631
壁	-11.6631
高规格	-11.6631
持不同政见者	-11.6631
览	-11.6631
所起的作用	-11.6631
获益良多	-11.6631
贪污	-11.6631
钻井	-11.6631
驳斥	-11.6631
贯穿	-11.6631
颜色	-11.6631
欢呼	-11.6631
虚构	-11.6631
午餐	-11.6631
诉诸	-11.6631
大使馆	-11.6631
迷惑	-11.6631
基辅	-11.6631
刊登	-11.6631
是一回事	-11.6632
跟进	-11.6632
开辟	-11.6632
国务卿希拉里	-11.6632
失踪	-11.6632
边际税率	-11.6632
冲销	-11.6632
育儿	-11.6632
注射	-11.6632
联合国教科文组织	-11.6632
茶党	-11.6632
慢慢	-11.6632
3.8	-11.6632
社交	-11.6632
最低限度	-11.6632
在过去五年中	-11.6633
文献	-11.6633
热浪	-11.6633
实现这些目标	-11.6633
蒸发	-11.6633
停顿	-11.6633
移居	-11.6633
坦白	-11.6633
集中精力	-11.6633
酒精	-11.6634
人民币国际化	-11.6634
枪击	-11.6634
肯尼	-11.6634
核反应堆	-11.6634
请求	-11.6634
运河	-11.6634
医疗补助	-11.6634
指示	-11.6634
管治	-11.6634
民调显示	-11.6635
▁第一种	-11.6635
弹药	-11.6635
领土争端	-11.6635
第一个任期	-11.6635
租金	-11.6635
资深	-11.6635
奋力	-11.6635
的紧迫性	-11.6636
领土纠纷	-11.6636
华沙	-11.6636
缺位	-11.6636
农民工	-11.6636
也不例外	-11.6636
夺取	-11.6636
讨好	-11.6637
非正规	-11.6637
销售额	-11.6637
十足	-11.6638
暴动	-11.6638
道义	-11.6638
说明了这一点	-11.6638
首席经济学家	-11.6638
动员起来	-11.6638
军备	-11.6638
宏观经济学	-11.6639
在很大程度上取决于	-11.6639
屈服于	-11.664
US	-11.664
信条	-11.6641
可预测性	-11.6641
联合国可持续发展目标	-11.6641
现阶段	-11.6641
政局	-11.6641
手脚	-11.6641
底线	-11.6642
核查	-11.6642
证据显示	-11.6643
相差	-11.6644
受众	-11.6644
趋于	-11.6644
航空公司	-11.6645
选手	-11.6645
为导向的	-11.6645
提取	-11.6645
拉登	-11.6645
主意	-11.6646
世界货币基金组织	-11.6646
二战结束后	-11.6646
全额	-11.6647
另一次	-11.6648
大约一半	-11.6648
进口品	-11.6648
ley	-11.6648
作斗争	-11.6649
学费	-11.665
官僚体系	-11.665
涌向	-11.665
反响	-11.6651
癌症治疗	-11.6651
兰特	-11.6652
解释为什么	-11.6652
发动机	-11.6653
中等收入国家	-11.6653
1975	-11.6653
下游	-11.6655
公式	-11.6655
普通公民	-11.6655
思维方式	-11.6655
失利	-11.6655
繁荣期	-11.6656
科学院	-11.6656
DP	-11.6657
岁以上	-11.6657
之初	-11.6658
意义重大	-11.6658
再培训	-11.6659
杰里	-11.6659
维度	-11.666
统治地位	-11.6662
炎热	-11.6664
聚会	-11.6664
对抗气候变化	-11.6664
每位	-11.6665
司法系统	-11.6665
加重	-11.6665
▁这反过来	-11.6666
反垄断	-11.6668
所面对的	-11.6669
出生于	-11.6671
阿富汗和伊拉克	-11.6671
▁只有当	-11.6672
萨尔	-11.6673
▁Mu	-11.6674
著称	-11.6676
适应气候变化	-11.6677
预算平衡	-11.6679
所依赖的	-11.668
下个月	-11.6682
科尔	-11.6684
去世	-11.6686
成立了一个	-11.6686
过去十年来	-11.6688
这一举动	-11.6689
低技能	-11.6695
撤回	-11.6699
幸免	-11.67
侵略性	-11.6701
6.5%	-11.6703
所持有的	-11.6718
过去一年	-11.6718
pre	-11.672
对外政策	-11.6721
全球各地	-11.6722
被看作是	-11.6724
净出口	-11.6725
更长时间	-11.6726
国内和国际	-11.673
bert	-11.6734
所进行的	-11.6738
埃德	-11.6754
发展态势	-11.6756
民主进程	-11.6758
免除	-11.677
国会共和党	-11.6781
宏观经济稳定	-11.6781
袋	-11.6786
问题的答案	-11.6791
发布了一份	-11.6793
所支持的	-11.6793
合资	-11.6796
大幅减少	-11.6801
over	-11.6804
El	-11.6815
民粹主义政党	-11.6822
8000	-11.6831
这个故事	-11.6841
核武库	-11.6852
反犹	-11.6856
itz	-11.6879
这股	-11.6914
▁Me	-11.6918
困局	-11.6934
ny	-11.6937
一千万	-11.6939
ance	-11.696
这一代人	-11.6963
经济增长放缓	-11.6985
至少部分	-11.6993
资金来源	-11.7006
候	-11.7012
驻军	-11.7021
每个国家都	-11.7038
所做出的	-11.704
收成	-11.7045
廉	-11.7046
这可不是	-11.7051
旅	-11.7055
覆盖面	-11.7056
这就需要	-11.7057
其他欧洲国家	-11.7061
但仍有	-11.7069
顺差	-11.708
亿英镑	-11.7081
非常清楚	-11.7098
听证	-11.7115
热潮	-11.7132
根本就不	-11.7133
数目	-11.7137
三位	-11.7138
舒	-11.7138
耻	-11.7152
亲欧	-11.7152
求助	-11.7152
尼古拉	-11.7152
典	-11.7153
契	-11.7153
府	-11.7154
叠	-11.7154
葛兰	-11.7154
束	-11.7155
蒸	-11.7155
艺	-11.7156
誓	-11.7156
厘	-11.7156
赔	-11.7156
Trans	-11.7157
诺贝尔奖得主	-11.7157
毫不犹豫地	-11.7157
萨尔瓦多	-11.7157
踩	-11.7157
帖	-11.7157
COP	-11.7157
自下而上	-11.7157
米歇尔	-11.7157
联邦公开市场委员会	-11.7157
被告知	-11.7157
风能和太阳能	-11.7157
氮	-11.7157
焚	-11.7157
Uber	-11.7157
更别说	-11.7157
Gavi	-11.7157
凑	-11.7157
工薪阶层	-11.7157
约旦河西岸	-11.7157
Frank	-11.7157
利益相关方	-11.7157
不合时宜	-11.7157
克里斯蒂娜	-11.7157
喉	-11.7157
宫颈癌	-11.7157
德黑兰	-11.7157
浸	-11.7157
踢	-11.7157
▁Group	-11.7157
一句名言	-11.7157
不出所料	-11.7157
令人惊奇	-11.7157
墓	-11.7157
无济于事	-11.7157
伦敦金融城	-11.7157
国际原子能机构	-11.7157
大错特错	-11.7157
奠定基础	-11.7157
ESM	-11.7157
德意志银行	-11.7157
相形见绌	-11.7157
第一次世界大战	-11.7157
长足的进步	-11.7157
American	-11.7157
―	-11.7157
不情愿	-11.7157
劳动力参与率	-11.7157
尸	-11.7157
无与伦比	-11.7157
湄公河	-11.7157
瞻	-11.7157
诺贝尔经济学奖获得者	-11.7157
下一轮	-11.7157
伯利恒	-11.7157
十字路口	-11.7157
哈耶克	-11.7157
翻了一番	-11.7157
布拉格	-11.7157
挥之不去	-11.7157
飘	-11.7157
1985	-11.7157
敛	-11.7157
斩	-11.7157
Wolf	-11.7157
嘉	-11.7157
宣誓	-11.7157
秉承	-11.7157
涉嫌	-11.7157
祭	-11.7157
着重于	-11.7157
灵魂	-11.7157
伊曼纽尔	-11.7157
诺贝尔奖	-11.7157
赤贫	-11.7157
追寻	-11.7157
黄豆	-11.7157
罪魁	-11.7157
兴奋剂	-11.7158
深渊	-11.7158
乡村	-11.7158
形态	-11.7158
捕鱼	-11.7158
汇聚	-11.7158
灭亡	-11.7158
生动	-11.7158
洪灾	-11.7158
支援	-11.7158
弗朗	-11.7158
物价指数	-11.7158
福克斯	-11.7158
议案	-11.7158
拼命	-11.7158
资本账户自由化	-11.7158
附带	-11.7158
鹰派	-11.7158
万亿元	-11.7158
意料之外的	-11.7158
温暖	-11.7159
扰乱	-11.7159
树木	-11.7159
曼德拉	-11.7159
窃取	-11.7159
散播	-11.7159
宽松的货币政策	-11.7159
伦齐	-11.7159
创办	-11.7159
忠实	-11.7159
吸取教训	-11.7159
抑制剂	-11.716
伊拉克和阿富汗	-11.716
土著	-11.716
真诚	-11.716
罚金	-11.716
偏爱	-11.716
几代人	-11.716
远大于	-11.716
老虎	-11.716
被任命为	-11.716
风力发电	-11.716
蒙蒂	-11.7161
例证	-11.7161
ett	-11.7161
牵头	-11.7161
税收优惠	-11.7161
在必要时	-11.7161
深厚	-11.7161
教益	-11.7161
激情	-11.7162
马歇尔计划	-11.7162
公共和私人部门	-11.7162
公决	-11.7162
▁这就是为何	-11.7163
国防开支	-11.7163
医学院	-11.7163
算计	-11.7163
胜选	-11.7163
评论员	-11.7163
很强的	-11.7164
发育	-11.7164
志愿者	-11.7164
紧张局面	-11.7165
董事会成员	-11.7165
油价下跌	-11.7166
逮捕令	-11.7167
某位	-11.7167
私利	-11.7168
不可否认	-11.7168
收场	-11.7168
品种	-11.7168
前辈	-11.7169
保持沉默	-11.7169
同事们	-11.7169
的主要推动力	-11.7169
几项	-11.717
那时候	-11.717
支点	-11.7171
6.5	-11.7171
领取	-11.7172
显著低于	-11.7172
不断膨胀	-11.7173
持续不断的	-11.7174
▁其二	-11.7174
后悔	-11.7175
大幅下跌	-11.7175
要大得多	-11.7175
密切关注	-11.7176
国际货币体系	-11.7176
分解	-11.7178
外表	-11.7179
年长者	-11.7179
作风	-11.7179
室内	-11.718
同类	-11.718
媒体报道	-11.7181
了不起的	-11.7182
所作出的	-11.7183
密切相关	-11.7184
平均增长率	-11.7184
演说	-11.7184
放开	-11.7184
两场	-11.7185
两条	-11.7185
一大步	-11.7186
阿布	-11.7186
率先	-11.7187
北约成员国	-11.7187
16%	-11.7187
绝无	-11.7189
二十年前	-11.7191
更加可持续的	-11.7192
总值	-11.7194
人际	-11.7195
加税	-11.7198
可预防	-11.7198
日常生活	-11.7201
7.4	-11.7201
要务	-11.7201
抬高	-11.7203
诱使	-11.7206
各大银行	-11.7206
司法体系	-11.7212
难以想象	-11.7217
研究员	-11.7217
奋起	-11.7218
最脆弱的	-11.7234
非常有限	-11.7236
深远影响	-11.7247
生产率的提高	-11.7251
万人的生命	-11.7278
要想实现	-11.7279
安娜	-11.728
而这又	-11.729
不可或缺	-11.7295
可兑换	-11.7309
该法案	-11.7311
所受到的	-11.7323
修正主义	-11.733
1.5%	-11.7331
英美	-11.7347
所付出的	-11.7401
以此作为	-11.7402
入侵伊拉克	-11.7416
面临严重的	-11.7423
健康保险	-11.743
所看到的	-11.7448
aj	-11.7466
合成	-11.7469
面临着巨大的	-11.7477
呼声	-11.7479
amp	-11.7479
系列	-11.7479
旗下	-11.7509
阳	-11.7511
同理	-11.7539
种群	-11.755
大洲	-11.7557
4.4	-11.757
摇	-11.7571
一个共同的	-11.7577
阳光	-11.7587
亲身	-11.7599
3.6	-11.7619
物资	-11.7633
金融危机期间	-11.7645
享	-11.7649
德国和意大利	-11.766
径	-11.7661
风电	-11.7676
箭	-11.7691
末期	-11.7695
壮	-11.7702
吸毒	-11.7704
疗	-11.7704
诚信	-11.7706
誉	-11.7708
供电	-11.7708
寸	-11.771
履	-11.771
偿债	-11.7711
琳	-11.7711
役	-11.7711
仪	-11.7711
锋	-11.7711
谎	-11.7711
舞	-11.7712
比以往任何时候	-11.7712
闲	-11.7712
募	-11.7712
覆	-11.7712
撑	-11.7712
爬	-11.7712
直升机	-11.7712
讽	-11.7712
挂	-11.7712
Nexus	-11.7712
<	-11.7713
方济各	-11.7713
涅	-11.7713
眠	-11.7713
舌	-11.7713
巢	-11.7713
盐	-11.7713
措辞	-11.7713
纠缠	-11.7713
>	-11.7713
波斯湾	-11.7713
一席之地	-11.7713
具有讽刺意味的是	-11.7713
2007—2008	-11.7713
特拉维夫	-11.7713
缪	-11.7713
锚	-11.7713
乌兹别克斯坦	-11.7713
乙醇	-11.7713
堤	-11.7713
弥漫	-11.7713
尤科斯	-11.7713
柔	-11.7713
正义与发展党	-11.7713
下定决心	-11.7713
刃	-11.7713
婴儿潮一代	-11.7713
扑	-11.7713
爱德华	-11.7713
达乌德	-11.7713
在多大程度上	-11.7713
曾几何时	-11.7713
潘多拉	-11.7713
缔约国	-11.7713
莉	-11.7713
路易斯	-11.7713
首当其冲	-11.7713
脱颖而出	-11.7713
Claud	-11.7713
Jerem	-11.7713
债券购买计划	-11.7713
前列腺癌	-11.7713
息息相关	-11.7713
法拉奇	-11.7713
Social	-11.7713
厄立特里亚	-11.7713
寄生虫	-11.7713
的温床	-11.7713
Kenne	-11.7713
盎格鲁	-11.7713
芒	-11.7713
还有很长的路要走	-11.7713
难以为继	-11.7713
布宜诺斯艾利斯	-11.7713
瓦尔斯	-11.7713
米洛舍维奇	-11.7713
马尼拉	-11.7713
遮	-11.7713
假以时日	-11.7713
争吵	-11.7713
南极洲	-11.7713
共同农业政策	-11.7713
原谅	-11.7713
貌似	-11.7713
欣赏	-11.7713
遗址	-11.7713
扔	-11.7713
纳赛尔	-11.7713
永恒	-11.7713
谅解	-11.7713
悄然	-11.7713
牢牢	-11.7713
察觉	-11.7713
▁既然如此	-11.7713
构架	-11.7713
割裂	-11.7713
狂欢	-11.7713
违规	-11.7713
扶持	-11.7713
翻译	-11.7713
转嫁	-11.7713
拟议	-11.7713
诱导	-11.7713
胃口	-11.7713
葛兰主义者	-11.7713
抹黑	-11.7713
小泉	-11.7714
追逐	-11.7714
迟缓	-11.7714
垮台	-11.7714
牧师	-11.7714
惨遭	-11.7714
废止	-11.7714
指挥官	-11.7714
医疗和教育	-11.7714
惯例	-11.7714
欲望	-11.7714
靠谱	-11.7714
埃博拉疫情	-11.7714
纵观	-11.7714
综合症	-11.7714
研究和开发	-11.7715
病态	-11.7715
在过去几年中	-11.7715
▁你也许会	-11.7715
穆勒	-11.7715
贫富	-11.7715
审理	-11.7715
加密	-11.7715
号决议	-11.7715
族群	-11.7715
尾声	-11.7716
难怪	-11.7716
比以往任何时候都更加	-11.7716
怀疑论者	-11.7716
烟民	-11.7716
委任	-11.7716
▁Dra	-11.7716
林肯	-11.7716
敌视	-11.7716
硬件	-11.7716
周年纪念日	-11.7716
取暖	-11.7716
相称的	-11.7716
陷入瘫痪	-11.7717
洗钱	-11.7717
告别	-11.7717
正轨	-11.7717
投降	-11.7717
哥本哈根共识	-11.7717
每桶	-11.7718
生物医学	-11.7718
放慢	-11.7718
服务提供商	-11.7718
延期	-11.7718
使用化学武器	-11.7718
谷物	-11.7718
性别差距	-11.7718
观察员	-11.7719
领土完整	-11.7719
牛津大学	-11.7719
改写	-11.7719
部族	-11.7719
那段	-11.772
选举产生的	-11.772
有充分的理由	-11.772
在道德上	-11.772
多亏	-11.772
背负着	-11.772
微型	-11.772
诺言	-11.772
商务	-11.7721
高加索地区	-11.7721
Com	-11.7721
乱局	-11.7721
保全	-11.7721
找工作	-11.7721
渡过	-11.7721
基准利率	-11.7722
联合声明	-11.7722
文盲	-11.7722
1977	-11.7723
干净	-11.7723
远远高于	-11.7723
保持不变	-11.7723
6.7	-11.7723
非凡	-11.7724
奥巴马医保	-11.7724
美欧	-11.7724
亲信	-11.7724
决意	-11.7724
没收	-11.7725
风潮	-11.7725
分红	-11.7725
伊斯兰主义者	-11.7725
的基本原则	-11.7725
之父	-11.7726
1949	-11.7726
助力	-11.7727
三百万	-11.7727
投入品	-11.7728
正确方向	-11.7728
油气	-11.7728
流传	-11.7728
家务	-11.7729
流产	-11.7732
票数	-11.7732
特质	-11.7732
情报部门	-11.7733
更佳	-11.7733
有所放缓	-11.7733
碳税	-11.7734
联手	-11.7735
相处	-11.7736
出资国	-11.7736
年代早期	-11.7736
削减开支	-11.7736
低油价	-11.7736
合作社	-11.7736
达不到	-11.7736
的主要来源	-11.7736
知晓	-11.7736
携带者	-11.7737
数据收集	-11.7737
武装力量	-11.7737
歉	-11.7737
form	-11.7738
汽车业	-11.7739
经济学理论	-11.774
国土	-11.774
约合	-11.7742
的关键在于	-11.7743
加工食品	-11.7743
国民议会	-11.7745
两极	-11.7747
公共开支	-11.775
金融自由化	-11.7753
平均值	-11.7764
这是一场	-11.7796
比不上	-11.7801
land	-11.7803
str	-11.7805
顾及	-11.7809
内政部	-11.781
极为重要	-11.7819
融资渠道	-11.782
nder	-11.7824
聚焦	-11.7829
未来数年	-11.7832
最伟大的	-11.7842
年轻人失业率	-11.7853
私人和公共	-11.7858
规模庞大	-11.7866
协	-11.7886
ish	-11.7899
微生物	-11.7905
峰	-11.7907
当初	-11.7913
现金流	-11.7926
兰德	-11.7927
成百上千	-11.7934
0.5%	-11.7934
vin	-11.7936
难免会	-11.7953
实际工资	-11.7971
纽约联储	-11.8011
十分清楚	-11.8011
陆地	-11.8025
深层	-11.8025
被排除在	-11.8032
分离主义	-11.8037
气温升高	-11.8037
归根结底	-11.8058
想必	-11.8058
煤电	-11.8081
首任	-11.8085
七个	-11.8086
伊朗的核	-11.8086
Do	-11.8149
这次会议	-11.8154
屋顶	-11.8166
为了防止	-11.8168
弱小	-11.8182
莱斯	-11.8194
重要的角色	-11.8229
卸	-11.8235
数据集	-11.8236
其他许多国家	-11.8263
热爱	-11.8272
适度	-11.8286
杯	-11.8288
首相安倍晋三	-11.8293
衍生	-11.8294
专注	-11.8296
孩	-11.8297
茶	-11.8299
贬	-11.83
塌	-11.83
鬼	-11.83
阅	-11.83
甩	-11.8301
蚊	-11.8301
圣诞	-11.8301
偏袒	-11.8301
艾哈迈迪	-11.8301
CBO	-11.8301
亨萨林	-11.8301
佛罗里达	-11.8301
裸	-11.8301
骂	-11.8301
AAA	-11.8301
桩	-11.8301
磅	-11.8301
内幕交易	-11.8301
砸	-11.8301
这番话	-11.8301
遥不可及	-11.8301
全民基本收入	-11.8301
公信力	-11.8301
安格拉	-11.8301
尼加拉瓜	-11.8301
直截了当	-11.8301
肺炎	-11.8301
形成了鲜明对比	-11.8301
有朝一日	-11.8301
缔造者	-11.8301
贱民	-11.8301
饿	-11.8301
9/11	-11.8301
刹车	-11.8301
迭	-11.8301
三驾马车	-11.8301
丛	-11.8301
忧心忡忡	-11.8301
CTBT	-11.8301
妈	-11.8301
意想不到的	-11.8301
没完没了的	-11.8301
联邦储备银行	-11.8301
屈从于	-11.8301
禽	-11.8301
▁Initiative	-11.8301
下议院	-11.8301
幸存者	-11.8301
紧随其后	-11.8301
走廊	-11.8301
Council	-11.8301
受过良好教育	-11.8301
政权更迭	-11.8301
Jeff	-11.8301
Research	-11.8301
▁发自纽黑文	-11.8301
中央集权	-11.8301
厄尔尼诺	-11.8301
嗤之以鼻	-11.8301
往常一样	-11.8301
摇身一变	-11.8301
纳瓦尔尼	-11.8301
鞭	-11.8301
Gordon	-11.8301
▁State	-11.8301
一胎政策	-11.8301
火上浇油	-11.8301
猩	-11.8301
的代名词	-11.8301
亲眼目睹	-11.8301
娅	-11.8301
花旗银行	-11.8301
鲨鱼	-11.8301
局面改变因素	-11.8301
盼	-11.8301
Peter	-11.8301
法国大革命	-11.8301
REDD	-11.8301
卖淫	-11.8301
魔鬼	-11.8301
当权者	-11.8301
化合物	-11.8301
巴以冲突	-11.8301
称得上	-11.8301
美联储前主席	-11.8301
一整套	-11.8301
屈辱	-11.8301
捷径	-11.8301
适宜	-11.8301
Abd	-11.8301
敏锐	-11.8301
皇帝	-11.8301
监察	-11.8301
风险权重	-11.8301
1987	-11.8301
告诫	-11.8301
联合国气候变化会议	-11.8301
产生重大影响	-11.8301
鼓舞人心	-11.8301
开拓	-11.8301
酷刑	-11.8301
左倾	-11.8301
遵从	-11.8301
觉醒	-11.8302
发掘	-11.8302
我们这个时代	-11.8302
二十国集团	-11.8302
漫画	-11.8302
抛售	-11.8302
禁忌	-11.8302
勾勒	-11.8302
▁在这一背景下	-11.8302
急迫	-11.8302
责怪	-11.8302
细致	-11.8302
非易事	-11.8302
鲁棒	-11.8302
汉堡	-11.8302
古柯	-11.8302
引爆	-11.8302
连锁反应	-11.8302
猛增	-11.8302
兼顾	-11.8302
草根	-11.8302
让位给	-11.8302
英国首相卡梅伦	-11.8302
在未来几十年中	-11.8302
前工业化水平	-11.8302
某种程度的	-11.8303
养老基金	-11.8303
自由裁量权	-11.8303
兴建	-11.8303
登记	-11.8303
造就了	-11.8303
行贿	-11.8303
正逢	-11.8303
拿不出	-11.8303
村民	-11.8303
面貌	-11.8303
双赢	-11.8303
大学毕业生	-11.8303
看成是	-11.8303
不容忽视	-11.8303
凯南	-11.8304
环球	-11.8304
抗争	-11.8304
保密	-11.8304
ICT	-11.8304
甚微	-11.8304
重叠	-11.8304
航班	-11.8304
助理	-11.8304
偏差	-11.8304
传输	-11.8305
喜爱	-11.8305
事宜	-11.8305
做得更好	-11.8305
远远大于	-11.8305
赌局	-11.8305
直接外资	-11.8305
休假	-11.8305
骗子	-11.8305
博士	-11.8305
养老	-11.8305
互信	-11.8305
多元主义	-11.8306
改观	-11.8306
可耻	-11.8306
天堂	-11.8306
其余部分	-11.8306
见效	-11.8307
折合	-11.8307
载体	-11.8307
还有待观察	-11.8307
万亿人民币	-11.8307
工业园	-11.8307
明证	-11.8307
天皇	-11.8307
列举	-11.8308
强健	-11.8308
某项	-11.8308
湿地	-11.8308
逼近	-11.8308
起伏	-11.8308
伊朗核协议	-11.8308
武装分子	-11.8308
文字	-11.8309
邻近	-11.8309
代价高昂	-11.8309
中美两国	-11.831
居然	-11.831
劝说	-11.831
调解	-11.831
资本密集型	-11.831
外衣	-11.831
看齐	-11.831
▁Sand	-11.8311
机密	-11.8311
塔伊	-11.8311
▁Pi	-11.8311
战败	-11.8313
还不如说是	-11.8313
宗教信仰	-11.8313
建立起来的	-11.8314
紧急状态	-11.8315
页岩能源	-11.8315
早先	-11.8315
少女	-11.8315
帕特	-11.8315
淡化	-11.8315
陷入麻烦	-11.8316
终点	-11.8317
纳米	-11.8317
其中一部分	-11.8318
变成现实	-11.8319
贝尔	-11.832
渐进式	-11.8321
起源于	-11.8321
年轻女性	-11.8322
真心	-11.8323
计划生育	-11.8323
第一轮	-11.8323
事例	-11.8324
线路	-11.8326
回调	-11.8327
需求侧	-11.8329
ax	-11.8329
遣返	-11.8332
3.5%	-11.834
准入	-11.8342
为代表的	-11.8356
引进	-11.836
最近几周	-11.8373
小学教育	-11.8382
一半以上	-11.8383
是必不可少的	-11.8383
越久	-11.8384
十六	-11.8385
要高得多	-11.8393
如何看待	-11.8395
本届	-11.8418
原教旨主义者	-11.8425
为他们提供	-11.8435
八十	-11.844
可预见的	-11.8444
1.25	-11.8469
dis	-11.8475
特殊利益	-11.8496
过去三年	-11.8496
这段时间	-11.8531
6000	-11.8541
Stu	-11.8562
发送	-11.8562
淡水	-11.8568
hart	-11.8569
如果我们想要	-11.8588
贸易和金融	-11.859
三十多年	-11.8593
温室气体排放量	-11.8609
找到办法	-11.8617
百分之	-11.8671
做的事情	-11.8683
在这种情况下	-11.8685
放眼	-11.8694
兼职	-11.8765
复发	-11.8772
2.9	-11.8801
保存	-11.8813
军舰	-11.8815
out	-11.8837
问责制	-11.8857
并不是唯一	-11.8883
3.7	-11.8894
致歉	-11.8896
夸	-11.891
▁Union	-11.8918
继任	-11.8919
烈	-11.8919
绩	-11.8921
妻	-11.8922
堆	-11.8922
刚果	-11.8923
貌	-11.8923
周年纪念	-11.8923
媒	-11.8923
稀	-11.8924
比以往任何时候都更	-11.8924
扶	-11.8924
岗	-11.8924
漠	-11.8925
葛	-11.8925
虐	-11.8925
匹	-11.8925
钦	-11.8925
维吾尔	-11.8926
研讨会	-11.8926
贪	-11.8926
宇	-11.8926
慌	-11.8926
赏	-11.8926
乌拉圭	-11.8926
剑	-11.8926
矩	-11.8926
各式各样	-11.8926
奥尔班	-11.8926
弗吉尼亚	-11.8926
PARP	-11.8926
放射性	-11.8926
炒	-11.8926
艾哈迈德	-11.8926
两次世界大战	-11.8926
绍	-11.8926
塔吉克斯坦	-11.8926
扪心自问	-11.8926
更何况	-11.8926
丘	-11.8926
把重点放在	-11.8926
赠	-11.8926
帅	-11.8926
耶鲁大学	-11.8926
骇人听闻的	-11.8926
1988	-11.8926
OMT	-11.8926
弟	-11.8926
▁惟其如此	-11.8926
卢卡申科	-11.8926
咄咄逼人	-11.8926
查理周刊	-11.8926
翁	-11.8926
阿赫蒂萨里	-11.8926
从长远来看	-11.8926
哨	-11.8926
局外人	-11.8926
病人照护	-11.8926
皮克提	-11.8926
霍尔丹	-11.8926
非洲裔美国人	-11.8926
IPL	-11.8926
赤裸裸地	-11.8926
阿布扎比	-11.8926
烂摊子	-11.8926
青睐	-11.8926
CRISPR	-11.8926
撒切尔夫人	-11.8926
格格不入	-11.8926
每况愈下	-11.8926
液压致裂	-11.8926
鲍里斯	-11.8926
ESG	-11.8926
下一阶段	-11.8926
剖	-11.8926
庆典	-11.8926
独生子女	-11.8926
珊	-11.8926
直升机撒钱	-11.8926
随时随地	-11.8926
Donald	-11.8926
Islam	-11.8926
为时尚早	-11.8926
土库曼斯坦	-11.8926
电气化	-11.8926
青少年	-11.8926
United	-11.8926
持怀疑态度	-11.8926
最聪明的	-11.8926
重蹈覆辙	-11.8926
PNV	-11.8926
SGP	-11.8926
入学率	-11.8926
打下基础	-11.8926
纱	-11.8926
赤裸裸的	-11.8926
铀浓缩	-11.8926
STEM	-11.8926
奥斯曼帝国	-11.8926
媒介	-11.8926
贝尔斯登	-11.8926
错综复杂	-11.8926
一刀切	-11.8926
总部设在	-11.8926
钉	-11.8926
债务抵押债券	-11.8926
巴罗索	-11.8926
9·11	-11.8926
ACA	-11.8926
维和部队	-11.8926
这句话	-11.8926
恰逢	-11.8926
西班牙和葡萄牙	-11.8926
工作年龄人口	-11.8926
舞弊	-11.8926
被问及	-11.8926
浓厚	-11.8926
蜜	-11.8926
父辈	-11.8926
谬误	-11.8926
扶贫	-11.8926
谈不上	-11.8926
又回到了	-11.8926
典礼	-11.8926
是有道理的	-11.8926
盗窃	-11.8926
唤醒	-11.8926
检讨	-11.8926
津贴	-11.8926
个性化	-11.8926
休闲	-11.8926
和平与繁荣	-11.8926
甩卖	-11.8926
是件好事	-11.8926
美国及其盟友	-11.8926
欣喜	-11.8926
德克萨斯州	-11.8926
悉尼	-11.8927
两件事	-11.8927
取悦	-11.8927
壮观	-11.8927
的大部分时间里	-11.8927
稀少	-11.8927
▁其一是	-11.8927
储藏	-11.8927
誓言	-11.8927
工艺	-11.8927
兴盛	-11.8927
暗杀	-11.8927
米尔顿	-11.8927
竞相	-11.8927
康复	-11.8927
销毁	-11.8928
背离	-11.8928
如是说	-11.8928
诸如此类	-11.8928
私隐	-11.8928
集结	-11.8928
恐怖份子	-11.8928
必需品	-11.8928
示范	-11.8928
严密	-11.8928
示威游行	-11.8928
身陷	-11.8929
急速	-11.8929
暴乱	-11.8929
横跨	-11.8929
代码	-11.8929
政界人士	-11.8929
民意调查显示	-11.8929
制订	-11.8929
重庆	-11.8929
ghi	-11.893
储蓄和投资	-11.893
替换	-11.893
招致	-11.893
欧盟成员国资格	-11.893
组装	-11.893
活跃分子	-11.893
的唯一途径	-11.8931
调控	-11.8931
链条	-11.8931
美妙	-11.8931
创业精神	-11.8931
出手干预	-11.8931
相匹配	-11.8931
合约网络	-11.8931
英国脱欧公投	-11.8932
直观	-11.8932
更为重要的是	-11.8932
蒙古	-11.8932
东北部	-11.8932
直指	-11.8933
公益	-11.8933
手握	-11.8933
杜克	-11.8933
联合国宪章	-11.8933
平均年增长率	-11.8933
近零利率	-11.8933
污点	-11.8934
单靠	-11.8934
正确地指出	-11.8934
求助于	-11.8934
有争议的	-11.8934
我的祖国	-11.8935
AIG	-11.8935
令人满意	-11.8935
类别	-11.8935
科菲	-11.8935
断然	-11.8935
核威慑	-11.8936
供给端	-11.8936
私有部门	-11.8936
式微	-11.8936
同情心	-11.8936
回复	-11.8936
助手	-11.8936
老师	-11.8937
old	-11.8937
驱动型	-11.8938
卡洛	-11.8938
商学院	-11.8939
ital	-11.8939
轻率	-11.894
投身	-11.894
南极	-11.894
福特	-11.8942
4.2	-11.8942
财政纪律	-11.8942
现时代	-11.8944
行为准则	-11.8944
容许	-11.8945
人口最多	-11.8947
利率正常化	-11.8948
太空	-11.8948
切实可行	-11.8955
有约束力的	-11.8956
贸易不平衡	-11.8982
在接下来的	-11.8992
在会上	-11.8994
当然还有	-11.8998
校长	-11.9003
高度集中	-11.9004
所得到的	-11.9024
排挤	-11.9025
判定	-11.9056
第七	-11.9071
带回	-11.9103
十八世纪	-11.9233
迫在眉睫	-11.9267
宏	-11.9268
有说服力的	-11.9299
东北	-11.9309
十多年前	-11.9317
账单	-11.9331
Marin	-11.9401
赤字和债务	-11.9447
逆差	-11.948
内外的	-11.9492
层级	-11.951
描绘成	-11.9517
受限	-11.9527
合规	-11.9566
金砖	-11.9575
迎	-11.9576
庸	-11.9578
牵涉	-11.9581
慎	-11.9582
志愿	-11.9585
传染性疾病	-11.9589
竞	-11.9589
反叛	-11.959
贿	-11.959
鼎	-11.9591
楚	-11.9592
柏	-11.9592
爵	-11.9592
冻	-11.9592
址	-11.9592
幽	-11.9592
擦	-11.9592
房利美	-11.9592
贡	-11.9592
栋	-11.9592
非关税壁垒	-11.9592
华盛顿邮报	-11.9592
贺	-11.9592
物联网	-11.9592
雀	-11.9592
麻疹	-11.9592
凉	-11.9592
截然相反	-11.9592
联合国粮农组织	-11.9592
特梅尔	-11.9592
索马里青年军	-11.9592
严苛的	-11.9592
合情合理	-11.9592
吻	-11.9592
沃尔芬森	-11.9592
苏维埃	-11.9592
葡	-11.9592
靖国神社	-11.9592
搅	-11.9592
贝尔格莱德	-11.9592
廷	-11.9592
特里谢	-11.9592
穆加贝	-11.9592
工程和数学	-11.9592
枝	-11.9592
水果和蔬菜	-11.9592
浮出水面	-11.9592
▁从这个意义上	-11.9593
信息和通信技术	-11.9593
饭碗	-11.9593
劳伦斯	-11.9593
欧尔班	-11.9593
▁遗憾的是	-11.9593
伞	-11.9593
周小川	-11.9593
大惊小怪	-11.9593
浦	-11.9593
澳	-11.9593
名副其实	-11.9593
畜牧业	-11.9593
弯	-11.9593
愤世嫉俗	-11.9593
祈祷	-11.9593
▁Investment	-11.9593
令人咋舌	-11.9593
斯洛文尼亚	-11.9593
RCT	-11.9593
▁Change	-11.9593
卡路里	-11.9593
有所助益	-11.9593
氯	-11.9593
溪	-11.9593
稳定与增长公约	-11.9593
等量齐观	-11.9593
过山车	-11.9593
饲养	-11.9593
饼	-11.9593
默多克	-11.9593
▁Security	-11.9593
▁Stability	-11.9593
一国两制	-11.9593
俱	-11.9593
倚	-11.9593
十三五规划	-11.9593
寂	-11.9593
曼努埃尔	-11.9593
蒙代尔	-11.9593
衬	-11.9593
万灵丹	-11.9593
不可能完成的任务	-11.9593
为所欲为	-11.9593
人口普查	-11.9593
啦	-11.9593
姗姗来迟	-11.9593
腐蚀	-11.9593
黑猩猩	-11.9593
东帝汶	-11.9593
中央和地方	-11.9593
欧洲稳定性机制	-11.9593
纺织业	-11.9593
阿什顿	-11.9593
CELAC	-11.9593
中非共和国	-11.9593
恶性通胀	-11.9593
拉脱维亚	-11.9593
歪曲	-11.9593
混为一谈	-11.9593
罗亚尔	-11.9593
卡尔德隆	-11.9593
卡尔德龙	-11.9593
拓宽	-11.9593
痕迹	-11.9593
YouTube	-11.9593
代言人	-11.9593
酿	-11.9593
连锁	-11.9593
Edu	-11.9593
Ash	-11.9593
算得上	-11.9593
▁与此相反	-11.9593
敬仰	-11.9593
大跃进	-11.9593
蚊帐	-11.9593
受够了	-11.9593
距今	-11.9593
玉米	-11.9593
附庸	-11.9593
1957	-11.9593
狐疑	-11.9593
诊断和治疗	-11.9593
非金融企业	-11.9593
寻租	-11.9593
仓促	-11.9593
的脚步	-11.9593
悲伤	-11.9593
礼貌	-11.9593
上个世纪	-11.9593
以规则为基础	-11.9593
凯撒	-11.9593
舒服	-11.9593
症候	-11.9593
拍卖	-11.9593
负债累累	-11.9593
在近几年中	-11.9593
敲响	-11.9593
僵持	-11.9593
香烟	-11.9593
军国主义	-11.9593
虚伪	-11.9593
执掌	-11.9593
平价医疗法	-11.9593
效忠	-11.9593
误判	-11.9593
海上丝绸之路	-11.9593
超级富豪	-11.9593
刺杀	-11.9593
衍	-11.9599
革	-12.0211
抬	-12.0242
屠	-12.0249
鄙	-12.0251
捐	-12.0265
遣	-12.0267
贯	-12.0296
馈	-12.0303
丧	-12.0303
疫	-12.0305
君	-12.0305
辅	-12.0305
拢	-12.0306
宫	-12.0306
柴	-12.0306
屈	-12.0306
纷	-12.0306
厄	-12.0306
粮	-12.0306
刷	-12.0306
撕	-12.0306
梯	-12.0307
肢	-12.0307
茅	-12.0307
吕	-12.0307
滨	-12.0307
矛	-12.0307
勋	-12.0307
詹	-12.0307
铅	-12.0307
嵌	-12.0307
芝	-12.0307
帽	-12.0307
哮	-12.0307
殃	-12.0307
喧	-12.0307
惶	-12.0307
齿	-12.0307
晦	-12.0307
觅	-12.0307
筑	-12.0752
臣	-12.1042
阁	-12.1071
叙	-12.1073
殊	-12.1073
析	-12.1073
奸	-12.1074
宰	-12.1075
敞	-12.1075
鸣	-12.1075
辖	-12.1075
攀	-12.1075
糊	-12.1076
披	-12.1076
瘤	-12.1076
惧	-12.1076
羽	-12.1076
叹	-12.1076
砍	-12.1076
卵	-12.1076
鼻	-12.1076
苗	-12.1076
吐	-12.1076
涓	-12.1076
哦	-12.1076
昭	-12.1076
朴	-12.1076
撇	-12.1076
肖	-12.1076
勿	-12.1076
娘	-12.1076
寨	-12.1076
隙	-12.1076
俭	-12.1076
弦	-12.1076
裤	-12.1076
挟	-12.1076
蜂	-12.1076
庙	-12.1076
昏	-12.1076
愧	-12.1076
酶	-12.1076
亩	-12.1076
盒	-12.1076
炎	-12.1854
晓	-12.1874
聘	-12.1901
悲	-12.1902
阶	-12.1907
峡	-12.1908
悦	-12.1908
拾	-12.1908
虑	-12.1908
奏	-12.1909
肌	-12.1909
捞	-12.1909
扼	-12.1909
掠	-12.1909
描	-12.1909
瘦	-12.1909
佣	-12.1909
蠢	-12.1909
琼	-12.1909
芜	-12.1909
祝	-12.1909
泪	-12.1909
杨	-12.1909
苍	-12.1909
郑	-12.1909
臂	-12.1909
裙	-12.1909
梁	-12.1909
饶	-12.1909
窥	-12.1909
纹	-12.1909
掷	-12.1909
ü	-12.1909
睦	-12.1909
罐	-12.1909
掺	-12.191
盈	-12.2629
暂	-12.2804
映	-12.2815
逢	-12.2815
儒	-12.2815
鹰	-12.2816
q	-12.2817
撰	-12.2817
绪	-12.2817
诫	-12.2818
怎	-12.2818
腕	-12.2818
驶	-12.2818
尝	-12.2818
铭	-12.2818
扮	-12.2818
拙	-12.2818
捉	-12.2818
狐	-12.2818
蛮	-12.2818
绳	-12.2818
岩	-12.2818
艇	-12.2818
脊	-12.2818
珀	-12.2818
厕	-12.2818
奎	-12.2818
魄	-12.2818
夷	-12.2818
哀	-12.2818
泳	-12.2818
粪	-12.2818
匪	-12.2818
秃	-12.2818
绞	-12.2818
锦	-12.2818
唉	-12.2818
坟	-12.2818
碑	-12.2818
噤	-12.2818
–	-12.2819
挨	-12.2819
鹅	-12.2819
嗜	-12.2819
焰	-12.2819
哭	-12.2819
犬	-12.2819
凿	-12.2819
懒	-12.2819
晶	-12.2819
硕	-12.2819
傻	-12.2819
棉	-12.2819
泊	-12.2819
缉	-12.2819
健	-12.3804
韧	-12.3805
僵	-12.3807
昔	-12.3814
颜	-12.3815
酬	-12.3815
董	-12.3816
篮	-12.3816
弥	-12.3817
砖	-12.3817
胃	-12.3817
寓	-12.3817
搜	-12.3817
宅	-12.3818
敦	-12.3818
蔑	-12.3818
碍	-12.3818
裹	-12.3818
慈	-12.3818
胁	-12.3818
沛	-12.3818
磕	-12.3818
蒋	-12.3818
陶	-12.3818
旬	-12.3818
泵	-12.3818
氢	-12.3818
栖	-12.3818
窝	-12.3818
凄	-12.3818
篱	-12.3818
揣	-12.3818
沈	-12.3818
萌	-12.3818
枯	-12.3818
搏	-12.3818
侯	-12.3818
夥	-12.3818
#	-12.3818
圭	-12.3818
溺	-12.3818
稿	-12.3818
霉	-12.3819
怯	-12.3819
孜	-12.3819
仆	-12.3819
浑	-12.3819
熔	-12.3819
髓	-12.3819
溜	-12.3819
炬	-12.3819
厨	-12.3819
矮	-12.3819
胶	-12.3819
蕾	-12.3819
爪	-12.3819
庞	-12.4733
纠	-12.4916
卓	-12.4921
夕	-12.4923
怕	-12.4923
塑	-12.4926
匿	-12.4926
诞	-12.4927
浓	-12.4927
距	-12.4928
旱	-12.4928
曝	-12.4928
渊	-12.4929
婴	-12.4929
彻	-12.4929
亟	-12.4929
傲	-12.4929
魂	-12.4929
邀	-12.4929
凝	-12.4929
沾	-12.4929
饥	-12.4929
痕	-12.4929
冯	-12.4929
丸	-12.4929
贤	-12.4929
昌	-12.4929
矢	-12.4929
镀	-12.4929
鹿	-12.4929
壕	-12.493
巷	-12.493
彦	-12.493
惟	-12.493
歇	-12.493
竹	-12.493
ä	-12.493
淋	-12.493
祥	-12.493
铀	-12.493
呕	-12.493
悍	-12.493
绰	-12.493
刮	-12.493
肠	-12.493
驴	-12.493
冈	-12.493
蛾	-12.493
霾	-12.493
膏	-12.493
函	-12.493
谚	-12.493
屁	-12.493
溶	-12.493
狠	-12.493
焉	-12.493
吠	-12.493
锅	-12.493
剪	-12.493
戳	-12.493
怂	-12.493
叔	-12.493
瞎	-12.493
涂	-12.493
瞬	-12.493
仰	-12.6155
润	-12.6159
湿	-12.6164
辟	-12.6177
嫁	-12.6178
胀	-12.6179
笃	-12.6179
魁	-12.6179
捏	-12.6179
谬	-12.6179
壳	-12.6179
茂	-12.6179
洼	-12.6179
灌	-12.6179
吵	-12.6179
猾	-12.6179
兄	-12.6179
侍	-12.6179
恕	-12.6179
斑	-12.6179
妆	-12.6179
棵	-12.6179
罩	-12.6179
癖	-12.6179
紫	-12.618
缄	-12.618
洽	-12.618
漆	-12.618
篷	-12.618
粘	-12.618
芽	-12.618
钝	-12.618
耸	-12.618
钚	-12.618
鸭	-12.618
罄	-12.618
婉	-12.618
烙	-12.618
乞	-12.618
咸	-12.618
橡	-12.618
硝	-12.618
龟	-12.618
椅	-12.618
浆	-12.618
咽	-12.618
坊	-12.618
焕	-12.618
肋	-12.618
恭	-12.618
暑	-12.618
琴	-12.618
ö	-12.618
躬	-12.618
鸠	-12.618
芭	-12.618
ó	-12.618
喂	-12.618
验	-12.7569
懈	-12.7581
疆	-12.759
剔	-12.7592
亨	-12.7595
寡	-12.7606
丈	-12.7607
袖	-12.7607
侨	-12.7607
秉	-12.7608
驯	-12.7608
肃	-12.7608
硅	-12.7608
苛	-12.7608
吟	-12.7608
溯	-12.7608
硫	-12.7608
醇	-12.7608
徐	-12.7608
猴	-12.7608
绵	-12.7608
荫	-12.7608
吴	-12.7608
尿	-12.7608
矫	-12.7608
爷	-12.7608
骇	-12.7608
ç	-12.7608
悯	-12.7608
臻	-12.7608
淌	-12.7608
闯	-12.7608
殿	-12.7608
眉	-12.7608
膝	-12.7608
陡	-12.7608
拐	-12.7608
拱	-12.7608
棍	-12.7608
邓	-12.7608
敷	-12.7608
柄	-12.7608
唇	-12.7608
朵	-12.7608
碾	-12.7608
氟	-12.7608
咬	-12.7608
拧	-12.7608
寺	-12.7608
蕉	-12.7608
贼	-12.7608
懊	-12.7608
哗	-12.7608
锈	-12.7608
恳	-12.7608
甜	-12.7608
泉	-12.9271
挥	-12.9271
键	-12.9272
轴	-12.9272
抚	-12.9273
悉	-12.9273
炭	-12.9274
扯	-12.9274
窘	-12.9274
薯	-12.9274
峻	-12.9274
柱	-12.9274
碗	-12.9274
谨	-12.9274
乙	-12.9274
浇	-12.9275
肇	-12.9275
僻	-12.9275
栽	-12.9275
唾	-12.9275
岑	-12.9275
弧	-12.9275
牍	-12.9275
侠	-12.9275
攒	-12.9275
窜	-12.9275
耍	-12.9275
缅	-12.9275
匝	-12.9275
橙	-12.9275
蹲	-12.9275
慨	-12.9275
姿	-12.9275
泼	-12.9275
绷	-12.9275
摔	-12.9275
毯	-12.9275
碧	-12.9275
锤	-12.9275
鳄	-12.9275
旷	-12.9275
槽	-12.9275
藤	-12.9275
辽	-12.9275
钨	-12.9275
哄	-12.9275
瑰	-12.9275
篡	-12.9275
缕	-12.9275
谙	-12.9275
赵	-12.9275
沧	-12.9275
唆	-12.9275
楷	-12.9275
丙	-12.9275
冥	-12.9275
疼	-12.9275
膀	-12.9275
甫	-12.9275
祈	-12.9275
鲸	-12.9275
艳	-12.9275
冀	-12.9275
坪	-12.9275
妒	-12.9275
赘	-12.9275
闸	-12.9275
芦	-12.9275
衫	-12.9275
腔	-12.9275
靡	-12.9275
掀	-13.126
悖	-13.1272
掘	-13.1273
玉	-13.1274
淹	-13.1274
沟	-13.1274
御	-13.1274
仕	-13.1274
柳	-13.1274
吼	-13.1275
扇	-13.1275
淫	-13.1275
胖	-13.1275
娃	-13.1275
纂	-13.1275
婆	-13.1275
舟	-13.1275
妖	-13.1275
掂	-13.1275
脂	-13.1275
弩	-13.1275
磷	-13.1275
竿	-13.1275
缸	-13.1275
茧	-13.1275
桃	-13.1275
耿	-13.1275
剃	-13.1275
涝	-13.1275
砷	-13.1275
臆	-13.1275
茄	-13.1275
钽	-13.1275
锯	-13.1275
毙	-13.1275
伽	-13.1275
侄	-13.1275
兮	-13.1275
嘛	-13.1275
愁	-13.1275
渣	-13.1275
筋	-13.1275
膜	-13.1275
蔚	-13.1275
诧	-13.1275
赈	-13.1275
迦	-13.1275
贞	-13.1275
@	-13.1275
伺	-13.1275
卒	-13.1275
唬	-13.1275
嫩	-13.1275
孰	-13.1275
悼	-13.1275
汞	-13.1275
矣	-13.1275
翘	-13.1275
蜗	-13.1275
殷	-13.1275
棺	-13.1275
ł	-13.1275
驼	-13.1275
擂	-13.1275
纬	-13.1275
轧	-13.1275
驰	-13.1275
讥	-13.1275
俯	-13.1275
臼	-13.1275
缀	-13.1275
蔡	-13.1275
贻	-13.1275
遂	-13.1275
弘	-13.1275
洒	-13.1275
骄	-13.1275
虾	-13.1275
炫	-13.1275
删	-13.3749
赐	-13.3762
挽	-13.3772
拓	-13.3772
酵	-13.3772
戮	-13.3773
措	-13.3773
翰	-13.3773
忽	-13.3773
削	-13.3774
镑	-13.3774
悄	-13.3774
聆	-13.3774
舱	-13.3774
钩	-13.3774
弈	-13.3774
熙	-13.3774
夭	-13.3774
蔗	-13.3774
傅	-13.3775
烤	-13.3775
邸	-13.3775
麓	-13.3775
亘	-13.3775
仙	-13.3775
梭	-13.3775
ε	-13.3775
拂	-13.3775
砂	-13.3775
躯	-13.3775
铃	-13.3775
宵	-13.3775
悠	-13.3775
隅	-13.3775
歪	-13.3775
宋	-13.3775
庶	-13.3775
扁	-13.3775
盎	-13.3775
蹄	-13.3775
郭	-13.3775
酌	-13.3775
噬	-13.3775
ğ	-13.3775
杉	-13.3775
涎	-13.3775
疤	-13.3775
讷	-13.3775
卧	-13.3775
咋	-13.3775
捡	-13.3775
盔	-13.3775
粟	-13.3775
缮	-13.3775
赃	-13.3775
ş	-13.3775
'	-13.3775
棕	-13.3775
谟	-13.3775
è	-13.3775
冤	-13.3775
凤	-13.3775
咯	-13.3775
嘱	-13.3775
曰	-13.3775
杖	-13.3775
沸	-13.3775
狮	-13.3775
禅	-13.3775
谭	-13.3775
趟	-13.3775
仲	-13.3775
梗	-13.3775
抄	-13.3775
拈	-13.3775
楔	-13.3775
玄	-13.3775
黜	-13.3775
畔	-13.3775
煎	-13.3775
熬	-13.3775
晴	-13.3775
肴	-13.3775
觑	-13.3775
迂	-13.3775
膺	-13.3775
弓	-13.3775
樟	-13.3775
盏	-13.3775
跋	-13.3775
帆	-13.3775
聋	-13.3775
耽	-13.3775
捅	-13.3775
株	-13.7029
艰	-13.7079
佬	-13.7095
昨	-13.7106
扭	-13.7106
谅	-13.7106
勉	-13.7107
萧	-13.7107
饲	-13.7107
钾	-13.7108
筒	-13.7108
鸦	-13.7108
羁	-13.7108
懦	-13.7108
砌	-13.7108
魏	-13.7108
鹏	-13.7108
勘	-13.7108
岭	-13.7108
煮	-13.7108
瑙	-13.7108
褐	-13.7108
陲	-13.7108
鞠	-13.7108
诀	-13.7108
疹	-13.7108
梢	-13.7108
棱	-13.7108
虹	-13.7108
诬	-13.7108
釜	-13.7108
姬	-13.7108
峭	-13.7108
扛	-13.7108
秽	-13.7108
筱	-13.7108
贮	-13.7108
镉	-13.7108
韵	-13.7108
熏	-13.7108
簇	-13.7108
蜱	-13.7108
跪	-13.7108
▪	-13.7108
冉	-13.7108
匠	-13.7108
燕	-13.7108
胺	-13.7108
裴	-13.7108
褒	-13.7108
辣	-13.7108
遁	-13.7108
瞒	-13.7108
鳍	-13.7108
辙	-13.7108
=	-13.7108
­	-13.7108
î	-13.7108
‧	-13.7108
吾	-13.7108
幺	-13.7108
斋	-13.7108
暮	-13.7108
殉	-13.7108
泯	-13.7108
穴	-13.7108
脓	-13.7108
芙	-13.7108
茬	-13.7108
薇	-13.7108
蠕	-13.7108
羡	-13.7108
嚼	-13.7108
拗	-13.7108
冶	-13.7108
啃	-13.7108
揪	-13.7108
葱	-13.7108
镖	-13.7108
雌	-13.7108
怼	-13.7108
曹	-13.7108
焖	-13.7108
煞	-13.7108
瞧	-13.7108
癫	-13.7108
俊	-13.7108
坤	-13.7108
爸	-13.7108
豹	-13.7108
兔	-13.7108
垢	-13.7108
媛	-13.7108
祟	-13.7108
撮	-13.7108
铲	-14.2099
滤	-14.2103
粹	-14.2106
遏	-14.2106
殴	-14.2106
啸	-14.2106
攘	-14.2107
励	-14.2107
贱	-14.2107
娓	-14.2107
舅	-14.2107
蹭	-14.2107
娱	-14.2107
碘	-14.2108
寮	-14.2108
慕	-14.2108
莽	-14.2108
$	-14.2108
晃	-14.2108
疽	-14.2108
骎	-14.2108
斜	-14.2108
怖	-14.2108
挠	-14.2108
蚀	-14.2108
迅	-14.2108
嗅	-14.2108
姨	-14.2108
淅	-14.2108
黏	-14.2108
杠	-14.2108
朋	-14.2108
亭	-14.2108
吏	-14.2108
啼	-14.2108
堰	-14.2108
壶	-14.2108
庐	-14.2108
怡	-14.2108
恤	-14.2108
棚	-14.2108
沥	-14.2108
浊	-14.2108
淘	-14.2108
烘	-14.2108
狒	-14.2108
碟	-14.2108
芳	-14.2108
藻	-14.2108
袍	-14.2108
褪	-14.2108
蹬	-14.2108
遐	-14.2108
邱	-14.2108
钴	-14.2108
钼	-14.2108
鳐	-14.2108
鳞	-14.2108
捍	-14.2108
戎	-14.2108
〔	-14.2108
忿	-14.2108
〕	-14.2108
儆	-14.2108
刁	-14.2108
刨	-14.2108
叮	-14.2108
崴	-14.2108
怠	-14.2108
擒	-14.2108
犁	-14.2108
瓢	-14.2108
秦	-14.2108
蔓	-14.2108
谶	-14.2108
轩	-14.2108
郡	-14.2108
醋	-14.2108
骸	-14.2108
瘟	-14.2108
ñ	-14.2108
ø	-14.2108
剿	-14.2108
螺	-14.2108
É	-14.2108
à	-14.2108
å	-14.2108
č	-14.2108
乖	-14.2108
倭	-14.2108
卤	-14.2108
卯	-14.2108
叩	-14.2108
啧	-14.2108
惺	-14.2108
懵	-14.2108
枕	-14.2108
滕	-14.2108
皱	-14.2108
睽	-14.2108
磐	-14.2108
磺	-14.2108
缰	-14.2108
芸	-14.2108
苯	-14.2108
荦	-14.2108
葵	-14.2108
跷	-14.2108
酯	-14.2108
陨	-14.2108
霖	-14.2108
颅	-14.2108
颤	-14.2108
嚎	-14.2108
ń	-14.2108
卦	-14.2108
攥	-14.2108
晾	-14.2108
淳	-14.2108
阑	-14.2108
麟	-14.2108
烷	-14.2108
š	-14.2108
β	-14.2108
嚏	-14.2108
寅	-14.2108
岂	-14.2108
斧	-14.2108
晒	-14.2108
栈	-14.2108
栗	-14.2108
氨	-14.2108
烫	-14.2108
逸	-14.2108
鞅	-14.2108
鞍	-14.2108
鞥	-14.2108
铉	-14.2108
_	-14.2108
侃	-14.2108
媳	-14.2108
柜	-14.2108
渝	-14.2108
炯	-14.2108
皑	-14.2108
蝗	-14.2108
孢	-14.2108
亥	-14.2108
帘	-14.2109
舔	-14.2109
腊	-14.2109
萃	-14.2109
嗡	-14.2109
抒	-14.2109
龉	-15.1313
龃	-15.1314
黩	-15.1315
麾	-15.1316
麋	-15.1317
鲼	-15.1318
髅	-15.1319
骼	-15.132
骷	-15.1321
霓	-15.1322
陕	-15.1323
阂	-15.1324
锥	-15.1325
锢	-15.1326
钶	-15.1327
钧	-15.1328
酣	-15.1329
逡	-15.133
辗	-15.1331
轫	-15.1332
貉	-15.1333
谲	-15.1334
谑	-15.1335
谄	-15.1336
襄	-15.1337
褥	-15.1338
蠵	-15.1339
蟒	-15.134
蝠	-15.1341
蜷	-15.1342
蚂	-15.1343
蚁	-15.1344
蕞	-15.1345
蒜	-15.1346
萸	-15.1347
莹	-15.1348
臬	-15.1349
膊	-15.135
腑	-15.1351
脯	-15.1352
胳	-15.1353
肪	-15.1354
聩	-15.1355
羸	-15.1356
罂	-15.1357
綏	-15.1358
粱	-15.1359
粤	-15.136
籁	-15.1361
篪	-15.1362
篑	-15.1363
箴	-15.1364
睾	-15.1365
瘁	-15.1366
痍	-15.1367
痉	-15.1368
瓷	-15.1369
珑	-15.137
玲	-15.1371
犷	-15.1372
焊	-15.1373
炽	-15.1374
炊	-15.1375
瀚	-15.1376
渲	-15.1377
沐	-15.1378
汐	-15.1379
樊	-15.138
榭	-15.1381
榈	-15.1382
楠	-15.1383
桅	-15.1384
昼	-15.1385
於	-15.1386
斓	-15.1387
敝	-15.1388
撷	-15.1389
摈	-15.139
搪	-15.1391
搀	-15.1392
揶	-15.1393
揄	-15.1394
挛	-15.1395
愕	-15.1396
惭	-15.1397
恍	-15.1398
忾	-15.1399
徇	-15.14
弋	-15.1401
幡	-15.1402
帚	-15.1403
帑	-15.1404
寞	-15.1405
宕	-15.1406
孺	-15.1407
孳	-15.1408
孀	-15.1409
媾	-15.141
娴	-15.1411
奚	-15.1412
夯	-15.1413
壹	-15.1414
垦	-15.1415
坍	-15.1416
囱	-15.1417
嗽	-15.1418
唳	-15.1419
呻	-15.142
呵	-15.1421
呃	-15.1422
匐	-15.1423
匍	-15.1424
凰	-15.1425
凋	-15.1426
倔	-15.1427
俨	-15.1428
侏	-15.1429
佯	-15.143
丐	-15.1431
×	-15.1432
黔	-15.1433
鹦	-15.1434
鹉	-15.1435
髋	-15.1436
馁	-15.1437
阪	-15.1438
镣	-15.1439
锌	-15.144
铰	-15.1441
邵	-15.1442
躅	-15.1443
踯	-15.1444
豢	-15.1445
谩	-15.1446
谛	-15.1447
譬	-15.1448
觞	-15.1449
蝉	-15.145
蜕	-15.1451
蛙	-15.1452
虞	-15.1453
肓	-15.1454
纫	-15.1455
笛	-15.1456
窑	-15.1457
祀	-15.1458
矗	-15.1459
皎	-15.146
琅	-15.1461
猥	-15.1462
狈	-15.1463
灼	-15.1464
濑	-15.1465
澎	-15.1466
滇	-15.1467
湛	-15.1468
湎	-15.1469
湃	-15.147
淮	-15.1471
浙	-15.1472
泌	-15.1473
汪	-15.1474
殚	-15.1475
槟	-15.1476
柿	-15.1477
斟	-15.1478
撩	-15.1479
掮	-15.148
拭	-15.1481
徕	-15.1482
彗	-15.1483
屹	-15.1484
噱	-15.1485
嘶	-15.1486
嗓	-15.1487
喙	-15.1488
呜	-15.1489
叭	-15.149
卉	-15.1491
偕	-15.1492
亵	-15.1493
黛	-15.1494
鹜	-15.1495
鸵	-15.1496
骛	-15.1497
饽	-15.1498
鞑	-15.1499
靼	-15.15
阉	-15.1501
镌	-15.1502
踊	-15.1503
豚	-15.1504
诵	-15.1505
诲	-15.1506
讹	-15.1507
觎	-15.1508
觊	-15.1509
蝶	-15.151
蝴	-15.1511
菁	-15.1512
荆	-15.1513
茵	-15.1514
脔	-15.1515
胧	-15.1516
翅	-15.1517
羔	-15.1518
糙	-15.1519
笋	-15.152
窿	-15.1521
窠	-15.1522
窍	-15.1523
瞥	-15.1524
睢	-15.1525
痼	-15.1526
甄	-15.1527
琢	-15.1528
狙	-15.1529
熨	-15.153
烩	-15.1531
瀣	-15.1532
潦	-15.1533
滔	-15.1534
涣	-15.1535
沓	-15.1536
沌	-15.1537
沆	-15.1538
毡	-15.1539
榴	-15.154
椎	-15.1541
朦	-15.1542
晕	-15.1543
懑	-15.1544
愎	-15.1545
惴	-15.1546
忱	-15.1547
岿	-15.1548
岳	-15.1549
岐	-15.155
寐	-15.1551
塘	-15.1552
佑	-15.1553
鱿	-15.1554
骜	-15.1555
馏	-15.1556
馅	-15.1557
镳	-15.1558
镕	-15.1559
铢	-15.156
钳	-15.1561
蹩	-15.1562
趸	-15.1563
赅	-15.1564
诩	-15.1565
袁	-15.1566
葫	-15.1567
菅	-15.1568
膳	-15.1569
脾	-15.157
聒	-15.1571
穹	-15.1572
眩	-15.1573
玫	-15.1574
烬	-15.1575
灿	-15.1576
渭	-15.1577
泾	-15.1578
氰	-15.1579
桀	-15.158
媚	-15.1581
婿	-15.1582
娠	-15.1583
妊	-15.1584
囿	-15.1585
呐	-15.1586
乓	-15.1587
乒	-15.1588
ã	-15.1589
靶	-15.159
铐	-15.1591
酮	-15.1592
酗	-15.1593
蹴	-15.1594
蜃	-15.1595
舵	-15.1596
绒	-15.1597
眈	-15.1598
瑕	-15.1599
猬	-15.16
猝	-15.1601
牒	-15.1602
烁	-15.1603
澡	-15.1604
浴	-15.1605
沪	-15.1606
沁	-15.1607
椭	-15.1608
挞	-15.1609
岖	-15.161
姊	-15.1611
喹	-15.1612
厥	-15.1613
匙	-15.1614
冕	-15.1615
兢	-15.1616
侥	-15.1617
锻	-15.1618
酪	-15.1619
讧	-15.162
蝇	-15.1621
舶	-15.1622
胥	-15.1623
缆	-15.1624
绽	-15.1625
稣	-15.1626
瞪	-15.1627
睬	-15.1628
疵	-15.1629
疚	-15.163
狩	-15.1631
灶	-15.1632
瀑	-15.1633
泣	-15.1634
杞	-15.1635
昙	-15.1636
擘	-15.1637
挚	-15.1638
恪	-15.1639
墅	-15.164
啬	-15.1641
咫	-15.1642
咆	-15.1643
匀	-15.1644
剽	-15.1645
傍	-15.1646
鹤	-15.1647
鳌	-15.1648
髦	-15.1649
饪	-15.165
霄	-15.1651
隧	-15.1652
钥	-15.1653
辄	-15.1654
躺	-15.1655
蜘	-15.1656
缭	-15.1657
簿	-15.1658
瘠	-15.1659
犀	-15.166
燎	-15.1661
烹	-15.1662
漓	-15.1663
浏	-15.1664
歹	-15.1665
枷	-15.1666
恿	-15.1667
恫	-15.1668
孽	-15.1669
咳	-15.167
吊	-15.1671
儡	-15.1672
傀	-15.1673
骆	-15.1674
轿	-15.1675
跛	-15.1676
谕	-15.1677
诛	-15.1678
诘	-15.1679
讦	-15.168
襁	-15.1681
褓	-15.1682
藩	-15.1683
茁	-15.1684
羹	-15.1685
绎	-15.1686
疮	-15.1687
狸	-15.1688
沂	-15.1689
毗	-15.169
榷	-15.1691
梏	-15.1692
桎	-15.1693
枭	-15.1694
斡	-15.1695
捣	-15.1696
惫	-15.1697
悚	-15.1698
坷	-15.1699
啤	-15.17
吝	-15.1701
鸽	-15.1702
遑	-15.1703
逞	-15.1704
蹶	-15.1705
赡	-15.1706
赁	-15.1707
蛛	-15.1708
蒿	-15.1709
萦	-15.171
萝	-15.1711
缛	-15.1712
簸	-15.1713
竖	-15.1714
睿	-15.1715
燥	-15.1716
渥	-15.1717
涸	-15.1718
棣	-15.1719
撬	-15.172
扳	-15.1721
恃	-15.1722
弛	-15.1723
廓	-15.1724
嚷	-15.1725
嘎	-15.1726
雏	-15.1727
蹊	-15.1728
诃	-15.1729
虏	-15.173
纭	-15.1731
碱	-15.1732
恙	-15.1733
巅	-15.1734
侪	-15.1735
陵	-15.1736
闷	-15.1737
诟	-15.1738
蛊	-15.1739
荼	-15.174
紊	-15.1741
碌	-15.1742
牟	-15.1743
漩	-15.1744
泻	-15.1745
橄	-15.1746
榨	-15.1747
榄	-15.1748
捆	-15.1749
忏	-15.175
崎	-15.1751
墉	-15.1752
圄	-15.1753
囹	-15.1754
哺	-15.1755
钵	-15.1756
辕	-15.1757
诋	-15.1758
袱	-15.1759
蜡	-15.176
苟	-15.1761
禀	-15.1762
狡	-15.1763
烛	-15.1764
朽	-15.1765
暧	-15.1766
恣	-15.1767
弭	-15.1768
幌	-15.1769
帷	-15.177
孵	-15.1771
壑	-15.1772
兀	-15.1773
藐	-15.1774
窟	-15.1775
痢	-15.1776
爽	-15.1777
潭	-15.1778
淀	-15.1779
毅	-15.178
暇	-15.1781
惰	-15.1782
嫖	-15.1783
娼	-15.1784
奄	-15.1785
俾	-15.1786
迥	-15.1787
肾	-15.1788
罔	-15.1789
绥	-15.179
纤	-15.1791
皂	-15.1792
璃	-15.1793
淖	-15.1794
汶	-15.1795
袤	-15.1796
绊	-15.1797
瞄	-15.1798
盆	-15.1799
玷	-15.18
熄	-15.1801
涩	-15.1802
沼	-15.1803
捧	-15.1804
扪	-15.1805
屑	-15.1806
嘘	-15.1807
鹫	-15.1808
踵	-15.1809
诠	-15.181
臃	-15.1811
胚	-15.1812
渎	-15.1813
杭	-15.1814
攸	-15.1815
巫	-15.1816
嗤	-15.1817
倪	-15.1818
躇	-15.1819
踌	-15.182
肚	-15.1821
瑚	-15.1822
挝	-15.1823
抉	-15.1824
戚	-15.1825
媲	-15.1826
喋	-15.1827
倘	-15.1828
辍	-15.1829
诅	-15.183
湄	-15.1831
汀	-15.1832
帜	-15.1833
娩	-15.1834
蹒	-15.1835
跚	-15.1836
诡	-15.1837
虔	-15.1838
纾	-15.1839
窒	-15.184
狄	-15.1841
嫉	-15.1842
匆	-15.1843
驭	-15.1844
绌	-15.1845
稻	-15.1846
斐	-15.1847
摒	-15.1848
拦	-15.1849
圳	-15.185
铸	-15.1851
遴	-15.1852
笨	-15.1853
稚	-15.1854
禧	-15.1855
矶	-15.1856
獗	-15.1857
猖	-15.1858
拷	-15.1859
噪	-15.186
颓	-15.1861
谦	-15.1862
稽	-15.1863
巾	-15.1864
宛	-15.1865
颖	-15.1866
谣	-15.1867
罹	-15.1868
睁	-15.1869
畸	-15.187
涡	-15.1871
曙	-15.1872
墟	-15.1873
俘	-15.1874
谊	-15.1875
搁	-15.1876
顷	-15.1877
陋	-15.1878
蔬	-15.1879
孱	-15.188
姐	-15.1881
厦	-15.1882
侮	-15.1883
逍	-15.1884
躏	-15.1885
蹂	-15.1886
荐	-15.1887
猿	-15.1888
煌	-15.1889
憬	-15.189
憧	-15.1891
孚	-15.1892
冗	-15.1893
辐	-15.1894
蕴	-15.1895
斤	-15.1896
惮	-15.1897
啻	-15.1898
劾	-15.1899
兜	-15.19
倦	-15.1901
伎	-15.1902
藉	-15.1903
磋	-15.1904
崭	-15.1905
妓	-15.1906
卑	-15.1907
跻	-15.1908
撼	-15.1909
憎	-15.191
恼	-15.1911
夹	-15.1912
讳	-15.1913
姗	-15.1914
喇	-15.1915
阈	-15.1916
毋	-15.1917
槿	-15.1918
掣	-15.1919
尴	-15.192
尬	-15.1921
酝	-15.1922
酋	-15.1923
肮	-15.1924
琐	-15.1925
澄	-15.1926
枢	-15.1927
忡	-15.1928
嘲	-15.1929
咄	-15.193
澜	-15.1931
淆	-15.1932
汹	-15.1933
愉	-15.1934
郁	-15.1935
赦	-15.1936
赎	-15.1937
衔	-15.1938
稼	-15.1939
攫	-15.194
姻	-15.1941
濒	-15.1942
汰	-15.1943
屿	-15.1944
嚣	-15.1945
茫	-15.1946
痴	-15.1947
溉	-15.1948
徘	-15.1949
徊	-15.195
垃	-15.1951
圾	-15.1952
靖	-15.1953
霜	-15.1954
纺	-15.1955
岌	-15.1956
尺	-15.1957
黯	-15.1958
裨	-15.1959
蔽	-15.196
隶	-15.1961
阀	-15.1962
痹	-15.1963
涛	-15.1964
槛	-15.1965
峙	-15.1966
侈	-15.1967
谍	-15.1968
怜	-15.1969
噩	-15.197
赂	-15.1971
钓	-15.1972
睫	-15.1973
彰	-15.1974
婪	-15.1975
蹈	-15.1976
渗	-15.1977
匮	-15.1978
憾	-15.1979
侣	-15.198
谤	-15.1981
谐	-15.1982
诽	-15.1983
喻	-15.1984
缚	-15.1985
械	-15.1986
奢	-15.1987
蓬	-15.1988
痪	-15.1989
姓	-15.199
拘	-15.1991
慰	-15.1992
宙	-15.1993
徙	-15.1994
苹	-15.1995
畴	-15.1996
阐	-15.1997
揽	-15.1998
颁	-15.1999
汲	-15.2
柬	-15.2001
惕	-15.2002
埔	-15.2003
壤	-15.2004
咨	-15.2005
邪	-15.2006
腺	-15.2007
奠	-15.2008
辜	-15.2009
晤	-15.201
讶	-15.2011
祉	-15.2012
抨	-15.2013
聪	-15.2014
囚	-15.2015
魅	-15.2016
晋	-15.2017
慷	-15.2018
涯	-15.2019
卿	-15.202
筛	-15.2021
睹	-15.2022
咎	-15.2023
绸	-15.2024
仔	-15.2025
棘	-15.2026
骚	-15.2027
飓	-15.2028
瞩	-15.2029
崇	-15.203
缔	-15.2031
慑	-15.2032
涵	-15.2033
沮	-15.2034
妨	-15.2035
飙	-15.2036
豫	-15.2037
孕	-15.2038
询	-15.2039
寿	-15.204
凸	-15.2041
⁄	-15.2042
隘	-15.2043
迄	-15.2044
阱	-15.2045
匈	-15.2046
欺	-15.2047
晰	-15.2048
疟	-15.2049
忆	-15.205
肆	-15.2051
狭	-15.2052
谴	-15.2053
垄	-15.2054
殖	-15.2055
厉	-15.2056
剥	-15.2057
遥	-15.2058
庇	-15.2059
综	-15.206
胞	-15.2061
逻	-15.2062
摧	-15.2063
萄	-15.2064
牺	-15.2065
萎	-15.2066
孟	-15.2067
丝	-15.2068
践	-15.2069
巩	-15.207
竭	-15.2071
拯	-15.2072
植	-15.2073
牲	-15.2074
坡	-15.2075
惩	-15.2076
僚	-15.2077
坛	-15.2078
召	-15.2079
吁	-15.208
裕	-15.2081
沫	-15.2082
膨	-15.2083
糕	-15.2084
汽	-15.2085
哲	-15.2086
歧	-15.2086
秩	-15.2087
透	-15.2088
讼	-15.2089
脆	-15.2089
驱	-15.209
旦	-15.2091
录	-15.2092
遵	-15.2093
恢	-15.2093
框	-15.2094
崛	-15.2095
允	-15.2096
侵	-15.2097
络	-15.2098
伙	-15.2099
童	-15.21
谓	-15.2101
染	-15.2102
估	-15.2103
述	-15.2104
亢	-15.2105
衡	-15.2105
擅	-15.2105
舆	-15.2106
芯	-15.2106
扩	-15.2106
氛	-15.2106
廊	-15.2106
氓	-15.2106
祷	-15.2107
佰	-15.2107
杏	-15.2107
倡	-15.2107
渠	-15.2107
擎	-15.2107
煽	-15.2107
堕	-15.2107
殆	-15.2107
刽	-15.2107
咖	-15.2107
坞	-15.2107
娇	-15.2107
幢	-15.2107
澈	-15.2107
狍	-15.2107
盅	-15.2107
芥	-15.2107
萊	-15.2107
薛	-15.2107
谔	-15.2107
逅	-15.2107
邂	-15.2107
础	-15.2107
梳	-15.2107
袒	-15.2107
斌	-15.2107
刹	-15.2107
睛	-15.2107
腥	-15.2108
俏	-15.2108
俦	-15.2108
倨	-15.2108
僭	-15.2108
劈	-15.2108
厢	-15.2108
咀	-15.2108
啡	-15.2108
喽	-15.2108
嘈	-15.2108
嬉	-15.2108
屉	-15.2108
忒	-15.2108
惘	-15.2108
戟	-15.2108
扉	-15.2108
扒	-15.2108
抡	-15.2108
拮	-15.2108
拴	-15.2108
挈	-15.2108
摹	-15.2108
敕	-15.2108
栉	-15.2108
橘	-15.2108
檀	-15.2108
汜	-15.2108
渍	-15.2108
牦	-15.2108
犸	-15.2108
瘘	-15.2108
稅	-15.2108
稔	-15.2108
簧	-15.2108
糯	-15.2108
纰	-15.2108
绚	-15.2108
绣	-15.2108
翠	-15.2108
翡	-15.2108
苷	-15.2108
茜	-15.2108
荧	-15.2108
蜍	-15.2108
蟑	-15.2108
蟾	-15.2108
讣	-15.2108
豌	-15.2108
蹋	-15.2108
鄂	-15.2108
镝	-15.2108
饺	-15.2108
馋	-15.2108
驽	-15.2108
鳃	-15.2108
鸷	-15.2108
崖	-15.2108
囤	-15.2108
衅	-15.2108
豁	-15.2108
鲨	-15.2108
Å	-15.2108
【	-15.2108
】	-15.2108
仑	-15.2108
俟	-15.2108
嘟	-15.2108
囧	-15.2108
堑	-15.2108
妪	-15.2108
娄	-15.2108
嫡	-15.2108
峥	-15.2108
嵘	-15.2108
幂	-15.2108
忐	-15.2108
惋	-15.2108
敖	-15.2108
晖	-15.2108
梵	-15.2108
氡	-15.2108
涕	-15.2108
溴	-15.2108
烽	-15.2108
猞	-15.2108
瘪	-15.2108
糜	-15.2108
缎	-15.2108
耙	-15.2108
肛	-15.2108
舷	-15.2108
茉	-15.2108
莓	-15.2108
螂	-15.2108
轶	-15.2108
迸	-15.2108
酱	-15.2108
陴	-15.2108
靴	-15.2108
驮	-15.2108
髙	-15.2108
魇	-15.2108
垒	-15.2108
蚕	-15.2108
睐	-15.2108
逮	-15.2108
刍	-15.2108
哽	-15.2108
樽	-15.2108
苒	-15.2108
荏	-15.2108
萩	-15.2108
蛔	-15.2108
镯	-15.2108
靈	-15.2108
慧	-15.2108
甸	-15.2108
鸿	-15.2108
*	-15.2108
±	-15.2108
Ò	-15.2108
İ	-15.2108
ı	-15.2108
œ	-15.2108
Š	-15.2108
佗	-15.2108
佚	-15.2108
侬	-15.2108
俎	-15.2108
俑	-15.2108
俳	-15.2108
俺	-15.2108
凛	-15.2108
凹	-15.2108
勺	-15.2108
厩	-15.2108
叨	-15.2108
咙	-15.2108
咱	-15.2108
哂	-15.2108
哩	-15.2108
啰	-15.2108
喔	-15.2108
嗔	-15.2108
嗦	-15.2108
囔	-15.2108
奧	-15.2108
娟	-15.2108
娿	-15.2108
婊	-15.2108
婢	-15.2108
嫂	-15.2108
寇	-15.2108
寝	-15.2108
寥	-15.2108
寰	-15.2108
屎	-15.2108
岔	-15.2108
廖	-15.2108
忑	-15.2108
怙	-15.2108
恸	-15.2108
悛	-15.2108
惬	-15.2108
憩	-15.2108
戛	-15.2108
戾	-15.2108
抖	-15.2108
抠	-15.2108
拎	-15.2108
捂	-15.2108
捶	-15.2108
掐	-15.2108
掖	-15.2108
掴	-15.2108
搓	-15.2108
旭	-15.2108
晷	-15.2108
暨	-15.2108
朔	-15.2108
枉	-15.2108
枞	-15.2108
椟	-15.2108
槃	-15.2108
橹	-15.2108
歼	-15.2108
沽	-15.2108
洄	-15.2108
浃	-15.2108
涟	-15.2108
涤	-15.2108
涮	-15.2108
淇	-15.2108
淤	-15.2108
湮	-15.2108
漪	-15.2108
炙	-15.2108
烯	-15.2108
牾	-15.2108
猁	-15.2108
珉	-15.2108
琉	-15.2108
琏	-15.2108
瑜	-15.2108
璜	-15.2108
環	-15.2108
甥	-15.2108
疥	-15.2108
痊	-15.2108
痒	-15.2108
痞	-15.2108
瘫	-15.2108
瘸	-15.2108
癔	-15.2108
癣	-15.2108
眶	-15.2108
瞟	-15.2108
瞠	-15.2108
矜	-15.2108
砝	-15.2108
砥	-15.2108
砺	-15.2108
硼	-15.2108
祇	-15.2108
祠	-15.2108
禄	-15.2108
秸	-15.2108
稠	-15.2108
竺	-15.2108
笆	-15.2108
笞	-15.2108
粥	-15.2108
糅	-15.2108
繽	-15.2108
绅	-15.2108
绦	-15.2108
翔	-15.2108
耋	-15.2108
肘	-15.2108
胱	-15.2108
腮	-15.2108
腱	-15.2108
腻	-15.2108
臀	-15.2108
舐	-15.2108
莅	-15.2108
莠	-15.2108
莲	-15.2108
菇	-15.2108
蒲	-15.2108
蔼	-15.2108
藜	-15.2108
蘑	-15.2108
虱	-15.2108
蛰	-15.2108
蜚	-15.2108
螃	-15.2108
蟹	-15.2108
诙	-15.2108
诶	-15.2108
诿	-15.2108
谘	-15.2108
赊	-15.2108
赳	-15.2108
趄	-15.2108
趔	-15.2108
趴	-15.2108
跎	-15.2108
踝	-15.2108
踞	-15.2108
踱	-15.2108
蹉	-15.2108
蹙	-15.2108
蹚	-15.2108
轱	-15.2108
辘	-15.2108
逗	-15.2108
逛	-15.2108
邑	-15.2108
钕	-15.2108
钠	-15.2108
钮	-15.2108
铈	-15.2108
铒	-15.2108
铤	-15.2108
铩	-15.2108
锂	-15.2108
锰	-15.2108
镁	-15.2108
闽	-15.2108
阙	-15.2108
陀	-15.2108
雁	-15.2108
靓	-15.2108
韬	-15.2108
颐	-15.2108
飚	-15.2108
饵	-15.2108
馑	-15.2108
鲑	-15.2108
鲠	-15.2108
鲣	-15.2108
鸩	-15.2108
龊	-15.2108
龌	-15.2108
央	-15.2108
啄	-15.2108
忝	-15.2108
â	-15.2108
呛	-15.2108
嗟	-15.2108
拣	-15.2108
杳	-15.2108
杵	-15.2108
硒	-15.2108
篓	-15.2108
缈	-15.2108
蠹	-15.2108
铂	-15.2108
辑	-15.2108
の	-15.2108
偃	-15.2108
冢	-15.2108
哉	-15.2108
哑	-15.2108
啜	-15.2108
圜	-15.2108
娶	-15.2108
孪	-15.2108
崔	-15.2108
徉	-15.2108
徜	-15.2108
忸	-15.2108
怩	-15.2108
悴	-15.2108
悸	-15.2108
憔	-15.2108
柠	-15.2108
榻	-15.2108
檬	-15.2108
燧	-15.2108
琦	-15.2108
疡	-15.2108
痫	-15.2108
瘴	-15.2108
皈	-15.2108
砾	-15.2108
窖	-15.2108
箍	-15.2108
篝	-15.2108
缥	-15.2108
翌	-15.2108
耄	-15.2108
脖	-15.2108
芋	-15.2108
莞	-15.2108
蛹	-15.2108
蜓	-15.2108
蜻	-15.2108
蜿	-15.2108
襟	-15.2108
谀	-15.2108
赭	-15.2108
趾	-15.2108
铛	-15.2108
锒	-15.2108
阡	-15.2108
雍	-15.2108
颈	-15.2109
唠	-15.2109
弑	-15.2109
扈	-15.2109
揉	-15.2109
栅	-15.2109
殍	-15.2109
汁	-15.2109
泗	-15.2109
炖	-15.2109
玺	-15.2109
瓣	-15.2109
睥	-15.2109
睨	-15.2109
秤	-15.2109
纣	-15.2109
羚	-15.2109
胰	-15.2109
腓	-15.2109
膛	-15.2109
荟	-15.2109
蜒	-15.2109
蹼	-15.2109
邃	-15.2109
锏	-15.2109
馨	-15.2109
骐	-15.2109
鹬	-15.2109
帙	-15.2109
揩	-15.2109
昉	-15.2109
辰	-15.2109
愠	-15.2109
括	-15.2109
贸	-15.211
醛	-15.211
乎	-15.2111
鳗	-15.2111
