<pad>	0
<s>	0
</s>	0
<unk>	0
,	-2.99431
▁the	-3.09424
.	-3.35908
▁to	-3.72046
▁of	-3.73938
▁and	-3.83173
▁in	-4.13406
▁a	-4.17402
s	-4.2783
▁that	-4.5076
-	-4.51555
▁is	-4.52025
▁for	-4.93893
▁–	-5.07296
ing	-5.13676
▁be	-5.17046
▁The	-5.26412
▁are	-5.2939
▁on	-5.3249
▁it	-5.34108
▁as	-5.3707
▁with	-5.40154
▁not	-5.45616
▁by	-5.45798
▁has	-5.45841
▁have	-5.49186
▁will	-5.5775
▁from	-5.70044
ed	-5.71311
▁more	-5.74672
▁its	-5.76227
▁their	-5.7847
▁“	-5.81138
▁an	-5.87417
▁But	-5.90789
▁would	-5.96408
▁this	-5.98979
ly	-6.00618
▁	-6.014
▁was	-6.03196
▁at	-6.05319
▁or	-6.0544
▁US	-6.05645
▁they	-6.08451
▁than	-6.09462
▁countries	-6.09557
▁In	-6.10856
▁which	-6.11297
▁can	-6.23829
▁China	-6.26072
▁(	-6.26371
▁but	-6.3016
▁economic	-6.31474
”	-6.34278
▁been	-6.36735
▁all	-6.43728
)	-6.46088
▁growth	-6.47508
▁one	-6.50432
▁new	-6.51856
▁world	-6.54131
d	-6.54274
▁global	-6.5566
▁also	-6.56683
▁should	-6.57394
▁other	-6.59843
:	-6.59906
▁we	-6.60612
▁could	-6.60612
▁only	-6.60756
▁who	-6.63114
▁about	-6.63922
▁government	-6.67045
▁such	-6.68498
▁political	-6.68992
▁European	-6.69185
▁years	-6.70112
▁A	-6.70191
▁most	-6.70883
▁no	-6.71071
;	-6.7173
▁financial	-6.7374
▁even	-6.74394
▁now	-6.75403
▁Europe	-6.78412
▁people	-6.786
▁so	-6.78846
▁many	-6.79197
▁there	-6.79516
▁were	-6.79971
▁economy	-6.81957
▁if	-6.83154
▁This	-6.83382
▁over	-6.83747
▁his	-6.84758
e	-6.84895
▁must	-6.85572
▁And	-6.8583
▁Chinas	-6.86324
▁when	-6.88393
▁EU	-6.88772
▁some	-6.89291
▁do	-6.89944
▁these	-6.91216
▁out	-6.93313
▁policy	-6.93581
▁may	-6.95882
▁into	-6.97212
▁up	-6.9768
▁time	-6.97784
▁much	-6.99263
▁what	-6.99577
▁It	-6.99818
▁long	-7.00161
▁crisis	-7.01424
▁like	-7.01751
▁had	-7.01866
?	-7.03166
▁them	-7.05584
▁power	-7.09147
▁United	-7.10012
▁public	-7.10723
▁because	-7.12912
▁international	-7.13314
y	-7.13531
▁As	-7.14393
▁well	-7.15484
▁year	-7.16015
▁he	-7.16072
▁I	-7.16318
▁two	-7.16519
▁Chinese	-7.16806
▁market	-7.16849
▁those	-7.17186
.”	-7.18458
n	-7.18591
▁need	-7.19515
▁country	-7.22025
▁between	-7.22104
▁while	-7.25805
▁just	-7.26796
▁For	-7.27481
▁debt	-7.27746
▁governments	-7.29602
▁banks	-7.30918
▁leaders	-7.31004
▁investment	-7.31059
▁change	-7.31427
▁first	-7.32304
▁far	-7.32394
al	-7.33661
▁our	-7.34158
▁system	-7.34373
▁any	-7.34421
▁trade	-7.35984
▁through	-7.37501
▁last	-7.37561
▁how	-7.37793
▁markets	-7.38514
▁high	-7.38546
se	-7.392
▁example	-7.39714
▁against	-7.39835
▁way	-7.40333
▁less	-7.40805
▁both	-7.41493
▁own	-7.4153
▁interest	-7.41667
▁become	-7.42093
er	-7.42472
▁If	-7.43022
▁capital	-7.43717
▁make	-7.44633
▁where	-7.4512
▁too	-7.45418
▁rates	-7.45704
▁after	-7.45773
▁support	-7.46274
▁development	-7.46706
▁recent	-7.4707
▁energy	-7.49226
▁economies	-7.50144
▁state	-7.50819
▁important	-7.51514
▁policies	-7.52303
▁President	-7.52374
▁GDP	-7.52867
▁foreign	-7.5303
le	-7.53275
▁national	-7.53488
▁under	-7.53747
▁real	-7.53922
a	-7.54089
▁still	-7.54648
▁States	-7.54796
▁future	-7.55419
▁health	-7.55907
▁rate	-7.56585
▁already	-7.56765
t	-7.56904
▁social	-7.56968
▁current	-7.58177
▁large	-7.58631
▁same	-7.59292
▁That	-7.59441
▁billion	-7.60331
▁risk	-7.62429
▁does	-7.63558
▁fiscal	-7.64245
▁result	-7.64262
term	-7.65292
▁likely	-7.65316
▁climate	-7.65325
▁American	-7.65644
▁since	-7.65687
▁end	-7.66134
▁work	-7.66536
▁To	-7.67115
▁might	-7.67125
▁Indeed	-7.67918
es	-7.68105
▁problem	-7.68248
▁Asia	-7.68653
▁take	-7.68763
▁major	-7.68856
▁being	-7.6971
▁without	-7.70517
▁war	-7.71187
▁central	-7.71364
▁prices	-7.71368
▁fact	-7.7143
▁made	-7.71502
▁including	-7.72021
▁low	-7.72469
▁use	-7.73228
▁worlds	-7.73364
▁help	-7.73441
▁military	-7.74765
▁demand	-7.74821
▁better	-7.74936
▁cannot	-7.75893
▁states	-7.76237
▁eurozone	-7.764
▁S	-7.76528
▁good	-7.78227
,”	-7.78241
▁million	-7.78944
▁right	-7.79082
▁Americas	-7.79374
▁course	-7.79484
▁South	-7.8029
▁Russia	-7.80961
▁often	-7.81131
▁tax	-7.81141
).	-7.81467
▁With	-7.81525
p	-7.8172
▁another	-7.81932
▁human	-7.82144
▁Bank	-7.83224
▁security	-7.83234
▁three	-7.83594
▁part	-7.84195
▁companies	-7.84623
r	-7.84839
▁There	-7.85359
▁So	-7.86047
▁order	-7.86071
▁They	-7.86619
▁approach	-7.86656
▁monetary	-7.87586
▁did	-7.87683
▁past	-7.87704
▁institutions	-7.88043
l	-7.88044
in	-7.88564
▁very	-7.88664
▁among	-7.88806
▁Africa	-7.88814
▁before	-7.89151
▁income	-7.89382
▁least	-7.89546
▁increase	-7.89747
▁around	-7.89783
▁We	-7.89932
▁next	-7.90841
▁Moreover	-7.90943
▁role	-7.91757
▁private	-7.91815
o	-7.92869
▁toward	-7.93312
▁back	-7.93652
▁then	-7.9422
▁us	-7.94364
▁rise	-7.94388
▁World	-7.94417
▁short	-7.94654
▁India	-7.94905
▁re	-7.94946
▁labor	-7.95357
▁At	-7.95373
▁developing	-7.95596
▁today	-7.95627
▁America	-7.95774
▁Europes	-7.95793
▁nuclear	-7.96305
▁put	-7.96369
c	-7.97049
▁whether	-7.97151
▁countrys	-7.97758
▁domestic	-7.97785
▁down	-7.97909
▁needs	-7.98156
▁problems	-7.98208
▁Union	-7.98404
▁Germany	-7.9844
▁higher	-7.98982
▁rather	-7.99094
▁case	-8.00061
▁Japan	-8.00166
▁little	-8.00186
▁inflation	-8.00852
▁clear	-8.01213
▁money	-8.01296
▁needed	-8.02051
▁remains	-8.02234
▁education	-8.02463
▁continue	-8.02503
▁few	-8.0258
▁especially	-8.02873
▁business	-8.03149
▁process	-8.03594
▁services	-8.03879
▁emerging	-8.04461
▁costs	-8.04551
▁When	-8.04693
▁Trump	-8.04729
▁key	-8.0504
▁sector	-8.05854
▁price	-8.06046
▁local	-8.06314
▁come	-8.06505
▁East	-8.06661
▁spending	-8.06934
▁remain	-8.07237
▁strong	-8.07403
▁why	-8.07728
▁means	-8.07852
▁reform	-8.08212
▁further	-8.08324
▁decades	-8.08522
'	-8.08563
▁hard	-8.09213
▁currency	-8.09309
▁point	-8.09688
▁efforts	-8.09757
▁non	-8.10229
▁during	-8.10255
▁increasingly	-8.11118
or	-8.11662
▁ago	-8.11794
▁Yet	-8.1247
▁cost	-8.12779
▁potential	-8.12851
▁longer	-8.12899
▁reforms	-8.13005
▁growing	-8.13365
▁share	-8.1338
▁per	-8.13466
▁almost	-8.13721
▁however	-8.14369
▁un	-8.14418
ers	-8.14838
▁recently	-8.14961
▁oil	-8.14998
th	-8.15069
▁lower	-8.15079
▁yet	-8.15372
▁within	-8.15707
▁itself	-8.15904
▁resources	-8.1594
▁given	-8.16053
▁infrastructure	-8.16145
▁One	-8.16375
▁free	-8.16529
▁democracy	-8.16668
▁different	-8.16929
▁challenges	-8.17425
▁best	-8.17456
▁access	-8.1808
▁place	-8.18134
▁seems	-8.18148
▁greater	-8.18673
▁member	-8.18746
▁benefits	-8.18831
▁Whi	-8.19019
▁progress	-8.19148
▁enough	-8.19294
▁question	-8.19465
▁difficult	-8.19602
▁region	-8.19716
▁population	-8.19965
▁After	-8.20095
▁particularly	-8.20118
▁poor	-8.20185
▁By	-8.20551
▁impact	-8.20772
▁credit	-8.21147
▁set	-8.21207
i	-8.21226
▁workers	-8.21993
▁common	-8.21996
▁say	-8.22558
▁terms	-8.22616
▁value	-8.22863
▁level	-8.2305
▁strategy	-8.23234
▁number	-8.23279
▁investors	-8.23361
out	-8.243
▁citizens	-8.24313
▁interests	-8.24337
▁G	-8.24401
▁election	-8.24846
▁others	-8.24966
▁reduce	-8.25279
▁law	-8.25573
▁reason	-8.25786
▁ensure	-8.25908
▁every	-8.25955
▁create	-8.25988
▁relative	-8.26332
▁used	-8.26453
▁rights	-8.26527
▁risks	-8.26593
▁exchange	-8.26674
▁data	-8.26764
▁provide	-8.271
▁half	-8.27338
espite	-8.27396
▁d	-8.27451
▁bank	-8.27546
▁Even	-8.28646
▁second	-8.28779
▁children	-8.28937
▁What	-8.28944
▁members	-8.28962
able	-8.29255
▁women	-8.29379
▁New	-8.29535
▁rising	-8.29539
▁D	-8.30181
▁anti	-8.30373
▁North	-8.30437
▁you	-8.30522
▁face	-8.30733
▁possible	-8.30865
▁off	-8.3115
▁British	-8.31167
▁thus	-8.31313
▁control	-8.31319
▁rules	-8.31491
▁War	-8.31529
on	-8.31578
▁measures	-8.31721
▁leadership	-8.31767
▁systems	-8.32002
▁life	-8.32064
▁challenge	-8.32551
▁never	-8.32674
▁C	-8.32707
▁finance	-8.32733
▁home	-8.32788
▁each	-8.32981
▁address	-8.33133
▁jobs	-8.33175
▁On	-8.33256
▁regional	-8.33257
▁though	-8.3326
b	-8.33296
▁agreement	-8.33325
▁levels	-8.33554
▁know	-8.33586
ic	-8.33705
▁peace	-8.33739
the	-8.3378
▁find	-8.34393
▁UK	-8.34419
▁lead	-8.34524
▁effective	-8.34595
▁France	-8.34895
▁force	-8.35126
re	-8.35262
▁balance	-8.35558
▁serious	-8.35658
g	-8.36176
▁focus	-8.36179
▁view	-8.36291
▁Western	-8.36546
▁her	-8.36577
▁action	-8.36824
▁left	-8.36877
▁technology	-8.37198
▁stability	-8.372
▁politics	-8.37209
▁want	-8.37274
▁small	-8.37423
▁former	-8.37623
▁consumption	-8.37678
▁Fed	-8.38014
▁Iran	-8.38425
▁together	-8.38475
▁ever	-8.38482
▁decision	-8.38745
▁model	-8.38755
▁de	-8.38826
▁significant	-8.39372
▁poverty	-8.39778
▁conflict	-8.3991
▁themselves	-8.39938
▁productivity	-8.3995
▁West	-8.40791
▁firms	-8.40798
▁average	-8.4093
▁Of	-8.41167
▁Obama	-8.41575
▁require	-8.41597
▁my	-8.41757
▁start	-8.41758
▁across	-8.42053
▁issues	-8.42336
▁budget	-8.42603
▁see	-8.4293
▁annual	-8.43101
▁increased	-8.43377
▁dollar	-8.43464
2	-8.4352
▁get	-8.43753
▁run	-8.44097
▁believe	-8.44209
▁post	-8.44224
▁research	-8.44261
▁once	-8.44455
▁sense	-8.44673
▁making	-8.44735
▁early	-8.44977
▁food	-8.44982
▁boost	-8.45088
▁based	-8.45232
▁developed	-8.45559
▁euro	-8.45728
▁move	-8.45794
▁great	-8.45863
▁go	-8.45991
▁history	-8.46198
▁able	-8.46307
▁officials	-8.4671
▁Israel	-8.47034
▁information	-8.47071
and	-8.47076
▁lack	-8.47103
▁similar	-8.47167
▁true	-8.47296
▁decade	-8.47314
▁young	-8.47527
▁again	-8.47936
▁Central	-8.47951
▁program	-8.482
▁times	-8.48396
▁keep	-8.48583
▁water	-8.48779
▁threat	-8.48789
▁International	-8.48841
▁Korea	-8.49033
▁society	-8.49585
▁single	-8.4974
▁five	-8.4993
▁issue	-8.49983
▁community	-8.50465
▁largest	-8.50529
▁century	-8.50564
▁advanced	-8.50696
▁areas	-8.50709
▁He	-8.50941
▁policymakers	-8.51021
▁seem	-8.51147
▁Middle	-8.51379
ness	-8.51423
it	-8.51445
▁working	-8.51468
▁effects	-8.51508
▁environmental	-8.51561
S	-8.51565
▁Some	-8.51762
▁deficit	-8.51878
▁pressure	-8.51882
▁simply	-8.52116
▁pay	-8.52185
▁led	-8.52298
▁ECB	-8.52302
▁deal	-8.52441
▁Minister	-8.52487
▁conditions	-8.52537
an	-8.52573
▁total	-8.52589
▁position	-8.5263
▁open	-8.53374
▁rule	-8.53588
ion	-8.53713
▁response	-8.53967
▁Party	-8.53992
▁union	-8.53992
▁forces	-8.5411
▁turn	-8.5436
▁M	-8.54555
▁Asian	-8.5457
C	-8.54628
▁opportunity	-8.54742
▁care	-8.5488
▁parties	-8.54954
▁industry	-8.55317
▁massive	-8.55318
▁supply	-8.55333
▁president	-8.5589
▁four	-8.56051
▁E	-8.56063
▁2008	-8.56234
▁African	-8.56437
▁employment	-8.56474
▁production	-8.56479
▁changes	-8.56509
to	-8.56637
▁several	-8.56853
▁capacity	-8.57052
▁full	-8.5717
▁Britain	-8.5726
▁rest	-8.57275
▁media	-8.57321
▁effort	-8.57452
▁done	-8.57682
▁shift	-8.57723
P	-8.57756
▁Italy	-8.57828
▁requires	-8.57854
▁emissions	-8.58116
▁Turkey	-8.58222
ation	-8.58274
▁period	-8.58627
▁democratic	-8.58631
as	-8.58777
▁created	-8.5901
coming	-8.59163
▁structural	-8.59211
▁cooperation	-8.59407
▁consequences	-8.59457
▁B	-8.59458
▁prevent	-8.5964
▁success	-8.59878
ity	-8.5989
▁environment	-8.60132
▁always	-8.60205
▁innovation	-8.60268
based	-8.60587
▁banking	-8.61022
▁exports	-8.61626
▁regime	-8.617
A	-8.61945
▁politicians	-8.62191
▁campaign	-8.62306
▁sustainable	-8.6286
▁account	-8.62881
▁influence	-8.63007
▁called	-8.63074
▁alone	-8.63264
▁L	-8.6329
▁trillion	-8.63593
▁leading	-8.63634
▁taken	-8.63661
▁Arab	-8.63663
▁improve	-8.63727
▁traditional	-8.63769
▁term	-8.63807
▁failed	-8.63846
▁Iraq	-8.63885
▁Bush	-8.63885
▁strategic	-8.63887
ck	-8.63902
▁hope	-8.64003
▁decline	-8.64282
▁Brexit	-8.64335
▁plan	-8.64336
▁months	-8.64509
▁said	-8.64511
▁UN	-8.64939
▁Americans	-8.65006
h	-8.65024
market	-8.65103
▁top	-8.6511
▁authorities	-8.6514
▁funds	-8.65179
▁cause	-8.65378
▁day	-8.65543
▁French	-8.65564
en	-8.65571
▁build	-8.65821
▁T	-8.66174
▁unemployment	-8.662
▁form	-8.66239
▁voters	-8.66505
▁fall	-8.66605
▁expected	-8.66628
▁job	-8.66999
▁beyond	-8.67057
▁Today	-8.67065
▁economists	-8.67395
▁play	-8.67534
ism	-8.6757
▁administration	-8.67654
▁nearly	-8.67673
▁think	-8.67715
▁big	-8.67724
▁largely	-8.67781
▁particular	-8.68107
▁fear	-8.68435
▁land	-8.68698
▁Such	-8.68793
▁regions	-8.68803
▁Give	-8.68816
▁projects	-8.68882
▁todays	-8.6919
▁self	-8.69234
▁having	-8.69236
u	-8.69483
▁aid	-8.69543
▁Congress	-8.69666
▁achieve	-8.69949
▁technologies	-8.70108
D	-8.70227
▁until	-8.7033
▁party	-8.70794
▁experience	-8.70861
▁she	-8.70918
▁export	-8.7092
▁P	-8.70977
by	-8.71023
▁began	-8.71066
▁sure	-8.71201
▁Many	-8.71234
▁inequality	-8.71447
ary	-8.71488
▁assets	-8.71505
▁powerful	-8.71568
▁opportunities	-8.71671
▁cities	-8.71673
▁close	-8.71688
▁integration	-8.71902
▁goods	-8.71945
▁values	-8.72067
▁rapid	-8.72103
▁official	-8.72116
▁increasing	-8.72341
▁makes	-8.72404
▁ways	-8.72498
▁lives	-8.72504
▁natural	-8.72567
▁According	-8.72594
▁ability	-8.72649
▁report	-8.72789
▁news	-8.73061
▁programs	-8.73162
▁bring	-8.73227
▁German	-8.73231
ting	-8.73417
▁avoid	-8.73569
▁wealth	-8.73643
▁him	-8.73717
▁governance	-8.73953
▁civil	-8.74395
▁1990	-8.7464
▁Nations	-8.74641
▁found	-8.74865
▁Ukraine	-8.74928
▁rich	-8.75097
▁bonds	-8.75099
▁lost	-8.75111
▁main	-8.75291
▁idea	-8.75441
▁groups	-8.7556
▁perhaps	-8.75811
▁raise	-8.7585
▁debate	-8.75962
▁stock	-8.76353
▁All	-8.76464
▁maintain	-8.76528
▁Russian	-8.76559
▁leader	-8.76662
▁owing	-8.76748
▁Prime	-8.7675
▁goal	-8.76908
▁evidence	-8.76984
ive	-8.77014
▁away	-8.77045
▁reach	-8.77292
▁doing	-8.77466
▁investments	-8.77531
m	-8.77552
▁necessary	-8.77698
▁step	-8.77796
▁Council	-8.77937
▁along	-8.78033
▁bad	-8.78194
▁More	-8.78659
▁Commission	-8.78873
▁violence	-8.789
▁old	-8.78936
▁comes	-8.79016
▁look	-8.7906
▁Greece	-8.79259
▁elections	-8.7928
▁modern	-8.79309
▁behind	-8.79388
▁highly	-8.79413
▁return	-8.79571
▁benefit	-8.79813
▁ten	-8.79819
▁probab	-8.79871
▁R	-8.80233
▁allow	-8.80344
▁recovery	-8.80383
▁later	-8.804
est	-8.80503
▁First	-8.80861
▁EUs	-8.81071
▁failure	-8.81242
▁taking	-8.81379
▁extreme	-8.81599
▁Development	-8.816
▁act	-8.81626
▁kind	-8.81745
▁hold	-8.81836
▁corruption	-8.81888
▁status	-8.81925
▁Global	-8.82338
▁attention	-8.82347
▁gas	-8.82403
▁contrast	-8.82595
▁W	-8.82697
▁relations	-8.82921
▁IMF	-8.83098
led	-8.83178
▁financing	-8.83356
▁give	-8.83471
▁recession	-8.83535
▁wrong	-8.83604
▁Now	-8.83613
▁develop	-8.83659
▁actually	-8.83667
▁fundamental	-8.8375
ra	-8.83847
▁protect	-8.83927
rate	-8.83934
▁third	-8.84026
▁majority	-8.84183
▁Fund	-8.84303
▁external	-8.84363
▁include	-8.8441
▁solution	-8.84558
▁hand	-8.84637
▁agenda	-8.84826
▁National	-8.84835
▁asset	-8.849
▁middle	-8.85148
f	-8.85569
▁worse	-8.85776
▁using	-8.85821
▁establish	-8.86035
▁Instead	-8.86171
▁popular	-8.86416
▁nothing	-8.86449
ve	-8.86481
▁coming	-8.86499
▁larger	-8.86585
▁amount	-8.86663
▁competition	-8.86693
▁legal	-8.86728
▁reality	-8.86762
▁taxes	-8.86829
▁situation	-8.86925
up	-8.87127
▁cut	-8.87201
▁living	-8.87487
▁individual	-8.87718
▁defense	-8.87759
▁late	-8.87763
▁path	-8.87799
▁corporate	-8.88009
▁huge	-8.88009
▁understand	-8.88189
▁renminbi	-8.88274
▁vote	-8.88332
▁sectors	-8.88423
▁Trumps	-8.88455
▁manufacturing	-8.8854
▁industrial	-8.88767
▁things	-8.88885
at	-8.88975
▁fight	-8.88993
▁either	-8.89075
▁meeting	-8.8911
▁cases	-8.89138
▁mean	-8.89264
▁meet	-8.89296
▁commitment	-8.89612
year	-8.89651
▁limited	-8.89908
▁month	-8.89924
▁carbon	-8.89986
▁seen	-8.90003
▁Bo	-8.90052
called	-8.90253
ist	-8.9048
▁reducing	-8.90702
▁decisions	-8.90782
▁push	-8.90925
▁group	-8.90934
▁easy	-8.90966
▁Kingdom	-8.90985
▁pre	-8.91181
▁entire	-8.91268
▁science	-8.91798
▁2015	-8.9186
▁produce	-8.91906
▁became	-8.92078
income	-8.92092
▁Afghanistan	-8.9234
▁show	-8.92491
▁call	-8.92575
▁soon	-8.93045
▁standards	-8.93189
▁An	-8.93357
▁May	-8.93437
▁Syria	-8.93713
▁words	-8.94042
▁solutions	-8.9409
▁refugees	-8.94165
▁near	-8.94316
nt	-8.94455
▁elsewhere	-8.94578
▁held	-8.94592
▁NEW	-8.94861
▁businesses	-8.95264
▁2010	-8.95352
▁concerns	-8.95425
▁indeed	-8.95434
▁weak	-8.95656
▁took	-8.95782
ment	-8.95873
▁really	-8.9589
ized	-8.96088
▁established	-8.96097
▁weapons	-8.96297
▁something	-8.96309
▁target	-8.96327
▁quickly	-8.96354
▁live	-8.96472
▁effect	-8.96656
▁answer	-8.9698
k	-8.97155
ur	-8.97329
▁Brazil	-8.97545
▁fuel	-8.97668
▁products	-8.97713
▁Latin	-8.97739
▁performance	-8.97741
▁Internet	-8.97746
el	-8.9788
▁digital	-8.9802
▁successful	-8.98092
▁line	-8.98221
▁Pakistan	-8.98239
▁above	-8.98267
▁following	-8.98273
▁Spain	-8.98325
▁matter	-8.98445
▁negotiations	-8.98488
▁direct	-8.98513
▁confidence	-8.98631
▁presidential	-8.98633
▁deficits	-8.98708
▁disease	-8.98744
▁No	-8.98784
▁unlikely	-8.99017
▁currently	-8.99027
▁households	-8.99129
▁20	-8.99221
▁known	-8.99394
▁organizations	-8.99534
▁worldwide	-8.99558
▁limit	-8.99611
▁source	-8.99666
▁side	-8.99766
▁F	-8.99786
ar	-8.99994
st	-8.99998
3	-9.0005
▁Meanwhile	-9.00102
▁grow	-9.00167
co	-9.00484
▁funding	-9.00516
▁movement	-9.00576
lthough	-9.00708
▁critical	-9.00762
▁ahead	-9.00915
▁me	-9.0099
▁industries	-9.01005
▁beginning	-9.01007
▁alternative	-9.01169
▁Europeans	-9.01203
▁certainly	-9.01237
▁Federal	-9.01305
▁Most	-9.01309
▁generation	-9.01435
▁framework	-9.01476
lo	-9.01515
▁complex	-9.0159
▁opposition	-9.01608
▁additional	-9.01647
▁globalization	-9.01754
E	-9.01833
▁offer	-9.01897
▁scale	-9.01923
▁technological	-9.01968
▁project	-9.02047
▁Economic	-9.02084
▁below	-9.02136
▁crises	-9.02217
▁essential	-9.02281
▁reserves	-9.0241
▁prosperity	-9.02525
▁responsibility	-9.02532
▁collapse	-9.0269
▁existing	-9.02735
il	-9.02824
▁Sinc	-9.02841
▁creating	-9.02841
▁Great	-9.02845
7	-9.02863
▁overall	-9.02871
▁Xi	-9.03096
▁recognize	-9.0319
▁pro	-9.03226
▁tend	-9.03226
▁continues	-9.03426
▁available	-9.03446
▁sovereign	-9.0345
▁six	-9.03457
▁powers	-9.03468
ri	-9.0356
▁transition	-9.0359
▁leave	-9.03647
▁Security	-9.03756
▁behavior	-9.04
▁dollars	-9.04048
▁Monetary	-9.04066
M	-9.04151
▁caused	-9.04454
▁positive	-9.04455
▁vision	-9.04586
▁stop	-9.04653
I	-9.04693
▁age	-9.04857
▁relationship	-9.04911
▁willing	-9.05034
▁consumer	-9.0524
▁H	-9.05297
▁output	-9.05332
▁thing	-9.05351
ies	-9.05443
▁basic	-9.05511
▁institutional	-9.05584
▁millions	-9.05659
▁certain	-9.05699
▁results	-9.06087
▁creation	-9.06275
▁factors	-9.06296
▁air	-9.06354
▁continued	-9.06359
▁loans	-9.06375
▁deep	-9.06532
▁claim	-9.06553
▁Japanese	-9.0662
▁outside	-9.06661
▁outcome	-9.06835
▁gains	-9.07146
▁freedom	-9.07169
▁follow	-9.07184
ro	-9.07271
▁according	-9.07487
▁regard	-9.07532
▁mere	-9.07572
▁general	-9.07582
▁clearly	-9.07612
▁slow	-9.07615
4	-9.07772
▁consider	-9.07823
▁came	-9.07864
age	-9.07993
▁reasons	-9.0802
us	-9.08113
▁study	-9.08194
▁management	-9.08246
1	-9.08369
▁incentives	-9.08794
▁helped	-9.08809
5	-9.08975
▁enable	-9.09034
▁State	-9.09464
▁p	-9.09738
▁equity	-9.09846
▁damage	-9.10015
▁advantage	-9.10123
less	-9.10124
▁stimulus	-9.10166
▁rapidly	-9.10185
▁stronger	-9.10323
▁negative	-9.10495
▁net	-9.10505
▁models	-9.10596
▁sanctions	-9.10901
▁pursue	-9.11011
▁attack	-9.11153
▁everyone	-9.11173
▁Soviet	-9.11185
▁expect	-9.11478
▁choice	-9.11479
▁forward	-9.11724
▁federal	-9.11807
▁revolution	-9.11824
▁company	-9.11825
▁facing	-9.11825
▁Second	-9.11829
▁center	-9.11837
T	-9.11862
▁accept	-9.11883
▁quality	-9.11917
▁internal	-9.121
▁building	-9.12135
▁treatment	-9.12183
▁flows	-9.12209
▁concern	-9.12604
▁savings	-9.12811
▁minister	-9.12842
▁allowed	-9.12953
▁effectively	-9.13034
▁impossible	-9.13178
▁communities	-9.13519
▁cuts	-9.13567
▁warming	-9.13663
▁forced	-9.13842
▁moment	-9.13854
▁knowledge	-9.1387
▁austerity	-9.13872
z	-9.13881
▁focused	-9.13904
▁service	-9.13931
▁coal	-9.14265
▁saving	-9.14277
▁expansion	-9.14534
▁moral	-9.14636
/	-9.14896
▁basis	-9.14897
▁1980	-9.14897
▁reflect	-9.14909
▁2013	-9.14991
▁consumers	-9.14998
▁personal	-9.15027
▁skills	-9.15162
▁required	-9.15296
ization	-9.15301
▁Bara	-9.15558
▁2016	-9.15593
▁Donald	-9.15596
▁extend	-9.15646
▁reached	-9.15726
▁strengthen	-9.15747
F	-9.15778
▁housing	-9.15942
▁independence	-9.15988
ent	-9.16087
▁Africas	-9.16174
▁suggests	-9.16261
▁shared	-9.16341
▁gap	-9.1638
▁activities	-9.16645
▁points	-9.16679
▁dangerous	-9.16757
▁days	-9.16778
account	-9.16829
▁instead	-9.16998
R	-9.17027
▁regulation	-9.17081
▁gain	-9.17259
▁regulatory	-9.1736
▁drug	-9.17434
is	-9.17542
im	-9.17712
▁proposed	-9.17727
▁intervention	-9.17795
▁Re	-9.18105
▁2014	-9.1813
▁respect	-9.18184
▁borders	-9.18288
▁societies	-9.18424
▁brought	-9.18424
▁death	-9.18517
▁record	-9.18546
▁manage	-9.18562
▁independent	-9.18633
▁promote	-9.18639
ma	-9.1873
▁simple	-9.18743
▁eventually	-9.18823
▁liberal	-9.18855
▁Egypt	-9.18868
▁losses	-9.19192
▁household	-9.19242
▁cancer	-9.19256
▁men	-9.19387
▁ideas	-9.19425
▁vital	-9.19852
▁counter	-9.19916
0	-9.19974
▁loss	-9.20201
▁Unfortunately	-9.20236
▁office	-9.20309
▁fossil	-9.20609
care	-9.20669
ch	-9.20974
▁fully	-9.21159
▁area	-9.21167
▁argue	-9.21325
▁attacks	-9.21352
▁claims	-9.21426
▁questions	-9.21732
▁direction	-9.21758
▁core	-9.21775
▁sources	-9.21908
▁September	-9.22084
▁family	-9.22086
▁border	-9.22346
B	-9.22385
▁From	-9.22454
▁Finally	-9.22455
▁previous	-9.22583
▁worth	-9.2259
▁events	-9.22614
▁O	-9.22693
▁Russias	-9.22739
▁burden	-9.2281
▁Paris	-9.22829
side	-9.22858
▁committed	-9.22868
▁invest	-9.2301
▁school	-9.23182
▁reduced	-9.23209
▁18	-9.23437
▁cultural	-9.23599
▁individuals	-9.2362
▁co	-9.23627
▁Putin	-9.23752
▁matters	-9.23805
▁trust	-9.24051
▁immigration	-9.24353
▁transformation	-9.24355
▁widely	-9.24467
▁chance	-9.24518
▁Reserve	-9.24521
▁2012	-9.24648
▁urban	-9.24722
▁agreed	-9.2486
▁consensus	-9.25111
▁victory	-9.25115
▁compared	-9.25164
▁NATO	-9.2549
▁10%	-9.25492
▁save	-9.25782
ists	-9.25837
▁trading	-9.25888
▁Islamic	-9.2589
▁partners	-9.25948
H	-9.26087
▁depend	-9.2625
▁Its	-9.26262
ant	-9.2653
▁bilateral	-9.26653
▁crucial	-9.26794
▁significantly	-9.2685
▁targets	-9.2692
▁thinking	-9.2695
▁commercial	-9.27048
▁referendum	-9.2705
▁migration	-9.2705
▁allies	-9.27241
▁era	-9.27321
▁biggest	-9.27436
▁construction	-9.27439
ate	-9.27475
▁initiative	-9.2766
▁implement	-9.2768
▁15	-9.27791
▁primary	-9.27829
▁providing	-9.27829
▁membership	-9.27843
▁increases	-9.28036
▁aimed	-9.28074
▁contribute	-9.28081
▁goals	-9.28104
▁provided	-9.28222
▁vulnerable	-9.2823
▁stable	-9.28233
▁property	-9.28244
▁Indian	-9.28244
▁accounts	-9.28441
▁surplus	-9.28574
▁special	-9.2862
▁agree	-9.2867
de	-9.28713
▁obvious	-9.28774
▁II	-9.28855
▁expectations	-9.28862
▁Muslim	-9.28883
▁vast	-9.2902
▁fail	-9.2917
sector	-9.29222
un	-9.29406
▁nor	-9.29504
te	-9.29571
▁difference	-9.29677
▁shows	-9.29767
▁trying	-9.29922
▁trend	-9.30085
▁game	-9.30112
▁secure	-9.30123
▁commodity	-9.30225
▁How	-9.3025
v	-9.30317
▁encourage	-9.30338
▁neighbors	-9.30472
▁falling	-9.30525
▁directly	-9.30561
▁latest	-9.3065
▁farmers	-9.30711
▁thought	-9.30814
▁importance	-9.3104
▁ultimately	-9.3112
▁seek	-9.3121
▁whole	-9.31415
ful	-9.31438
▁actions	-9.31647
▁class	-9.31683
▁begin	-9.3173
▁lose	-9.31805
▁Trade	-9.32042
▁contrary	-9.32267
▁supposed	-9.32276
▁feel	-9.32395
▁serve	-9.32425
▁seeking	-9.32475
▁let	-9.32514
▁therefore	-9.32679
making	-9.32751
▁steps	-9.32944
▁severe	-9.32955
▁culture	-9.33007
▁seemed	-9.33013
▁favor	-9.33048
▁uncertainty	-9.33513
▁story	-9.33517
▁followed	-9.3352
▁understanding	-9.33614
▁argued	-9.33672
▁hit	-9.3371
▁respond	-9.33848
▁child	-9.3397
ry	-9.34002
▁parts	-9.34043
▁dont	-9.34088
policy	-9.34102
▁partly	-9.34181
▁Last	-9.34353
▁competitive	-9.34361
▁drive	-9.34565
▁doubt	-9.34689
▁K	-9.34711
▁strategies	-9.34771
▁faces	-9.34772
ikewise	-9.34774
▁man	-9.34784
▁range	-9.35091
▁fund	-9.35117
▁religious	-9.35195
▁responsible	-9.35202
▁Though	-9.35206
▁truth	-9.3522
w	-9.35444
▁argument	-9.35558
▁option	-9.35568
▁Republican	-9.35576
▁context	-9.3562
▁leaving	-9.3562
▁subject	-9.3562
▁abroad	-9.3562
▁nature	-9.3562
▁Secretary	-9.35624
▁appear	-9.35641
▁zero	-9.35664
▁spread	-9.35817
▁students	-9.35934
ish	-9.3594
▁De	-9.35994
▁ground	-9.35997
▁YORK	-9.36048
▁faster	-9.36101
8	-9.36233
▁plans	-9.36233
▁announced	-9.36494
▁terrorism	-9.36504
▁extent	-9.36908
▁produced	-9.37132
li	-9.37135
▁sustain	-9.37203
▁continent	-9.37244
▁capita	-9.37302
▁turned	-9.3766
▁here	-9.37683
▁Indias	-9.37707
▁summit	-9.37732
▁liquidity	-9.37787
▁imports	-9.37806
▁tools	-9.37906
ally	-9.37937
▁N	-9.38074
▁theory	-9.38176
▁London	-9.38212
▁authority	-9.38216
▁Over	-9.38216
▁pollution	-9.38218
▁Sea	-9.38322
▁immediate	-9.38405
▁Only	-9.38475
▁wage	-9.38548
-20	-9.3866
▁insurance	-9.38697
▁Japans	-9.38735
▁Not	-9.3875
▁talks	-9.38772
▁substantial	-9.38848
▁limits	-9.38886
▁bankers	-9.38891
▁boom	-9.38894
▁enterprises	-9.39041
▁rely	-9.39077
▁standard	-9.39082
▁rural	-9.39092
▁wages	-9.39128
▁broader	-9.39148
O	-9.39373
▁economics	-9.39402
▁diplomatic	-9.39587
▁sides	-9.39637
▁equal	-9.3973
▁happen	-9.39824
9	-9.39944
▁associat	-9.39954
▁Climate	-9.39978
▁Financial	-9.39978
▁currencies	-9.39978
▁reduction	-9.40003
▁efficiency	-9.4001
man	-9.40111
▁going	-9.40179
▁excessive	-9.40191
▁adopted	-9.40218
▁deliver	-9.40321
▁reflects	-9.40376
▁borrowing	-9.40403
▁LONDON	-9.40425
▁macroeconomic	-9.40425
▁activity	-9.40427
▁t	-9.4051
▁2%	-9.40515
▁factor	-9.40526
▁payments	-9.40557
▁press	-9.40728
▁generate	-9.40732
rs	-9.40759
▁head	-9.4076
▁win	-9.40819
▁scientific	-9.40873
▁2007	-9.40875
▁University	-9.40875
▁Treaty	-9.40876
▁book	-9.40887
▁prospects	-9.4091
▁politically	-9.40976
▁initiatives	-9.41066
id	-9.41079
▁efficient	-9.41118
ta	-9.4132
▁agriculture	-9.41326
▁Similarly	-9.41372
▁sound	-9.41453
▁lending	-9.41531
▁historical	-9.41567
▁expand	-9.41766
▁Organization	-9.41777
▁House	-9.41794
▁bond	-9.41811
▁specific	-9.41819
▁wants	-9.41971
▁Al	-9.41979
ne	-9.42242
▁Mexico	-9.42251
▁elected	-9.42346
century	-9.4244
ad	-9.42504
▁regimes	-9.42512
▁promise	-9.42565
▁earlier	-9.42689
▁carry	-9.42695
▁His	-9.42705
▁competitiveness	-9.42709
▁test	-9.42717
▁Obamas	-9.42729
▁precisely	-9.42733
▁Republicans	-9.42767
▁broad	-9.42778
▁assistance	-9.43151
▁built	-9.43167
▁populist	-9.43182
ir	-9.43357
▁agreements	-9.43504
▁stand	-9.43508
▁improving	-9.43607
▁easing	-9.43616
▁shown	-9.43731
la	-9.43954
▁suggest	-9.43986
▁calls	-9.44005
▁afford	-9.44045
▁Consider	-9.4407
▁easily	-9.4407
▁subsidies	-9.4407
▁November	-9.44073
▁light	-9.44131
▁changed	-9.44339
▁migrants	-9.44379
,000	-9.44448
▁legitimacy	-9.44535
▁sovereignty	-9.44543
▁attract	-9.44564
▁Palestinian	-9.44611
ig	-9.44662
▁becomes	-9.44827
6	-9.44897
▁revenues	-9.44903
▁regulations	-9.44914
▁multilateral	-9.44985
▁finally	-9.45229
▁30	-9.45244
▁achieved	-9.45306
▁try	-9.45363
▁police	-9.4546
▁neither	-9.45472
▁affect	-9.45473
▁Eastern	-9.45496
▁agricultural	-9.45652
▁practices	-9.45673
▁causes	-9.45687
▁driven	-9.45697
▁buy	-9.45809
▁addressing	-9.45867
▁Saudi	-9.45943
▁spent	-9.45943
▁geopolitical	-9.45943
▁safety	-9.45957
▁principle	-9.46011
▁diseases	-9.46216
▁improved	-9.4627
▁happened	-9.46293
▁spend	-9.4638
▁slowdown	-9.46422
▁June	-9.46428
ling	-9.46447
▁lot	-9.46451
▁protection	-9.46497
▁size	-9.46535
▁Irans	-9.46578
▁fast	-9.46819
▁unprecedented	-9.46893
▁mid	-9.46898
▁paid	-9.46937
▁soft	-9.46942
▁anything	-9.46955
▁estimated	-9.4696
▁allowing	-9.4708
scale	-9.47125
▁fuels	-9.47194
▁mass	-9.47309
▁cash	-9.47362
▁families	-9.47372
▁appears	-9.47451
▁regulators	-9.47553
roughly	-9.47786
▁George	-9.47853
▁electricity	-9.47859
▁universal	-9.4787
▁considerable	-9.4789
▁predict	-9.47948
▁Argentina	-9.47953
▁e	-9.47958
▁radical	-9.4806
ver	-9.48123
▁speech	-9.48288
▁your	-9.48368
▁prime	-9.48387
ce	-9.48406
▁Do	-9.48407
▁revenue	-9.48439
"	-9.48448
war	-9.4849
one	-9.48549
▁online	-9.48567
related	-9.48571
▁sign	-9.48612
▁takes	-9.48636
▁2009	-9.48698
▁Merkel	-9.48821
▁opinion	-9.48936
▁city	-9.4898
▁received	-9.49065
▁experts	-9.49139
▁deaths	-9.49189
▁Greek	-9.49309
▁Ireland	-9.49309
▁space	-9.4931
▁December	-9.49312
▁break	-9.49321
▁normal	-9.49337
▁sometimes	-9.4946
▁went	-9.4958
▁training	-9.50037
▁scientists	-9.50046
▁ratio	-9.50091
ous	-9.50116
▁double	-9.50192
ever	-9.50265
▁running	-9.5032
▁quarter	-9.5049
▁laws	-9.50523
▁possibility	-9.50787
▁fell	-9.50798
▁Their	-9.50816
▁cross	-9.50914
▁planet	-9.5094
▁designed	-9.51115
▁measure	-9.5125
▁threaten	-9.51257
▁Communist	-9.51291
▁met	-9.5142
▁provides	-9.51445
▁week	-9.51475
▁present	-9.51577
▁demands	-9.51603
▁York	-9.51784
▁comprehensive	-9.51784
▁worst	-9.51784
▁2001	-9.51787
▁ASEAN	-9.51804
▁heart	-9.51825
▁nation	-9.51897
▁operations	-9.52251
▁Perhaps	-9.52287
▁sub	-9.52289
▁changing	-9.52323
▁fair	-9.52421
▁defend	-9.52427
▁enter	-9.52447
▁task	-9.52453
▁barriers	-9.52498
be	-9.5262
izing	-9.5273
▁prove	-9.52762
▁rhetoric	-9.52792
▁General	-9.52857
▁unable	-9.52891
▁conflicts	-9.52892
▁receive	-9.52982
▁Democrats	-9.53011
▁final	-9.53045
▁rais	-9.53082
▁sustained	-9.53178
▁principles	-9.53226
▁addition	-9.53234
▁started	-9.53261
▁Because	-9.533
▁Parliament	-9.533
▁20%	-9.53307
▁greatest	-9.53344
▁closer	-9.53407
state	-9.53477
▁message	-9.53479
▁ones	-9.53518
ach	-9.53559
▁Israeli	-9.53591
▁widespread	-9.5381
▁Thus	-9.53812
▁highest	-9.5394
▁c	-9.54034
▁safe	-9.5405
▁attempt	-9.54106
▁seven	-9.54324
▁mind	-9.5436
▁12	-9.54513
owned	-9.54559
ul	-9.54802
▁medical	-9.54838
▁Another	-9.5484
▁J	-9.55033
no	-9.55076
▁managed	-9.55081
▁depends	-9.55084
▁collective	-9.55126
tor	-9.55132
▁thousands	-9.55147
▁remained	-9.55241
ize	-9.55299
▁treaty	-9.55404
▁productive	-9.55449
▁choose	-9.55563
▁launched	-9.55605
▁returns	-9.55633
▁schools	-9.55661
▁suffer	-9.55695
▁inter	-9.55764
▁succeed	-9.55768
▁entirely	-9.55822
▁helping	-9.5585
▁circumstances	-9.55877
▁pace	-9.55879
▁democracies	-9.5588
▁giving	-9.55913
▁struggle	-9.55947
▁distribution	-9.5596
▁learn	-9.56011
▁instability	-9.56044
▁economist	-9.56095
▁host	-9.56419
▁lies	-9.56621
▁clean	-9.5664
um	-9.56765
▁implemented	-9.5684
ian	-9.56883
▁agencies	-9.56927
▁southern	-9.56929
▁amounts	-9.57011
▁structure	-9.57029
▁scenario	-9.57161
▁promises	-9.57432
▁restructuring	-9.57458
▁fighting	-9.57561
▁AI	-9.57698
▁design	-9.57752
▁mutual	-9.57984
▁viewed	-9.58029
▁supported	-9.58067
▁road	-9.5809
▁outcomes	-9.58105
▁capitalism	-9.58133
▁refugee	-9.58252
▁strengthening	-9.58351
▁unless	-9.5857
▁advance	-9.58626
▁8	-9.58747
ance	-9.58759
▁default	-9.58795
▁enormous	-9.58811
▁sell	-9.59013
▁easier	-9.5906
▁Just	-9.59064
▁considered	-9.5907
▁else	-9.59077
▁moving	-9.59082
▁estimates	-9.5909
▁danger	-9.59322
▁Dur	-9.59493
▁legislation	-9.59601
▁intelligence	-9.59603
▁Beijing	-9.59608
▁welfare	-9.59635
▁undermine	-9.59733
▁ended	-9.5975
▁appropriate	-9.59774
▁ensur	-9.59776
▁anyone	-9.59879
▁incomes	-9.59903
▁experienced	-9.59949
▁represent	-9.60058
▁presidency	-9.60144
▁50%	-9.60149
▁everywhere	-9.6015
old	-9.60165
▁Democratic	-9.60168
▁peoples	-9.60212
▁Cold	-9.60212
▁19	-9.60222
▁al	-9.60425
▁dynamic	-9.60431
which	-9.60443
▁Nor	-9.60498
▁cover	-9.60634
▁excess	-9.60636
▁Those	-9.60691
▁absence	-9.60691
ac	-9.60693
▁justice	-9.60707
▁aim	-9.60727
▁trends	-9.60881
▁threats	-9.60972
▁sufficient	-9.61014
▁controls	-9.61208
▁John	-9.61237
▁genuine	-9.6124
▁1970	-9.61242
▁raised	-9.61364
▁places	-9.6137
N	-9.6152
▁whom	-9.61537
▁coalition	-9.61552
▁adjustment	-9.61568
▁drugs	-9.61681
▁Revolution	-9.61738
▁Washington	-9.61804
▁territorial	-9.61804
ol	-9.6181
of	-9.61891
▁practice	-9.62115
▁inevitable	-9.62348
▁otherwise	-9.62348
▁robust	-9.62348
▁2006	-9.62351
▁smaller	-9.62555
▁Clinton	-9.62671
▁resource	-9.62724
▁name	-9.62866
▁Why	-9.62923
▁CO	-9.62932
▁dis	-9.62957
▁combined	-9.62963
▁involved	-9.62978
▁sea	-9.63236
▁disaster	-9.6324
▁blame	-9.63352
▁Or	-9.63357
▁patients	-9.63396
▁Britains	-9.63418
▁January	-9.63469
▁Rather	-9.6347
▁objectives	-9.63628
com	-9.63749
▁hundreds	-9.63813
▁deeply	-9.63903
▁solar	-9.64034
▁medium	-9.64034
▁himself	-9.64036
▁driving	-9.64051
▁track	-9.64089
▁declared	-9.64105
▁f	-9.64126
▁goes	-9.64188
▁base	-9.64203
▁views	-9.6431
▁profits	-9.6432
level	-9.64354
▁Taiwan	-9.64602
▁HIV	-9.64604
▁everything	-9.64608
▁Hong	-9.64609
▁due	-9.64633
ia	-9.64715
▁stage	-9.64853
▁asked	-9.64927
▁tensions	-9.65054
&	-9.65173
▁CAMBRIDGE	-9.65173
▁credibility	-9.65173
▁implies	-9.65173
▁lesson	-9.65197
▁establishment	-9.65275
▁decided	-9.65304
et	-9.65364
▁played	-9.65473
▁arms	-9.65475
▁bubble	-9.65557
▁imbalances	-9.65674
me	-9.65693
▁ministers	-9.65733
▁promoting	-9.65748
▁populations	-9.6575
▁priority	-9.65761
▁ongoing	-9.65833
▁worked	-9.65843
▁draw	-9.65926
▁affairs	-9.66026
bank	-9.66086
▁offers	-9.66111
▁terrorist	-9.66138
▁am	-9.66183
▁creditors	-9.66218
▁debts	-9.6622
▁Vietnam	-9.66326
▁overcome	-9.66326
▁various	-9.66327
▁greenhouse	-9.66327
▁Third	-9.66333
▁poorest	-9.66391
▁caus	-9.66429
▁Germanys	-9.66547
▁sharply	-9.66568
▁50	-9.66726
▁field	-9.66747
▁leverage	-9.66762
▁explain	-9.66966
▁wars	-9.67016
▁differences	-9.67118
ang	-9.67234
▁ask	-9.67417
▁fallen	-9.6754
▁visit	-9.67558
ut	-9.67592
▁proved	-9.67658
▁wind	-9.67718
▁sharp	-9.67731
▁lessons	-9.6774
▁lines	-9.67894
▁generally	-9.67939
▁faced	-9.68056
▁Health	-9.68086
▁March	-9.68122
▁determine	-9.68324
▁implications	-9.68344
▁failing	-9.68359
G	-9.68471
▁objective	-9.68512
▁talk	-9.68514
▁formal	-9.68608
▁green	-9.68662
▁won	-9.68665
▁diplomacy	-9.68672
▁resistance	-9.68686
▁typically	-9.6876
▁link	-9.68787
▁expanding	-9.68857
▁join	-9.68903
▁guarantee	-9.68967
▁"	-9.68976
▁Peoples	-9.68979
L	-9.68995
▁weeks	-9.69092
▁resolve	-9.69128
▁room	-9.69312
▁mostly	-9.69329
▁DC	-9.69346
▁tried	-9.69366
▁includes	-9.6943
▁reported	-9.69551
vi	-9.69631
quite	-9.69686
▁proposal	-9.69713
▁mechanism	-9.69713
cing	-9.69761
▁hours	-9.69765
▁potentially	-9.69843
▁October	-9.69866
▁expensive	-9.69866
▁sought	-9.69867
▁g	-9.69883
▁exit	-9.6989
▁mainly	-9.69917
▁cutting	-9.69925
▁forms	-9.70091
▁Can	-9.70214
▁shape	-9.70324
▁language	-9.70335
▁Erdoğan	-9.70469
▁gender	-9.70469
▁unique	-9.70469
▁innovative	-9.70473
▁heavily	-9.70477
▁percentage	-9.7049
▁options	-9.70572
▁emerged	-9.70592
▁usually	-9.70605
run	-9.70658
ter	-9.70751
▁actors	-9.70918
▁firm	-9.71006
▁eight	-9.7106
▁Court	-9.71075
do	-9.71121
▁mechanisms	-9.7123
▁technical	-9.71442
▁nations	-9.71499
▁conference	-9.71551
▁$1	-9.7162
▁Republic	-9.71652
▁participation	-9.71685
▁profound	-9.71687
▁mandate	-9.71688
▁told	-9.71716
tion	-9.71813
right	-9.71845
▁event	-9.7193
ical	-9.71947
▁adopt	-9.71969
▁figure	-9.71993
▁cycle	-9.72226
▁stands	-9.72253
▁volatility	-9.72298
▁gone	-9.72333
▁inadequate	-9.72333
▁Here	-9.72443
▁apply	-9.72455
▁borrow	-9.72598
▁Under	-9.72652
▁front	-9.72803
▁purpose	-9.72818
▁partner	-9.72826
ts	-9.72863
▁offered	-9.72966
▁virtually	-9.72981
for	-9.73166
▁immigrants	-9.73175
▁generations	-9.73196
▁mention	-9.73213
▁ties	-9.73237
▁hands	-9.73356
▁mistake	-9.73359
▁b	-9.73423
▁commitments	-9.73543
▁heavy	-9.7355
▁credible	-9.73553
▁list	-9.73811
▁trigger	-9.73831
fuel	-9.73915
▁upon	-9.73926
▁court	-9.74063
▁combination	-9.74161
▁multi	-9.74171
▁2020	-9.74173
▁fears	-9.74207
▁whereas	-9.74355
▁2017	-9.74404
▁decide	-9.74647
▁degree	-9.74696
▁renewable	-9.7471
▁yield	-9.74747
▁Beyond	-9.7479
▁relevant	-9.7479
▁practical	-9.7479
▁Poland	-9.74792
▁ruling	-9.74793
▁flow	-9.74823
▁Korean	-9.74968
▁Then	-9.75039
mo	-9.75054
▁hopes	-9.75078
carbon	-9.75167
▁permanent	-9.75197
mi	-9.75264
ng	-9.75312
▁unsustainable	-9.75423
▁aggregate	-9.75449
▁tell	-9.75474
more	-9.75479
▁suffering	-9.75503
ha	-9.75524
▁desire	-9.75915
▁engage	-9.75919
▁transactions	-9.75925
▁guide	-9.76059
▁Investment	-9.7606
▁Two	-9.7606
▁pursuing	-9.7606
▁territory	-9.7606
▁grew	-9.76061
▁Still	-9.76064
▁adapt	-9.76075
▁described	-9.76127
▁whatever	-9.76212
▁processes	-9.76326
▁abandon	-9.7637
▁movements	-9.76383
▁harm	-9.76467
am	-9.76493
▁OECD	-9.76701
▁planning	-9.76742
▁learning	-9.76808
▁organization	-9.77129
▁producers	-9.77186
▁discussion	-9.77298
▁4	-9.77304
▁2000	-9.77308
▁Le	-9.77341
▁Fortunately	-9.77346
▁Hamas	-9.77346
▁2004	-9.7735
▁2030	-9.77351
▁house	-9.77351
▁30%	-9.77353
▁Singapore	-9.77354
▁dramatically	-9.77354
▁deflation	-9.77356
▁narrow	-9.77412
▁prepared	-9.77434
mir	-9.77531
▁prospect	-9.77561
▁bear	-9.77678
▁type	-9.77973
ti	-9.77984
▁Treasury	-9.77996
▁declining	-9.77996
▁stay	-9.78054
▁July	-9.78071
lying	-9.78135
▁divided	-9.78145
20	-9.78146
▁import	-9.78203
▁investing	-9.78364
ted	-9.78368
▁elites	-9.78511
▁intellectual	-9.78609
▁integrated	-9.78714
▁turning	-9.78715
▁introduced	-9.78831
▁7	-9.78958
▁developments	-9.79026
▁Arabia	-9.79123
ny	-9.792
▁strength	-9.79227
iv	-9.79295
▁army	-9.79327
▁Ma	-9.79352
▁born	-9.79381
▁troops	-9.79511
▁tough	-9.79556
▁surprise	-9.79824
▁solve	-9.79846
▁Is	-9.79872
▁person	-9.79903
▁temporary	-9.7997
▁ethnic	-9.79973
▁conventional	-9.8
▁body	-9.80015
▁deeper	-9.80093
▁youth	-9.80099
▁holding	-9.80183
▁useful	-9.80249
▁recognized	-9.80278
▁immediately	-9.80342
▁joint	-9.80449
▁Australia	-9.80553
ex	-9.80563
▁belief	-9.80617
▁electoral	-9.80636
▁summer	-9.80637
▁continuing	-9.80659
▁happens	-9.80827
▁ban	-9.80991
first	-9.8106
▁2005	-9.81132
▁signs	-9.81157
ty	-9.81249
▁paper	-9.81295
▁Islam	-9.81313
▁faith	-9.81315
▁choices	-9.81326
▁operate	-9.81342
▁positions	-9.81461
▁grown	-9.81514
▁v	-9.81536
▁Unions	-9.81555
getting	-9.8162
▁equally	-9.81679
▁learned	-9.81733
▁trouble	-9.81836
▁candidates	-9.8185
▁remaining	-9.81957
▁ambitious	-9.81983
▁destruction	-9.81983
▁perspective	-9.81983
▁transparency	-9.81983
▁40%	-9.81989
▁published	-9.8207
▁addressed	-9.82085
land	-9.82105
▁corporations	-9.82165
▁promised	-9.82205
ine	-9.82223
▁annually	-9.82289
▁complete	-9.82324
▁car	-9.82336
▁plants	-9.82368
▁numbers	-9.82436
▁tru	-9.8257
tic	-9.82623
▁losing	-9.82663
if	-9.8267
▁sustainability	-9.82671
▁drop	-9.82672
▁Other	-9.82677
▁twentieth	-9.82678
▁worry	-9.82756
▁send	-9.82769
▁1%	-9.82785
po	-9.82788
ning	-9.82863
▁aggressive	-9.83149
▁25	-9.83202
ated	-9.83206
▁reflected	-9.83313
▁issued	-9.83324
▁encouraging	-9.83348
▁ordinary	-9.83348
▁physical	-9.83348
▁quantitative	-9.83368
▁analysis	-9.83407
▁Syrian	-9.83556
▁ga	-9.83638
▁starting	-9.8365
▁11	-9.83733
class	-9.8379
▁confront	-9.83791
▁wonder	-9.83952
▁Committee	-9.84038
▁Depression	-9.84038
▁studies	-9.84038
▁priorities	-9.8404
▁occurred	-9.84042
▁1930	-9.84042
▁violent	-9.84063
▁bound	-9.84064
▁Our	-9.84085
ll	-9.84119
▁speak	-9.84182
▁bringing	-9.84434
▁impose	-9.84449
▁requirements	-9.84577
▁assume	-9.84626
▁works	-9.8464
▁reports	-9.84671
▁Indonesia	-9.84732
▁equivalent	-9.84732
▁begun	-9.84733
wing	-9.84759
▁round	-9.84807
▁critics	-9.84853
▁purchases	-9.84872
▁battle	-9.85059
▁cheap	-9.85129
European	-9.85192
▁unlike	-9.85204
▁knows	-9.85233
▁emerge	-9.85354
▁Chile	-9.85387
▁demographic	-9.85435
▁meant	-9.85586
▁observers	-9.85624
▁apparent	-9.8589
io	-9.86084
time	-9.86111
▁England	-9.86136
▁chronic	-9.86136
▁exactly	-9.86175
▁product	-9.8619
▁conservative	-9.86232
▁contributed	-9.86393
▁represents	-9.86476
▁launch	-9.86515
▁exceed	-9.8663
▁playing	-9.86644
▁imply	-9.8673
▁gained	-9.86793
▁believed	-9.86812
▁species	-9.86846
▁quo	-9.86847
▁ready	-9.86903
W	-9.86942
▁5%	-9.86957
▁inclusive	-9.86958
▁phase	-9.87012
▁defeat	-9.87068
▁6	-9.87069
▁seriously	-9.87245
▁Abe	-9.87344
▁restore	-9.87485
▁twenty	-9.87559
▁Ebola	-9.87559
▁Kong	-9.87643
▁team	-9.87644
▁correct	-9.87689
▁constitutional	-9.87742
▁economically	-9.87864
▁related	-9.88019
gas	-9.88054
▁embrace	-9.88134
▁added	-9.88154
▁ideal	-9.88223
▁add	-9.8827
▁senior	-9.88279
▁Partnership	-9.88279
▁modest	-9.88282
oriented	-9.88289
▁liberalization	-9.883
▁parliament	-9.88346
▁healthy	-9.88359
▁pattern	-9.88371
▁killed	-9.88411
▁board	-9.88439
fi	-9.88757
The	-9.88766
▁contain	-9.88804
▁Portugal	-9.89003
▁achieving	-9.89003
▁Growth	-9.89007
▁emergence	-9.89025
▁meaning	-9.891
▁3%	-9.89111
▁facilitate	-9.89127
▁contracts	-9.8913
▁Koreas	-9.89358
▁looks	-9.89407
▁protests	-9.89428
▁authoritarian	-9.89434
▁victims	-9.89465
▁urgent	-9.89491
▁eliminate	-9.89589
▁welcome	-9.89589
▁enhance	-9.89589
▁Palestinians	-9.89658
▁shock	-9.89679
ating	-9.89711
▁possibly	-9.89733
▁criticism	-9.89735
▁80%	-9.89738
▁identity	-9.89741
▁pension	-9.89814
▁accountability	-9.89835
ors	-9.89852
▁fixed	-9.89897
▁My	-9.90015
▁imp	-9.90079
▁imposed	-9.90123
▁substantially	-9.90142
▁10	-9.90161
▁dramatic	-9.90461
▁Like	-9.90466
▁60%	-9.90474
▁bottom	-9.90501
▁Wall	-9.90518
▁humans	-9.90821
exchange	-9.90964
▁signed	-9.90969
▁users	-9.90976
▁40	-9.90985
▁active	-9.91045
▁wide	-9.91047
▁illegal	-9.91209
▁cyber	-9.91225
▁although	-9.91319
▁mortgage	-9.91344
▁journalists	-9.91599
▁fewer	-9.916
om	-9.91618
▁destroy	-9.91624
▁reaching	-9.9177
▁affected	-9.91788
bo	-9.91868
ni	-9.91902
▁Brussels	-9.91955
▁Kosovo	-9.91955
▁Sweden	-9.91955
▁dialogue	-9.91955
▁Energy	-9.9196
▁AIDS	-9.92053
▁candidate	-9.92103
▁protecting	-9.9219
▁transfer	-9.92225
▁3	-9.92305
▁approaches	-9.92325
▁disputes	-9.92334
▁Putins	-9.92379
▁suffered	-9.92429
border	-9.92467
▁transfers	-9.92554
ability	-9.92568
▁concerned	-9.92685
▁asylum	-9.92707
▁opposite	-9.92707
▁wake	-9.92709
▁2003	-9.92712
▁attractive	-9.92712
▁accompanied	-9.92713
▁Canada	-9.92719
▁Unti	-9.92726
▁towards	-9.92729
▁race	-9.92746
▁moderate	-9.92794
ial	-9.92836
▁figures	-9.92865
▁incentive	-9.92867
▁elite	-9.92867
▁identify	-9.92869
▁armed	-9.9287
▁engaged	-9.92877
▁proposals	-9.929
ern	-9.93111
▁couple	-9.93123
▁Governments	-9.93306
▁Google	-9.93465
▁recognition	-9.93477
▁stake	-9.93635
▁weight	-9.93817
country	-9.9398
crisis	-9.93981
▁$3	-9.9418
▁Plan	-9.94223
▁combat	-9.94228
▁Vladi	-9.94228
▁weather	-9.94244
▁borrowers	-9.94264
▁concept	-9.94383
▁Italian	-9.94402
▁platforms	-9.94414
▁nationalism	-9.94418
▁network	-9.94427
▁setting	-9.94547
though	-9.94693
▁networks	-9.94814
▁negotiate	-9.94858
▁aging	-9.94939
▁historic	-9.94942
▁costly	-9.94965
▁Act	-9.94973
▁Jinping	-9.94998
▁remarkable	-9.94998
▁Road	-9.95003
▁April	-9.95006
▁mobile	-9.95006
▁Will	-9.95007
off	-9.95017
▁engagement	-9.9502
▁implementation	-9.95034
▁ethical	-9.95047
▁compromise	-9.95049
▁showed	-9.95142
▁girls	-9.95173
▁gradually	-9.95177
ities	-9.95222
▁structures	-9.9543
▁surprising	-9.95526
▁friends	-9.95589
U	-9.9562
▁Foreign	-9.95773
▁depreciation	-9.95773
▁August	-9.9578
▁withdrawal	-9.95806
▁pull	-9.95865
▁paying	-9.95947
▁2	-9.95963
▁defined	-9.96077
▁determined	-9.96103
▁leads	-9.96269
Pacific	-9.96305
ship	-9.96339
▁accounting	-9.96438
▁legitimate	-9.96554
▁supplies	-9.96554
▁wanted	-9.96601
▁Iranian	-9.96802
▁notably	-9.96819
▁2011,	-9.97022
x	-9.97046
▁previously	-9.9707
free	-9.97097
▁billions	-9.97296
▁Nobel	-9.97341
▁Institute	-9.97342
▁northern	-9.97352
▁equality	-9.97381
red	-9.9739
▁lay	-9.97491
▁alliance	-9.97571
▁stress	-9.97755
▁appeal	-9.97783
▁expanded	-9.97917
▁survive	-9.97989
▁ex	-9.98058
low	-9.98065
▁offering	-9.98084
▁Shanghai	-9.98135
▁managing	-9.98135
▁WASHINGTON	-9.98138
▁centers	-9.98147
▁extra	-9.98176
▁intended	-9.98177
▁exposed	-9.98183
▁perceived	-9.98183
▁9	-9.98238
▁Philippines	-9.98272
▁resolution	-9.98395
▁opponents	-9.98448
▁institution	-9.9867
▁nationalist	-9.98878
▁Be	-9.98882
▁accepted	-9.98918
▁Nonetheless	-9.98935
▁religion	-9.98935
▁catch	-9.9895
▁criminal	-9.99005
▁closely	-9.99007
▁researchers	-9.99072
▁humanity	-9.99095
▁managers	-9.99159
▁sentiment	-9.99185
▁sales	-9.99394
▁peak	-9.99405
pe	-9.99448
▁constitution	-9.99559
▁peaceful	-9.99561
▁shocks	-9.99618
ging	-9.99635
▁block	-9.99671
▁preventing	-9.99699
▁humanitarian	-9.99742
▁BRICS	-9.99746
▁Lebanon	-9.99749
▁promising	-9.99749
▁periphery	-9.99773
▁mis	-9.99799
▁Li	-9.99802
▁surely	-9.99819
▁supporting	-9.99838
▁doesnt	-9.99886
▁employees	-9.99892
▁occur	-10
▁Banks	-10
▁Muslims	-10.0006
▁included	-10.002
▁threatened	-10.0028
▁Gaza	-10.0055
▁centuries	-10.0055
▁nine	-10.0056
▁restrictions	-10.0056
▁none	-10.0065
▁ignore	-10.0072
▁search	-10.0077
all	-10.0079
wide	-10.0099
▁assess	-10.0102
sh	-10.0107
na	-10.0112
intensive	-10.0112
driven	-10.0113
▁essentially	-10.0121
▁Social	-10.0121
▁moved	-10.0123
▁sheets	-10.0126
▁offset	-10.0137
▁legacy	-10.0137
▁necessarily	-10.0137
▁scope	-10.0137
▁survival	-10.0137
▁solidarity	-10.0138
▁parliamentary	-10.0139
third	-10.0143
▁warned	-10.0151
▁spur	-10.0153
▁concluded	-10.0154
▁pressures	-10.016
▁5	-10.0162
▁sort	-10.0167
▁travel	-10.0183
▁educational	-10.0185
ned	-10.019
▁reserve	-10.0194
▁tackle	-10.0203
▁accelerate	-10.0206
▁17	-10.0216
per	-10.0219
▁presidents	-10.0219
hether	-10.022
▁devastating	-10.022
▁undermining	-10.022
▁Countries	-10.022
▁stance	-10.0221
▁primarily	-10.0221
▁proportion	-10.0227
▁pushing	-10.0233
▁rough	-10.0245
▁dream	-10.025
he	-10.0257
▁delay	-10.0271
debt	-10.0278
▁retain	-10.0281
▁Libya	-10.0287
▁imagine	-10.0294
▁Facebook	-10.0303
▁Further	-10.0303
▁Macron	-10.0303
▁table	-10.031
▁opening	-10.0315
▁targeted	-10.0315
▁exception	-10.0315
▁rejected	-10.0327
▁Ra	-10.0328
▁crimes	-10.0331
▁imperative	-10.0335
▁neighbor	-10.034
▁supporters	-10.0341
▁closed	-10.0357
▁initial	-10.0363
▁universities	-10.0387
▁rose	-10.0387
▁2002	-10.0388
▁emergency	-10.0389
▁understood	-10.0391
▁sharing	-10.0402
▁exist	-10.0404
▁package	-10.0423
▁players	-10.0432
▁die	-10.0441
▁pass	-10.0445
▁instruments	-10.0451
rich	-10.0456
▁treat	-10.0459
▁super	-10.0461
▁tests	-10.0467
ger	-10.0471
▁shifting	-10.0472
▁Street	-10.0472
▁nominal	-10.0472
▁populism	-10.0472
▁reputation	-10.0472
▁presence	-10.0472
▁securities	-10.0472
▁coordination	-10.0473
▁gold	-10.0477
▁Big	-10.0479
▁QE	-10.0479
▁weaker	-10.049
▁demonstrated	-10.0493
▁alike	-10.05
▁California	-10.0507
▁wave	-10.0508
▁protest	-10.0508
▁contributions	-10.0512
east	-10.0512
▁$2	-10.0517
▁vehicles	-10.0524
▁tariffs	-10.0531
▁ill	-10.0555
▁expense	-10.0558
▁Paul	-10.0558
▁Human	-10.0558
▁ownership	-10.0559
▁However	-10.0559
▁momentum	-10.0559
▁capable	-10.056
▁Once	-10.0562
▁creates	-10.0591
▁Nigeria	-10.0633
over	-10.0641
▁Kremlin	-10.0644
▁stagnation	-10.0644
▁bankruptcy	-10.0644
▁operating	-10.0644
▁material	-10.0644
▁Chancellor	-10.0645
▁define	-10.0655
▁courts	-10.0657
▁threatening	-10.0662
▁bubbles	-10.0674
▁constraints	-10.0676
▁explanation	-10.0682
▁Change	-10.0696
▁professional	-10.0696
▁match	-10.0697
trade	-10.0706
▁adequate	-10.0707
▁replace	-10.0714
▁budgets	-10.0728
▁downturn	-10.0732
▁deposits	-10.0732
▁minority	-10.0732
▁regarded	-10.0733
▁compete	-10.0734
▁risky	-10.0734
▁index	-10.0736
▁prevail	-10.0736
op	-10.0741
▁Forum	-10.0742
▁entrepreneurs	-10.0744
▁improvement	-10.0776
▁advances	-10.0776
▁joined	-10.0779
▁adjust	-10.0784
▁innovations	-10.0792
ton	-10.0797
▁plant	-10.08
▁Bangladesh	-10.0806
▁surge	-10.0806
▁content	-10.0818
▁weakness	-10.082
▁downward	-10.0822
▁regardless	-10.0822
reaching	-10.0824
▁seeming	-10.0838
▁finding	-10.0838
mb	-10.0839
▁deals	-10.0839
▁systemic	-10.0855
▁original	-10.0867
▁60	-10.0869
▁100	-10.0876
▁bold	-10.0877
▁obligations	-10.088
China	-10.0882
▁corrupt	-10.0906
▁ideological	-10.0907
▁series	-10.0907
▁via	-10.0908
▁coverage	-10.0909
▁white	-10.0915
▁wont	-10.0915
▁informal	-10.0917
▁dependent	-10.0917
▁vaccines	-10.0926
▁administrations	-10.0927
▁failures	-10.0946
▁allows	-10.095
▁settlement	-10.0951
▁People	-10.0952
▁Rights	-10.096
▁13	-10.0962
▁says	-10.0971
▁wish	-10.0992
ho	-10.0994
▁capabilities	-10.0996
▁1960	-10.0997
▁90%	-10.0997
▁transparent	-10.0997
▁chief	-10.0999
▁claimed	-10.1001
▁strongly	-10.1003
▁inevitably	-10.1009
▁reasonable	-10.1012
▁mark	-10.1017
▁dispute	-10.1026
▁wait	-10.1029
▁enabled	-10.1039
em	-10.1046
▁customers	-10.1047
▁counterparts	-10.1048
▁profit	-10.1048
ru	-10.1048
▁linked	-10.1052
ens	-10.1066
vis	-10.1073
▁High	-10.1081
▁Angel	-10.1082
▁twice	-10.1086
▁trap	-10.1086
▁2050	-10.1087
▁realize	-10.109
▁Z	-10.1093
▁applied	-10.1097
▁calling	-10.1097
▁survey	-10.1101
▁wealthy	-10.1117
▁served	-10.112
ions	-10.1125
▁partnership	-10.1133
▁suit	-10.1147
▁Egypts	-10.1154
▁warning	-10.1159
▁prefer	-10.1174
▁kept	-10.1177
▁viable	-10.1178
▁Senate	-10.1178
▁woman	-10.1179
▁workforce	-10.118
gu	-10.1182
▁displaced	-10.1183
▁speed	-10.1189
▁released	-10.1191
▁dominated	-10.1192
▁older	-10.12
▁Un	-10.1206
▁foster	-10.121
▁completely	-10.121
▁bill	-10.1223
▁conduct	-10.1249
hi	-10.1261
rights	-10.1263
▁aftermath	-10.1269
▁Spanish	-10.1269
▁wrote	-10.1269
▁Stability	-10.1269
▁consolidation	-10.127
▁resort	-10.127
▁fragile	-10.1272
▁carried	-10.1276
▁opposed	-10.1282
bi	-10.1284
ping	-10.1289
▁revealed	-10.1298
▁terrorists	-10.1301
▁looking	-10.1316
▁contribution	-10.1319
ib	-10.1322
style	-10.1335
▁acknowledge	-10.1347
▁commit	-10.1356
▁Labour	-10.1362
▁70%	-10.1362
▁divide	-10.1362
▁manipulation	-10.1362
▁feed	-10.1375
▁participants	-10.1376
ring	-10.1377
▁repeatedly	-10.1378
we	-10.1381
ba	-10.1395
▁thanks	-10.1398
governmental	-10.1399
▁standing	-10.1401
▁harder	-10.1407
▁implementing	-10.1408
▁broadly	-10.1412
▁talent	-10.1413
▁trial	-10.1416
▁Brazils	-10.142
▁norms	-10.1421
price	-10.1428
▁painful	-10.1431
▁14	-10.1433
▁arrangements	-10.1437
▁Su	-10.1442
▁escape	-10.1446
▁strengthened	-10.145
ns	-10.1451
▁crash	-10.1452
·	-10.1455
▁David	-10.1455
▁concrete	-10.1455
▁multiple	-10.1455
▁tobacco	-10.1455
▁undoubted	-10.1455
▁flexibility	-10.1455
ONG	-10.1455
▁repression	-10.1455
▁progressive	-10.1466
▁chains	-10.1474
mp	-10.1477
▁buying	-10.1483
quality	-10.1488
▁globally	-10.1489
▁Kenya	-10.1492
▁charge	-10.1494
▁delivered	-10.1525
os	-10.1538
estate	-10.1548
▁Harvard	-10.1549
▁diverse	-10.1549
▁enabling	-10.1549
▁latter	-10.1549
▁version	-10.1554
▁votes	-10.1555
ide	-10.1582
▁returned	-10.1583
▁pursued	-10.159
spite	-10.1599
▁logic	-10.1604
EL	-10.1604
▁UKs	-10.161
▁review	-10.1612
▁blow	-10.1617
▁2011	-10.1617
▁successfully	-10.163
▁blood	-10.1638
▁farm	-10.1642
▁atmosphere	-10.1645
▁Sudan	-10.1645
▁hurt	-10.1645
▁daily	-10.1645
▁Myanmar	-10.1646
▁relief	-10.1646
▁bigger	-10.1647
▁deny	-10.1648
▁inspire	-10.1649
▁advantages	-10.1652
▁slower	-10.1662
▁read	-10.1671
▁estate	-10.1672
▁aims	-10.1697
including	-10.1717
▁consistent	-10.1717
▁perfect	-10.1717
▁interventions	-10.1719
▁reverse	-10.1726
▁balanced	-10.1733
▁polls	-10.1734
▁write	-10.1736
▁transport	-10.1739
▁cars	-10.174
Sahara	-10.1741
▁February	-10.1741
▁Research	-10.1741
▁valuable	-10.1741
▁variety	-10.1741
▁Spring	-10.1741
▁Me	-10.1744
▁TB	-10.1745
di	-10.1751
▁educated	-10.1756
▁properly	-10.1762
▁unity	-10.1762
▁generated	-10.1772
▁encouraged	-10.1775
▁Ben	-10.1796
▁exploit	-10.1802
▁$100	-10.1802
▁newly	-10.1808
GDP	-10.1813
▁Argentinas	-10.1819
▁elements	-10.1828
▁uncertain	-10.1838
▁Through	-10.1838
▁challenging	-10.1838
▁emphasis	-10.1838
▁minimum	-10.1838
▁negotiating	-10.1838
reliance	-10.1838
▁Policy	-10.1839
▁nineteenth	-10.1841
▁fulfill	-10.1843
▁posed	-10.1856
▁fate	-10.1859
thirds	-10.1865
▁relationships	-10.1867
▁root	-10.1867
▁leaves	-10.1872
go	-10.1874
▁acting	-10.1874
▁voted	-10.1891
▁improvements	-10.1892
▁conclusion	-10.1898
▁provision	-10.1898
▁narrative	-10.1899
▁zone	-10.1905
end	-10.1911
ward	-10.1919
▁patterns	-10.1923
▁Ethiopia	-10.1924
▁donors	-10.1933
▁Political	-10.1936
▁female	-10.1936
▁struggling	-10.1936
▁turmoil	-10.1936
▁caught	-10.1936
▁prosperous	-10.1936
▁mainstream	-10.1936
▁generating	-10.1938
▁Sub	-10.1942
▁effectiveness	-10.1949
▁yields	-10.195
day	-10.1954
▁rarely	-10.1959
▁constitute	-10.1965
▁conducted	-10.1971
▁antibiotics	-10.1972
▁lie	-10.1973
▁Venezuela	-10.1978
▁alternatives	-10.1981
▁signal	-10.1985
▁severely	-10.1994
▁secular	-10.1996
▁parents	-10.1998
▁strike	-10.1998
▁mix	-10.2002
▁ending	-10.2003
growth	-10.201
▁actual	-10.201
▁weaken	-10.2011
▁stimulate	-10.202
▁oppose	-10.2021
qu	-10.2023
▁killing	-10.203
▁micro	-10.2035
▁Peace	-10.2035
▁Sarkozy	-10.2035
▁wisdom	-10.2035
▁shale	-10.2035
▁Defense	-10.2036
▁dependence	-10.2037
party	-10.2041
▁holds	-10.2074
so	-10.2089
▁Cameron	-10.2099
▁murder	-10.2101
▁pointed	-10.2106
▁mission	-10.2106
▁slowing	-10.2117
]	-10.2135
▁Turkish	-10.2135
▁purchasing	-10.2135
▁statistics	-10.2135
▁Thailand	-10.2135
▁Foundation	-10.2135
▁Unlike	-10.2135
▁mobility	-10.2136
▁somewhat	-10.2136
▁temperatures	-10.2137
▁producing	-10.2138
▁resist	-10.2141
starters	-10.2143
▁tightening	-10.2159
▁Mar	-10.2162
▁links	-10.2162
▁poorer	-10.2179
▁Hu	-10.2181
▁unit	-10.2188
pro	-10.2192
▁voice	-10.2202
▁loan	-10.2202
ative	-10.2217
▁populists	-10.223
▁terror	-10.2235
responsibilities	-10.2236
▁Afghan	-10.2236
▁Netherlands	-10.2236
▁resilience	-10.2236
▁Agency	-10.2236
▁Gulf	-10.2236
▁25%	-10.2237
▁inflows	-10.2237
▁flexible	-10.2238
our	-10.2243
▁stopped	-10.2245
ie	-10.2267
art	-10.2279
▁abuse	-10.229
▁express	-10.2303
▁devaluation	-10.2304
▁Islamist	-10.2306
▁declined	-10.2307
▁crime	-10.2307
▁suggested	-10.2308
▁risen	-10.231
aw	-10.2316
▁secret	-10.2335
▁expertise	-10.2338
▁Bill	-10.2338
▁Justice	-10.2338
▁spirit	-10.2341
ew	-10.2344
▁transform	-10.2345
▁Burma	-10.2352
▁policymaking	-10.2362
▁ignored	-10.2371
▁similarly	-10.2378
▁accord	-10.2382
mong	-10.2384
▁academic	-10.2408
▁computer	-10.2409
▁Serbia	-10.2434
ten	-10.2435
▁south	-10.2441
▁advice	-10.2441
▁worried	-10.2441
▁considerably	-10.2442
▁creative	-10.2443
▁barely	-10.2445
▁justify	-10.2446
▁wider	-10.2447
▁meetings	-10.2447
▁Kim	-10.245
▁cant	-10.2451
▁heard	-10.2457
▁expenditures	-10.2464
▁taxpayers	-10.2468
▁guarantees	-10.2469
▁smart	-10.2471
ub	-10.2479
line	-10.2481
▁treated	-10.2481
▁measured	-10.2482
▁exercise	-10.2498
▁fire	-10.2509
▁assessment	-10.2515
0,000	-10.2526
▁participate	-10.2531
▁capture	-10.2533
▁brutal	-10.2543
▁unwilling	-10.2545
▁Convention	-10.2545
▁Department	-10.2545
▁Robert	-10.2545
▁appreciation	-10.2546
▁Any	-10.2546
▁persistent	-10.2546
▁fueling	-10.2547
ible	-10.2548
▁reveal	-10.2557
▁frequently	-10.256
▁refuse	-10.2575
▁expressed	-10.2579
▁Xis	-10.2585
▁la	-10.2587
▁grave	-10.2596
▁discipline	-10.2606
▁enforce	-10.2607
▁attempts	-10.2612
▁cells	-10.2615
▁m	-10.2624
▁slowly	-10.2625
▁gradual	-10.2626
▁rare	-10.2626
▁rational	-10.2629
▁function	-10.2632
ke	-10.2634
▁shifts	-10.2635
▁damaging	-10.2651
▁eager	-10.2651
▁reluctant	-10.2651
▁curb	-10.2651
▁sophisticated	-10.2651
▁stories	-10.2651
▁2018	-10.2651
▁saw	-10.2652
▁Much	-10.2652
▁broken	-10.2654
K	-10.2659
▁None	-10.2661
▁responses	-10.2663
▁continents	-10.2663
▁carefully	-10.2671
▁someone	-10.2674
▁SOEs	-10.2683
▁united	-10.2692
EY	-10.27
ung	-10.2703
▁triggered	-10.2707
▁plac	-10.2708
▁Colombia	-10.2712
▁coup	-10.2712
▁Frances	-10.2713
▁dead	-10.2717
j	-10.2722
▁condition	-10.2724
▁absorb	-10.2725
▁executive	-10.2728
▁responded	-10.2734
▁decisive	-10.2734
▁fundamentally	-10.2753
▁conclude	-10.2754
upreme	-10.2757
▁steel	-10.2757
▁television	-10.2757
▁sent	-10.2759
▁routine	-10.2759
▁recover	-10.2762
▁meaningful	-10.2766
▁outright	-10.2774
▁dealing	-10.2775
ight	-10.2775
▁suddenly	-10.2776
▁Yes	-10.2781
▁preserve	-10.2782
▁saying	-10.2785
▁executives	-10.2786
▁charges	-10.2804
▁weakening	-10.2821
▁consequence	-10.2837
▁adverse	-10.2839
▁prompt	-10.2839
▁fit	-10.2842
▁statement	-10.2857
▁Blair	-10.2864
▁Group	-10.2864
▁experiencing	-10.2864
▁plenty	-10.2864
▁university	-10.2864
▁Law	-10.2867
▁renewed	-10.2872
▁convinced	-10.2876
▁attempting	-10.288
▁watch	-10.288
▁fourth	-10.2881
▁gives	-10.2898
pa	-10.29
▁publicly	-10.291
ons	-10.2912
▁heads	-10.2914
▁St	-10.2917
▁shareholders	-10.292
power	-10.2923
▁minds	-10.2932
▁argues	-10.2935
▁discuss	-10.2938
▁restrict	-10.2938
▁euros	-10.2942
ustainable	-10.2944
▁platform	-10.2947
▁quick	-10.2949
▁usual	-10.2953
▁mortgages	-10.2953
▁enjoy	-10.2962
▁cap	-10.2968
ese	-10.2972
▁Taliban	-10.2973
▁diversity	-10.2973
▁Sunni	-10.2973
▁impressive	-10.2973
▁genetic	-10.2974
▁extraordinary	-10.2975
▁false	-10.2975
que	-10.2979
▁simultaneously	-10.298
tri	-10.2992
▁assumed	-10.2996
We	-10.3004
▁happening	-10.3008
▁died	-10.3014
▁maintained	-10.3016
▁feature	-10.3035
▁opened	-10.3056
▁communication	-10.3058
▁reaction	-10.3059
▁runs	-10.3065
not	-10.3079
▁retail	-10.3081
▁Copenhagen	-10.3083
▁Democracy	-10.3083
▁flight	-10.3084
▁collaboration	-10.3084
▁Board	-10.3084
▁dominant	-10.3085
▁transportation	-10.3085
▁shadow	-10.3088
▁Five	-10.3089
▁Keynesian	-10.3091
istic	-10.3098
▁code	-10.3099
▁Goals	-10.3099
▁Mo	-10.3102
▁arguments	-10.3102
serving	-10.3111
▁got	-10.3115
▁benefited	-10.3122
▁indicators	-10.3145
▁separate	-10.3154
▁predicted	-10.3159
cu	-10.3167
▁ruled	-10.3169
▁vaccine	-10.317
▁expenditure	-10.317
▁Egyptian	-10.3172
▁ambitions	-10.3175
▁Constitution	-10.318
▁invested	-10.3181
▁payment	-10.3183
▁$4	-10.3183
▁mo	-10.3191
▁Public	-10.3194
▁nowadays	-10.3194
▁pool	-10.3194
▁problematic	-10.3194
▁staff	-10.3194
▁translate	-10.3194
▁1997	-10.3194
▁equipment	-10.3194
▁1950	-10.3195
▁manner	-10.3195
▁Clearly	-10.3196
▁enforcement	-10.32
▁Atlantic	-10.32
▁affordable	-10.32
▁White	-10.3202
▁mitigate	-10.3207
▁showing	-10.3208
▁7%	-10.321
▁coordinated	-10.3211
▁proven	-10.3212
ven	-10.3219
▁controlled	-10.322
▁resulted	-10.3223
▁fundamentals	-10.3227
▁weakened	-10.3231
▁apparently	-10.3233
▁tool	-10.3234
▁Ro	-10.3235
▁waste	-10.3236
sp	-10.3241
▁24	-10.3257
▁requir	-10.3258
▁involve	-10.3268
ave	-10.327
▁bolster	-10.3273
▁purchase	-10.3274
▁concerning	-10.3277
da	-10.3279
interest	-10.3282
▁image	-10.3283
cost	-10.3288
▁chain	-10.3288
▁Cuba	-10.3293
▁date	-10.3305
▁anniversary	-10.3307
▁phenomenon	-10.3307
▁remote	-10.3307
▁voting	-10.3307
▁awareness	-10.3308
▁malaria	-10.3309
▁st	-10.3309
▁complicated	-10.331
▁eastern	-10.3311
long	-10.3312
▁PBOC	-10.3312
▁selling	-10.3321
▁Con	-10.3322
ious	-10.3327
▁She	-10.3328
▁4%	-10.3329
ear	-10.3331
ud	-10.3331
▁consistently	-10.3335
▁rulers	-10.3336
▁command	-10.3337
▁V	-10.3338
▁urgently	-10.3345
ell	-10.3359
50	-10.3361
▁shares	-10.3375
▁assumption	-10.3398
▁proper	-10.3399
▁foundation	-10.3408
tax	-10.3417
▁cast	-10.3417
▁Euro	-10.342
▁BERKEL	-10.342
▁Hungary	-10.342
▁inclusion	-10.342
▁contributing	-10.342
▁felt	-10.342
▁minorities	-10.342
▁reliable	-10.3421
▁15%	-10.3421
▁rebalancing	-10.3422
▁Education	-10.3424
▁ease	-10.3425
▁eyes	-10.3426
▁poses	-10.3427
▁types	-10.3429
new	-10.3444
▁insufficient	-10.3447
▁initially	-10.3454
▁pressing	-10.3456
▁pain	-10.3468
▁red	-10.3472
▁stabilize	-10.3488
▁halt	-10.3502
growing	-10.351
▁contract	-10.3514
▁scheme	-10.3515
▁civilian	-10.3518
▁impos	-10.3527
6%	-10.3528
ner	-10.3533
▁Agreement	-10.3535
▁Assembly	-10.3535
▁ourselves	-10.3535
▁threshold	-10.3535
▁Center	-10.3535
▁sexual	-10.3535
▁multinational	-10.3536
▁virus	-10.3536
▁dominance	-10.3538
▁Free	-10.3538
▁urbanization	-10.3538
▁Every	-10.354
▁characterized	-10.354
▁favorable	-10.3542
ef	-10.3545
▁organized	-10.3555
ilk	-10.3562
▁removed	-10.3564
▁connected	-10.3566
.5	-10.3582
like	-10.3589
▁dangers	-10.3593
▁north	-10.3603
▁neo	-10.3608
ional	-10.361
▁bit	-10.3615
▁remember	-10.362
▁examples	-10.3621
▁demonstrate	-10.3622
▁Ho	-10.3622
▁tight	-10.3623
health	-10.3627
▁Christian	-10.3633
tar	-10.3634
▁overwhelming	-10.3639
▁Tibet	-10.3644
▁Keynes	-10.365
▁English	-10.3651
▁1989	-10.3651
▁Mediterranean	-10.3651
▁recognizing	-10.3651
▁compensation	-10.3652
▁pure	-10.3653
▁identified	-10.3653
ak	-10.3654
▁financed	-10.3654
▁black	-10.3655
▁remind	-10.3655
▁Palestine	-10.3656
▁sex	-10.3657
▁2000,	-10.366
▁surpluses	-10.3665
▁unions	-10.3668
▁earn	-10.3671
▁reject	-10.3673
▁gun	-10.368
▁undermined	-10.3682
▁governing	-10.3694
▁kinds	-10.3699
▁heat	-10.3712
ite	-10.3714
▁fine	-10.372
American	-10.3727
▁prevented	-10.3728
▁moves	-10.3734
adjusted	-10.3744
currency	-10.3744
▁subsequent	-10.3744
▁mobilize	-10.3754
▁notion	-10.3757
é	-10.3767
▁True	-10.3769
▁facilities	-10.3769
▁harsh	-10.3769
▁sold	-10.377
▁backlash	-10.377
▁reductions	-10.3773
▁realistic	-10.3774
nd	-10.3774
▁slightly	-10.3778
▁projected	-10.3779
▁homes	-10.3785
▁$5	-10.3788
▁foundations	-10.3793
▁trip	-10.3804
!	-10.381
▁engineering	-10.3814
▁foreigners	-10.3819
▁tradition	-10.3821
▁aware	-10.3834
▁inefficient	-10.384
▁exporters	-10.3842
▁accident	-10.385
▁accurate	-10.3863
▁ultimate	-10.3864
▁demanding	-10.3872
▁brings	-10.3874
ge	-10.3884
▁artificial	-10.3885
▁Bernanke	-10.3888
▁liabilities	-10.3888
▁Hill	-10.3888
▁brain	-10.3888
▁catastrophe	-10.3889
▁announcement	-10.3889
kin	-10.3893
▁discussions	-10.39
▁refused	-10.3919
▁backed	-10.3926
▁anger	-10.3928
▁doctors	-10.394
va	-10.395
▁helps	-10.3963
ster	-10.3974
▁arrest	-10.3975
down	-10.398
▁methods	-10.3986
▁component	-10.3994
▁prepare	-10.3994
▁camp	-10.3995
▁Pro	-10.4003
▁prison	-10.4006
▁Denmark	-10.4009
▁Malaysia	-10.4009
▁Deng	-10.401
▁badly	-10.4011
▁love	-10.4015
▁accused	-10.4022
▁City	-10.4023
▁passed	-10.4056
▁confident	-10.4056
▁adding	-10.4062
▁Pen	-10.4066
▁partnerships	-10.4068
▁abandoned	-10.4071
▁materials	-10.4077
che	-10.4094
4%	-10.4095
▁acute	-10.4105
▁representatives	-10.4108
tech	-10.4109
▁arise	-10.4109
▁gets	-10.411
▁bailout	-10.4119
▁word	-10.4122
▁adopting	-10.4126
▁Already	-10.413
▁Earth	-10.413
▁PARIS	-10.413
▁Power	-10.413
▁beneficial	-10.413
▁dropped	-10.4131
▁background	-10.4131
▁steady	-10.4132
▁Unless	-10.4132
▁albe	-10.4132
▁Norway	-10.4133
▁distress	-10.4134
▁planned	-10.4136
▁PR	-10.4136
▁16	-10.4139
▁comprise	-10.4151
?”	-10.4162
ow	-10.4166
▁analysts	-10.4167
▁con	-10.4169
wa	-10.4176
▁art	-10.418
ard	-10.4191
men	-10.4206
▁gaining	-10.4212
▁stocks	-10.4217
▁rein	-10.4221
▁appeared	-10.4226
mple	-10.4231
▁experiment	-10.4233
▁Tunisia	-10.424
▁father	-10.4242
▁perception	-10.4242
▁persuade	-10.4243
0%	-10.4248
▁map	-10.4248
▁solid	-10.4254
▁Berlin	-10.4254
▁automation	-10.4254
▁dilemma	-10.4254
▁surveillance	-10.4254
▁novel	-10.4254
▁convergence	-10.4254
▁books	-10.4255
▁familiar	-10.4257
▁slowed	-10.4257
▁modernization	-10.426
▁count	-10.4263
▁understandable	-10.4266
▁replaced	-10.4274
▁Dis	-10.4275
2%	-10.4275
▁negotiated	-10.4277
▁insist	-10.4284
▁train	-10.4287
▁perform	-10.4287
▁colleagues	-10.4289
▁internationally	-10.4289
▁statements	-10.4291
▁openly	-10.4293
▁seeks	-10.4294
▁forecast	-10.4306
▁streets	-10.4329
▁aside	-10.4338
▁collect	-10.4338
▁forest	-10.4358
▁attitudes	-10.4358
▁Trans	-10.4359
▁settle	-10.4362
ified	-10.4364
▁machine	-10.4368
▁indicate	-10.4373
stood	-10.4374
ans	-10.4377
▁basket	-10.4379
▁bureaucracy	-10.4379
▁pharmaceutical	-10.4379
▁vulnerability	-10.4379
▁minimize	-10.4379
▁compelling	-10.4379
▁unconventional	-10.4379
▁compound	-10.4379
minded	-10.438
▁treaties	-10.4381
▁comparable	-10.4381
▁depression	-10.4383
▁wellbeing	-10.4383
▁toxic	-10.4384
▁underway	-10.4384
▁contraction	-10.4385
▁machines	-10.4389
▁Brazilian	-10.4392
ence	-10.4402
▁en	-10.4403
▁greatly	-10.4431
ft	-10.4431
▁sh	-10.4444
▁Greeces	-10.4447
▁applications	-10.4462
▁2015.	-10.4473
ably	-10.4478
J	-10.4481
▁Jordan	-10.4499
▁missile	-10.45
▁dark	-10.4504
▁evolution	-10.4504
▁concentration	-10.4507
▁Georgia	-10.4508
▁communist	-10.4514
▁drawn	-10.4522
▁inside	-10.4531
▁apart	-10.454
▁mounting	-10.4541
▁absolute	-10.4545
way	-10.4546
▁surprisingly	-10.4546
▁fails	-10.4553
▁activists	-10.4557
▁lend	-10.4569
▁lacks	-10.4581
▁lenders	-10.4589
▁recall	-10.4597
▁debates	-10.4597
▁estimate	-10.4614
▁pose	-10.4616
▁Africans	-10.4632
▁check	-10.4633
▁honor	-10.4634
▁Should	-10.4634
▁comparison	-10.4634
▁knew	-10.4634
▁principal	-10.4634
▁pursuit	-10.4634
▁Brotherhood	-10.4634
▁discrimination	-10.4634
”)	-10.4635
▁scarce	-10.4635
▁invasion	-10.4636
▁SDR	-10.4636
▁approved	-10.4639
▁revolutionary	-10.4643
▁prolonged	-10.4643
▁reinforced	-10.4647
▁ran	-10.4648
▁didnt	-10.4652
▁eye	-10.4656
▁SDGs	-10.4663
▁missing	-10.4672
gainst	-10.4682
▁avoided	-10.4691
▁dynamics	-10.4695
V	-10.4695
▁27	-10.4699
▁BE	-10.47
▁entered	-10.4719
▁cooperate	-10.4726
▁sites	-10.4732
▁obstacles	-10.4735
sheet	-10.4739
▁considering	-10.474
national	-10.474
ily	-10.4741
▁famous	-10.4741
▁23	-10.4743
▁engine	-10.4749
ending	-10.4753
▁Kingdoms	-10.4754
▁La	-10.4761
RUSS	-10.4764
▁BEIJING	-10.4764
▁Food	-10.4764
▁Jews	-10.4764
▁outlook	-10.4764
▁picture	-10.4764
▁committee	-10.4764
▁generous	-10.4764
▁prominent	-10.4764
▁neighborhood	-10.4764
▁wall	-10.4764
▁hunger	-10.4764
▁dictatorship	-10.4765
▁winning	-10.4765
▁ceiling	-10.4767
▁Back	-10.4767
▁written	-10.4768
▁protectionism	-10.4768
▁sensitive	-10.4769
fa	-10.4769
▁driver	-10.4771
▁cheaper	-10.4775
▁targeting	-10.4775
▁introduce	-10.4777
▁sa	-10.4784
▁marked	-10.4787
such	-10.4791
▁skilled	-10.4794
▁U	-10.4802
▁Economists	-10.4811
▁500	-10.4813
▁chances	-10.4834
ped	-10.4841
▁presented	-10.485
▁par	-10.4858
▁confirm	-10.4862
energy	-10.487
tt	-10.4874
▁careful	-10.4877
▁torture	-10.4881
▁seats	-10.4883
▁object	-10.4891
▁stem	-10.4891
▁medicine	-10.4892
▁temperature	-10.4892
ake	-10.4894
▁autonomy	-10.4895
▁catastrophic	-10.4895
▁empire	-10.4895
▁liberty	-10.4895
▁trajectory	-10.4895
▁numerous	-10.4895
▁exposure	-10.4895
▁Gates	-10.4895
▁existence	-10.4896
▁grand	-10.4898
ca	-10.4906
▁concentrated	-10.4908
▁openness	-10.4909
▁enacted	-10.4916
king	-10.4917
▁mistakes	-10.4919
▁Ba	-10.4925
▁falls	-10.493
▁transformed	-10.4938
▁fields	-10.4938
▁Ka	-10.4947
▁Are	-10.4954
ept	-10.4957
ya	-10.4958
▁You	-10.4961
▁cope	-10.4968
▁Ha	-10.4972
▁Na	-10.4974
▁obviously	-10.4977
▁shortages	-10.499
▁crowd	-10.4998
economic	-10.5003
▁desperate	-10.5004
▁constant	-10.5004
with	-10.5005
▁gaps	-10.5006
▁facts	-10.5014
ko	-10.5014
▁considerations	-10.5018
▁ideology	-10.5029
▁behave	-10.5029
▁mortality	-10.5029
▁rival	-10.5029
▁deposit	-10.503
▁resilient	-10.5031
▁anywhere	-10.5032
▁pricing	-10.5033
▁adoption	-10.5034
▁uses	-10.5038
▁involving	-10.5043
▁binding	-10.505
▁tech	-10.5057
▁6%	-10.5057
▁Inter	-10.5068
▁procedures	-10.508
▁sw	-10.5081
▁ally	-10.5097
▁findings	-10.5108
denominated	-10.512
dustrialization	-10.5133
▁Y	-10.5133
building	-10.5135
mon	-10.5149
ations	-10.5149
▁Austria	-10.5154
▁seize	-10.5156
▁joining	-10.5163
▁Three	-10.5164
▁Nuclear	-10.5164
▁bodies	-10.5164
▁gross	-10.5164
▁overseas	-10.5164
▁vice	-10.5164
▁Iraqi	-10.5164
▁Hezbollah	-10.5165
▁unfair	-10.5165
▁allocation	-10.5166
▁Market	-10.5166
▁bail	-10.5167
▁cyclical	-10.5176
ka	-10.518
▁accountable	-10.518
▁spring	-10.5183
▁reversed	-10.5184
▁enhanced	-10.5192
▁testing	-10.5202
▁Ban	-10.5204
▁disasters	-10.5219
▁Let	-10.5225
▁judges	-10.5238
ron	-10.5241
▁succeeded	-10.525
▁classic	-10.5252
government	-10.5269
HI	-10.5272
inflation	-10.5275
size	-10.5276
▁disorder	-10.5276
▁sudden	-10.5278
▁declare	-10.5286
▁Alliance	-10.5301
▁Dutch	-10.5301
▁Rwanda	-10.5301
▁Strategy	-10.5301
▁anxiety	-10.5301
▁approval	-10.5301
▁extensive	-10.5301
▁Conference	-10.5301
▁1991	-10.5301
▁retirement	-10.5301
▁Reform	-10.5301
▁render	-10.5302
▁integrity	-10.5302
evertheless	-10.5302
▁epidemic	-10.5302
▁Jewish	-10.5303
▁outbreak	-10.5304
▁AIIB	-10.5304
▁disruption	-10.5304
▁dioxide	-10.5306
▁influential	-10.5306
▁nowhere	-10.5308
▁difficulties	-10.5313
.5%	-10.5316
▁grounds	-10.5321
▁Deal	-10.5321
▁deserve	-10.5335
ure	-10.5342
1%	-10.535
ph	-10.5353
▁deepening	-10.5355
▁namely	-10.5361
▁adjustments	-10.5363
▁son	-10.5366
▁explained	-10.5379
▁exists	-10.5386
▁onto	-10.5395
▁landing	-10.5397
▁repeat	-10.5406
▁intervene	-10.5425
▁convince	-10.5425
▁revolutions	-10.5439
▁Berlusconi	-10.544
▁Hitler	-10.544
▁Scotland	-10.544
▁doctrine	-10.544
▁residents	-10.544
▁Jean	-10.544
▁precedent	-10.544
▁fellow	-10.544
▁definition	-10.5441
▁competing	-10.5441
▁involvement	-10.5441
▁blind	-10.5441
▁fresh	-10.5441
▁except	-10.5443
▁donor	-10.5444
▁chemical	-10.5446
▁Ab	-10.5446
▁motivated	-10.5446
▁repeated	-10.5448
▁turns	-10.5449
▁male	-10.545
▁lowest	-10.5465
▁granted	-10.5467
.6	-10.5469
▁resolved	-10.5473
▁richer	-10.5475
▁bid	-10.5484
▁feeling	-10.5501
▁sufficiently	-10.5502
▁1	-10.5504
son	-10.5522
aries	-10.5523
▁topic	-10.5526
▁Industrial	-10.5544
▁finances	-10.5544
▁Pa	-10.5545
▁strict	-10.5556
largest	-10.5556
▁Recent	-10.5556
▁worrying	-10.5561
▁San	-10.5565
▁rescue	-10.5566
▁recorded	-10.5569
▁dominate	-10.557
▁reinforce	-10.5572
▁Juncker	-10.558
▁School	-10.558
▁arguing	-10.558
▁enlargement	-10.558
▁implicit	-10.558
▁legislative	-10.558
▁Morsi	-10.558
▁calm	-10.558
▁closing	-10.5581
00	-10.5581
▁controversial	-10.5582
▁brand	-10.5582
▁chosen	-10.5586
▁Conservative	-10.5586
▁volume	-10.5587
▁weapon	-10.559
▁emphasized	-10.5592
▁upward	-10.5593
▁inflationary	-10.5602
▁sooner	-10.5611
work	-10.5637
ber	-10.5651
▁flood	-10.5671
▁rightly	-10.5686
▁disrupt	-10.5689
▁channels	-10.569
▁bet	-10.5692
sharing	-10.5698
▁regular	-10.5699
▁Far	-10.5703
▁divisions	-10.5705
und	-10.5705
▁combine	-10.5709
mu	-10.5713
▁release	-10.572
▁differ	-10.5722
▁talking	-10.5722
▁Cooperation	-10.5723
▁administrative	-10.5723
▁altogether	-10.5723
▁eliminating	-10.5723
▁laureate	-10.5723
▁admit	-10.5724
▁Wen	-10.5726
use	-10.5727
▁remove	-10.5728
▁Shia	-10.5731
▁expression	-10.5733
▁optimistic	-10.5737
high	-10.574
▁forests	-10.5742
▁competitors	-10.5744
fe	-10.5746
▁famously	-10.575
her	-10.5751
▁toll	-10.5761
▁tactics	-10.5764
ify	-10.5766
▁protected	-10.5766
nce	-10.5767
▁saved	-10.5777
▁responding	-10.5782
▁puts	-10.579
▁macro	-10.5811
▁poll	-10.5819
▁tasks	-10.582
▁shifted	-10.5822
cre	-10.5826
▁request	-10.5835
▁operation	-10.5842
▁crops	-10.5846
▁confronting	-10.5847
▁exacerbate	-10.5854
▁character	-10.5866
%	-10.5866
▁detect	-10.5868
▁reap	-10.5868
▁Initiative	-10.5868
▁Summit	-10.5868
▁Uganda	-10.5868
▁college	-10.5868
▁spiral	-10.5868
▁struck	-10.5868
▁ancient	-10.5868
▁foremost	-10.5868
▁congressional	-10.5868
▁resolving	-10.5869
▁confrontation	-10.587
▁civilization	-10.5875
▁drivers	-10.5877
▁shortfall	-10.588
▁criticized	-10.5885
▁Islands	-10.5893
▁successor	-10.5899
▁exceptional	-10.5903
▁supports	-10.5905
take	-10.5907
▁explains	-10.5915
▁$7	-10.5927
▁earnings	-10.5927
▁fix	-10.5939
19	-10.595
▁extremists	-10.5958
▁island	-10.5964
pre	-10.5969
▁ratings	-10.5972
▁headed	-10.5976
▁w	-10.5977
▁obtain	-10.5982
ain	-10.5988
ble	-10.599
made	-10.5995
▁funded	-10.6001
▁n	-10.6003
▁integrate	-10.6004
▁birth	-10.6015
▁1979	-10.6015
▁1998	-10.6015
▁Crisis	-10.6015
▁Cyprus	-10.6015
▁Davos	-10.6015
▁benchmark	-10.6015
▁chaos	-10.6015
▁electorate	-10.6015
▁straightforward	-10.6015
▁Sino	-10.6015
▁Simp	-10.6015
▁Finance	-10.6016
▁software	-10.6016
▁sight	-10.6016
▁constructive	-10.6016
▁draft	-10.6016
▁happy	-10.6017
▁agency	-10.6017
▁Few	-10.6018
▁imperial	-10.6018
▁Governor	-10.6018
▁vary	-10.6019
▁fastest	-10.602
▁deter	-10.602
▁route	-10.6021
▁meat	-10.6022
▁weaknesses	-10.6023
▁declaration	-10.6027
▁safeguard	-10.6027
▁scandal	-10.6028
▁21	-10.6032
▁secondary	-10.6032
▁consideration	-10.6036
▁Mao	-10.6038
▁constrained	-10.6038
▁investor	-10.604
▁impede	-10.6041
▁civilians	-10.6042
▁taxation	-10.6046
▁troubled	-10.6047
▁guaranteed	-10.6051
EU	-10.6064
▁abuses	-10.6064
▁younger	-10.6065
▁asking	-10.6071
ki	-10.6074
▁El	-10.6081
▁collapsed	-10.6085
▁warm	-10.6092
back	-10.6105
ture	-10.6107
▁margin	-10.6117
▁sl	-10.6118
▁alter	-10.6133
▁advocates	-10.6135
change	-10.6139
Brexit	-10.614
▁Germans	-10.6144
▁master	-10.6147
▁Business	-10.616
▁Before	-10.6164
▁Consensus	-10.6164
▁Switzerland	-10.6164
▁enemies	-10.6164
▁livelihoods	-10.6164
▁marriage	-10.6164
▁nonetheless	-10.6164
▁surpass	-10.6164
▁thrive	-10.6164
▁tragedy	-10.6164
▁Irish	-10.6164
▁electric	-10.6165
▁distant	-10.6165
▁fertility	-10.6166
▁Reagan	-10.6167
▁accelerating	-10.6167
▁meantime	-10.6167
▁capitalist	-10.6168
▁deflationary	-10.6168
▁[	-10.6168
▁monopoly	-10.6169
▁avert	-10.6169
▁TV	-10.617
▁auto	-10.6172
▁forecasts	-10.6178
▁element	-10.6179
▁erupted	-10.618
▁ho	-10.6191
▁Assad	-10.6192
▁delivery	-10.6194
▁Pacific	-10.6212
▁interested	-10.6213
▁rooted	-10.6215
▁looked	-10.6219
▁zones	-10.6222
▁marginal	-10.6224
▁career	-10.6226
▁seat	-10.6229
▁realized	-10.623
▁receiv	-10.623
▁eat	-10.6235
▁reporting	-10.6253
▁deepen	-10.6263
▁alliances	-10.6272
▁poorly	-10.6289
▁striking	-10.6291
▁profession	-10.6293
US	-10.6295
▁islands	-10.6308
▁Program	-10.6315
▁Moscow	-10.6316
▁Recession	-10.6316
▁Special	-10.6316
▁commodities	-10.6316
▁frustration	-10.6316
▁immense	-10.6316
▁repair	-10.6316
▁volatile	-10.6316
▁Women	-10.6316
▁sensible	-10.6316
▁intense	-10.6316
▁Chairman	-10.6317
▁laid	-10.6317
▁ecological	-10.6318
▁chair	-10.6318
▁Ex	-10.6323
▁predictable	-10.6324
▁8%	-10.6329
▁respectively	-10.6331
▁entail	-10.6333
▁contemporar	-10.6333
▁soldiers	-10.6334
ssuming	-10.6335
▁enterprise	-10.6337
▁employed	-10.6338
▁tons	-10.6339
▁desperately	-10.6344
▁2008.	-10.6347
▁features	-10.6352
▁adhere	-10.636
▁discussed	-10.6365
▁fill	-10.6376
▁Within	-10.638
▁Ko	-10.6382
▁fairly	-10.6391
▁campaigns	-10.6392
▁withdraw	-10.6396
▁Times	-10.6403
▁importantly	-10.641
▁ratios	-10.643
▁Ukraines	-10.6434
▁regain	-10.6436
point	-10.6441
▁roads	-10.6455
▁champion	-10.6455
fold	-10.6462
▁isolation	-10.6467
▁Mexican	-10.647
▁cabinet	-10.647
▁criteria	-10.647
▁disastrous	-10.647
▁likelihood	-10.647
▁split	-10.647
▁drove	-10.647
▁fraction	-10.647
▁unrest	-10.647
▁infectious	-10.647
▁mental	-10.647
▁landscape	-10.647
▁Report	-10.6471
▁entry	-10.6475
▁initiated	-10.6477
ier	-10.6478
▁closest	-10.6479
▁flawed	-10.6479
▁missiles	-10.648
▁observed	-10.6481
▁hear	-10.6483
▁lock	-10.6484
▁proliferation	-10.6484
par	-10.6484
▁giant	-10.6489
▁division	-10.6489
▁imbalance	-10.649
▁CEO	-10.649
▁patient	-10.6493
▁myth	-10.6497
▁schemes	-10.6497
▁achievement	-10.6498
▁plays	-10.6501
▁communications	-10.6506
▁affecting	-10.6509
▁focuses	-10.6517
▁computers	-10.6519
▁actively	-10.6521
▁underpinn	-10.653
▁monitor	-10.6533
▁lift	-10.6533
▁pick	-10.6534
▁balances	-10.6547
▁aspects	-10.6559
▁avoiding	-10.6559
▁represented	-10.657
▁backing	-10.6578
▁Russians	-10.6584
▁attempted	-10.6585
▁punish	-10.659
ari	-10.6594
law	-10.66
▁restor	-10.66
▁evident	-10.6604
ments	-10.6606
▁telling	-10.6615
gi	-10.6617
▁Zimbabwe	-10.662
▁Others	-10.6624
▁treatments	-10.6626
▁Draghi	-10.6626
▁Ultimately	-10.6626
▁applies	-10.6626
▁reversal	-10.6626
▁steadily	-10.6626
▁supervision	-10.6626
▁Pact	-10.6626
versus	-10.6626
▁parity	-10.6628
▁lasting	-10.663
▁Per	-10.663
▁holdings	-10.6637
gen	-10.664
▁Peru	-10.6643
▁correction	-10.6645
▁pledged	-10.6645
▁discovered	-10.6645
▁acceptable	-10.6646
▁Add	-10.6647
▁reminder	-10.6647
▁22	-10.6649
▁explicitly	-10.665
▁acknowledged	-10.6651
ah	-10.6652
▁purposes	-10.6655
▁assumptions	-10.6656
▁Mu	-10.6658
▁embraced	-10.6658
▁Funds	-10.6667
▁blamed	-10.6677
▁facto	-10.6682
▁sheet	-10.6683
▁recognizes	-10.6683
▁commission	-10.6685
▁acts	-10.6689
▁waters	-10.6698
ming	-10.6709
▁Ki	-10.6721
▁2013.	-10.6741
▁28	-10.6742
▁believes	-10.6756
productive	-10.6758
▁intention	-10.6759
rad	-10.6763
▁relie	-10.677
▁undertake	-10.6783
▁Front	-10.6785
▁Follow	-10.6785
▁Lisbon	-10.6785
▁McKinsey	-10.6785
▁Ocean	-10.6785
▁destabilizing	-10.6785
▁plausible	-10.6785
▁propaganda	-10.6785
▁electronic	-10.6785
▁maritime	-10.6785
▁bureaucratic	-10.6785
▁harmful	-10.6787
▁cooperative	-10.6788
▁Green	-10.6788
▁elderly	-10.6789
▁coastal	-10.6789
▁Somalia	-10.6789
▁rail	-10.679
▁solely	-10.6799
▁spurred	-10.6803
▁classes	-10.6803
▁venture	-10.6808
▁persist	-10.6808
▁crop	-10.6811
au	-10.6813
▁missed	-10.6815
ither	-10.6816
▁70	-10.6818
▁teachers	-10.6828
du	-10.6831
▁ranks	-10.6831
▁customs	-10.6832
▁fashion	-10.6837
▁Hav	-10.6841
▁ru	-10.6841
▁preserv	-10.6843
▁destroyed	-10.6856
▁lived	-10.6878
▁functioning	-10.6884
▁distinguish	-10.6886
▁waiting	-10.6895
▁accepting	-10.6906
▁sets	-10.691
▁contest	-10.6913
▁explicit	-10.6921
investment	-10.6922
▁throw	-10.6925
▁Algeria	-10.6926
▁consume	-10.6927
▁Roma	-10.6928
▁cure	-10.6934
▁distance	-10.6939
▁Capital	-10.6944
▁Her	-10.6945
▁revive	-10.6945
▁reward	-10.6946
illennium	-10.6946
▁Twitter	-10.6946
▁biodiversity	-10.6946
▁existential	-10.6946
▁warfare	-10.6946
▁mood	-10.6946
▁architecture	-10.6946
▁stick	-10.6946
▁display	-10.6946
▁shut	-10.6947
▁frontier	-10.6947
▁Kyoto	-10.6948
▁punishment	-10.6948
▁heighten	-10.6949
▁noted	-10.6952
▁somehow	-10.6954
▁naturally	-10.696
5%	-10.6963
▁bloc	-10.6967
▁Mubarak	-10.6972
▁ambition	-10.6973
uring	-10.6974
▁stakeholders	-10.6977
▁doubts	-10.6977
▁Nazi	-10.6977
▁cycles	-10.6979
▁hour	-10.6983
▁attitude	-10.6984
▁bust	-10.6984
▁sc	-10.6985
▁fishing	-10.6986
▁confirmed	-10.6987
▁suggesting	-10.699
▁$10	-10.7007
ug	-10.701
▁govern	-10.7012
▁details	-10.7019
▁trials	-10.702
▁attribut	-10.702
▁roll	-10.7025
tal	-10.7033
▁horizon	-10.7034
▁founding	-10.7035
▁professionals	-10.7037
ory	-10.7056
▁occasion	-10.7061
standing	-10.7061
rd	-10.7067
corruption	-10.7085
▁claiming	-10.7086
reform	-10.7087
security	-10.7089
▁acquire	-10.7096
▁panic	-10.7098
risk	-10.7099
▁distinct	-10.7103
▁insecurity	-10.7107
▁prior	-10.7108
▁earthquake	-10.711
▁memory	-10.711
▁transatlantic	-10.711
▁tsunami	-10.711
▁ultra	-10.711
▁yen	-10.711
▁motivation	-10.7111
▁retreat	-10.7111
▁dire	-10.7114
▁guard	-10.7115
▁adaptation	-10.7118
▁distributed	-10.7133
▁diminished	-10.714
▁method	-10.714
▁representative	-10.7141
▁widening	-10.7141
▁employers	-10.7149
▁Crimea	-10.7163
▁delivering	-10.7163
▁violations	-10.7178
▁facilitat	-10.7182
▁predictions	-10.7186
▁Com	-10.719
ility	-10.721
▁cons	-10.7214
▁te	-10.7231
▁bomb	-10.7247
▁connect	-10.725
let	-10.7251
▁achievements	-10.7258
▁legally	-10.7267
▁decent	-10.7274
▁Where	-10.7275
▁refer	-10.7276
▁grant	-10.7276
▁triumph	-10.7276
▁Cambodia	-10.7277
▁Otherwise	-10.7277
▁System	-10.7277
▁burst	-10.7277
▁fault	-10.7277
▁judiciary	-10.7277
▁overhaul	-10.7277
▁slogan	-10.7277
▁AMR	-10.7277
▁outflows	-10.7277
▁Review	-10.7277
▁nutrition	-10.7277
▁preferred	-10.7278
▁Economy	-10.7278
▁selection	-10.7279
▁Who	-10.7283
▁Modi	-10.7284
▁expansionary	-10.7285
▁protectionist	-10.7286
▁complexity	-10.7287
▁exacerbated	-10.7293
▁advocate	-10.7295
▁li	-10.7295
▁prevention	-10.7296
ler	-10.7299
row	-10.7305
▁aspirations	-10.7306
▁note	-10.7307
▁gases	-10.7309
▁arrangement	-10.731
▁Ukrainian	-10.731
▁politician	-10.731
▁involves	-10.7311
▁stated	-10.7314
▁300	-10.7317
▁cultures	-10.7319
▁mixed	-10.7333
▁agents	-10.7338
▁pan	-10.734
▁declines	-10.7344
▁Economics	-10.7346
▁bills	-10.7357
▁confronted	-10.7357
▁Commissions	-10.7369
▁occurs	-10.739
▁En	-10.7399
ong	-10.7402
▁maximize	-10.7406
▁bias	-10.7409
▁quarters	-10.7418
society	-10.7421
▁produces	-10.7425
left	-10.7428
effective	-10.743
ought	-10.7431
▁regulate	-10.7432
▁challenged	-10.7436
▁ineffective	-10.7437
digit	-10.7445
▁Good	-10.7446
▁Roosevelt	-10.7446
▁arguably	-10.7446
▁deleveraging	-10.7446
▁desirable	-10.7446
▁dignity	-10.7446
▁temporarily	-10.7446
▁1992	-10.7446
▁Argentine	-10.7446
▁convincing	-10.7446
▁honest	-10.7446
▁vested	-10.7446
▁walk	-10.7446
▁Xiaoping	-10.7446
▁comparative	-10.7446
▁experiences	-10.7446
▁Association	-10.7446
▁duty	-10.7446
▁raw	-10.7447
▁dying	-10.7447
▁James	-10.7448
▁Greenspan	-10.7448
▁introduction	-10.7448
▁visible	-10.7448
▁cold	-10.7449
▁letter	-10.7449
▁coherent	-10.7453
▁CN	-10.7454
RID	-10.7456
▁realities	-10.7458
▁popularity	-10.7458
▁emotional	-10.7461
▁informed	-10.7461
▁rush	-10.7462
▁looming	-10.7464
ren	-10.747
▁endless	-10.7471
▁Po	-10.7471
▁screening	-10.7473
▁deployed	-10.7476
3%	-10.7477
▁tension	-10.7484
▁Government	-10.7484
▁transaction	-10.7487
▁phone	-10.7489
▁devices	-10.749
dy	-10.7492
▁2010.	-10.7494
▁robots	-10.7494
▁begins	-10.7496
▁Real	-10.75
▁voices	-10.7505
air	-10.7506
▁monitoring	-10.7511
ology	-10.7516
▁doubled	-10.7518
▁frameworks	-10.7521
▁ecosystems	-10.7559
shed	-10.7564
▁assert	-10.7571
▁weigh	-10.7579
▁hospitals	-10.758
▁2014.	-10.7588
▁Di	-10.7588
tu	-10.7612
▁formed	-10.7614
▁recruit	-10.7617
▁1999	-10.7619
▁Czech	-10.7619
▁MAD	-10.7619
▁advancing	-10.7619
▁conversation	-10.7619
▁engaging	-10.7619
▁magnitude	-10.7619
▁optimism	-10.7619
▁reconciliation	-10.7619
▁satisfy	-10.7619
▁speculative	-10.7619
▁square	-10.7619
▁Qatar	-10.7619
▁anemic	-10.7619
▁kick	-10.7619
▁Yemen	-10.7619
▁Policymakers	-10.7619
▁Making	-10.7619
▁WTO	-10.7619
▁theories	-10.7619
▁feasible	-10.762
▁Whereas	-10.7621
med	-10.7622
▁destructive	-10.7622
▁denied	-10.7624
▁deem	-10.7624
▁shot	-10.7627
▁devoted	-10.7628
▁richest	-10.763
der	-10.7636
ga	-10.7637
▁substitute	-10.7643
▁distortions	-10.7647
lin	-10.7651
▁proceed	-10.7656
▁drought	-10.7657
▁hospital	-10.7657
▁merit	-10.7657
▁obstacle	-10.7657
▁animal	-10.766
7%	-10.7667
cy	-10.7671
▁undergo	-10.7681
▁King	-10.7688
mat	-10.769
▁se	-10.7691
▁returning	-10.7692
▁creditor	-10.7697
▁HA	-10.7708
▁owners	-10.7709
▁headlines	-10.771
▁borrowed	-10.7712
▁permit	-10.7723
ran	-10.7728
▁ends	-10.7732
▁hoped	-10.774
▁dangerously	-10.7741
▁periods	-10.7753
▁drag	-10.7757
NA	-10.7757
▁broaden	-10.7758
mer	-10.7759
▁interact	-10.7761
▁unilateral	-10.7768
force	-10.7769
▁unexpected	-10.777
▁frequent	-10.7771
▁engineer	-10.7786
▁skill	-10.7788
▁Future	-10.7794
▁Protocol	-10.7794
▁cautious	-10.7794
▁innocent	-10.7794
▁privacy	-10.7794
▁suspicion	-10.7794
▁temptation	-10.7794
▁tomorrow	-10.7794
▁transmission	-10.7794
▁guidelines	-10.7794
▁Finland	-10.7794
▁unemployed	-10.7795
▁tendency	-10.7795
▁Vice	-10.7795
▁Fourth	-10.7796
▁equilibrium	-10.7796
▁channel	-10.7804
▁Sever	-10.781
▁strongest	-10.7817
▁friend	-10.7818
▁highlighted	-10.7822
▁emphasize	-10.7824
des	-10.7827
▁follows	-10.7828
▁tackl	-10.783
▁pr	-10.7831
▁factory	-10.7831
▁operational	-10.7838
▁requirement	-10.7851
▁di	-10.786
▁j	-10.7872
▁seeds	-10.7872
▁br	-10.7873
▁contained	-10.7875
amp	-10.7877
▁attend	-10.7878
sum	-10.7883
▁hedge	-10.7888
TON	-10.7891
ack	-10.7896
▁farming	-10.7912
▁kill	-10.7917
▁animals	-10.7933
▁demanded	-10.7943
service	-10.7948
▁typical	-10.7948
▁carrie	-10.7949
▁van	-10.7951
earth	-10.7958
▁appreciate	-10.7958
▁isnt	-10.7968
VEN	-10.7971
▁extremism	-10.7973
▁indication	-10.7973
▁irrelevant	-10.7973
▁pact	-10.7973
▁sphere	-10.7973
▁supplement	-10.7973
▁depth	-10.7973
▁surface	-10.7973
▁Community	-10.7973
▁Valley	-10.7973
▁availability	-10.7973
▁portray	-10.7973
▁Neither	-10.7973
▁2008-2009	-10.7973
▁promotion	-10.7973
▁unusual	-10.7973
▁foreseeable	-10.7974
▁Apple	-10.7975
▁unacceptable	-10.7975
▁shaping	-10.7976
▁enemy	-10.7977
▁Macri	-10.7978
▁components	-10.7995
▁pledge	-10.8004
▁pays	-10.8008
▁instrument	-10.8011
▁occupation	-10.8012
▁underpin	-10.8014
▁circle	-10.8016
▁Non	-10.8019
▁forget	-10.8021
▁Ta	-10.8036
▁reduces	-10.804
▁hot	-10.8048
dicated	-10.8062
DEL	-10.8073
▁waves	-10.8079
▁Tr	-10.808
cha	-10.8083
ik	-10.8095
▁o	-10.81
gan	-10.8106
▁appealing	-10.8107
▁stakes	-10.8114
▁align	-10.8115
▁Office	-10.8116
▁wise	-10.8126
▁($1	-10.8126
known	-10.8127
▁intentions	-10.8127
control	-10.8129
▁differently	-10.8134
▁freely	-10.8135
▁lately	-10.8142
.3	-10.8143
▁reckless	-10.8152
▁disagree	-10.8153
ai	-10.8154
▁Churchill	-10.8154
▁Morocco	-10.8154
▁Nixon	-10.8154
▁accumulation	-10.8154
▁creativity	-10.8154
▁evil	-10.8154
▁ministry	-10.8154
▁pragmatic	-10.8154
▁vicious	-10.8154
▁Gülen	-10.8154
▁embedded	-10.8154
▁gift	-10.8154
▁indispensable	-10.8154
▁switch	-10.8154
▁veto	-10.8154
▁disintegration	-10.8155
▁childhood	-10.8155
▁bought	-10.8155
▁35%	-10.8155
▁womens	-10.8156
▁communism	-10.8157
▁collateral	-10.8157
most	-10.8157
▁dysfunctional	-10.8157
▁unification	-10.8157
▁specifically	-10.8158
▁revival	-10.8158
▁rejection	-10.8159
▁containment	-10.8159
▁enduring	-10.816
▁tied	-10.8163
▁collection	-10.8166
▁Qaeda	-10.8168
▁followers	-10.8171
▁exclusively	-10.8175
▁camps	-10.8176
quarter	-10.8178
▁centralized	-10.8183
▁induce	-10.8183
▁lawyers	-10.8194
▁successes	-10.8198
▁flaws	-10.8199
▁citizen	-10.8202
▁student	-10.8203
▁adequately	-10.8207
▁dose	-10.8212
▁rethink	-10.8215
▁Mario	-10.8215
▁sum	-10.823
dis	-10.824
▁diminish	-10.8247
▁imported	-10.8248
▁intent	-10.8254
▁store	-10.8254
▁app	-10.8265
▁highlights	-10.8274
▁site	-10.8282
▁listen	-10.8286
▁pensions	-10.8311
democratic	-10.8312
light	-10.8313
▁compris	-10.8318
30	-10.832
▁evolve	-10.8325
▁compensate	-10.833
▁Ru	-10.8334
▁Part	-10.8336
ilicon	-10.834
▁Bashar	-10.834
▁Better	-10.834
▁Infrastructure	-10.834
▁Premier	-10.834
▁Saddam	-10.834
▁assault	-10.834
▁choosing	-10.834
▁curtail	-10.834
▁equitable	-10.834
▁helium	-10.834
▁Worse	-10.834
▁implied	-10.834
▁preparing	-10.834
▁psychological	-10.834
▁Sometimes	-10.834
▁departure	-10.834
▁Park	-10.834
▁degradation	-10.834
▁wins	-10.834
▁writing	-10.834
▁shortcomings	-10.834
▁impression	-10.8341
▁MDGs	-10.8341
ile	-10.8342
▁Day	-10.8342
▁equipped	-10.8345
▁factories	-10.8345
▁reinforcing	-10.8345
▁issu	-10.8346
CA	-10.8347
▁bio	-10.8351
▁justified	-10.8352
▁arrived	-10.8352
▁evolved	-10.8354
ators	-10.8356
▁edge	-10.8356
backed	-10.8356
▁anticipated	-10.8357
▁renewables	-10.8367
▁accession	-10.8367
▁notes	-10.8371
▁regularly	-10.8372
▁directed	-10.8375
▁silence	-10.8375
▁consist	-10.8378
▁cu	-10.8381
▁judgment	-10.839
▁ocean	-10.8391
▁Islamists	-10.8404
▁soil	-10.8406
▁providers	-10.8414
▁actor	-10.8415
▁earth	-10.8416
▁Water	-10.8418
▁producer	-10.8419
▁26	-10.8431
▁deploy	-10.8432
▁insights	-10.8442
controlled	-10.845
oli	-10.8452
▁amid	-10.8465
▁Israelis	-10.8473
▁secur	-10.8478
ev	-10.8487
▁Sa	-10.849
ff	-10.8495
AIDS	-10.8502
▁smooth	-10.8503
child	-10.8504
▁possess	-10.8516
▁200	-10.8523
▁Charter	-10.8528
▁imperfect	-10.8528
à	-10.8528
▁Developing	-10.8528
▁Piketty	-10.8528
▁sanitation	-10.8528
▁smoking	-10.8528
▁speculation	-10.8528
▁supervisor	-10.8528
▁tremendous	-10.8528
▁utter	-10.8528
▁vulnerabilities	-10.8528
▁march	-10.8528
▁diagnostic	-10.8528
▁Bosnia	-10.8528
▁Richard	-10.8528
▁meltdown	-10.8528
▁stuck	-10.8528
▁crackdown	-10.8529
▁stemming	-10.8529
▁hire	-10.8529
▁rally	-10.8529
▁music	-10.8529
▁resentment	-10.853
▁tide	-10.853
▁hegemony	-10.8532
▁unified	-10.8533
▁interference	-10.8535
▁determination	-10.8537
▁tradable	-10.8538
▁resemble	-10.8539
▁Tax	-10.8539
▁compare	-10.8542
water	-10.8549
saving	-10.8553
▁captured	-10.8555
▁town	-10.8563
.8%	-10.8565
▁2012.	-10.8566
but	-10.8567
bove	-10.857
▁exchanges	-10.8576
▁shaped	-10.8577
▁serves	-10.8579
▁style	-10.858
▁patent	-10.8582
▁incumbent	-10.8582
▁sentence	-10.8583
▁predecessor	-10.8584
▁province	-10.8584
▁port	-10.8586
▁recovered	-10.8587
▁rating	-10.8592
▁lacking	-10.8594
▁Co	-10.8596
▁strikes	-10.8599
▁signals	-10.86
▁provisions	-10.8602
my	-10.8604
▁formula	-10.8605
▁shortage	-10.8605
▁adults	-10.8614
ob	-10.8622
▁dispos	-10.8623
▁director	-10.8634
ze	-10.8635
▁adjusted	-10.8641
▁reading	-10.8646
▁criminals	-10.8662
▁season	-10.8664
▁loose	-10.8665
¥	-10.8672
▁inflict	-10.8675
▁accordingly	-10.8676
▁owned	-10.8683
▁neglect	-10.8687
▁suspect	-10.8687
ris	-10.8694
▁admitted	-10.8694
General	-10.8696
financial	-10.8696
AS	-10.8696
▁parliaments	-10.8697
start	-10.8698
▁tri	-10.8704
It	-10.8704
who	-10.8713
dge	-10.8713
▁complement	-10.8719
funded	-10.872
▁Authority	-10.8721
▁Emerging	-10.8721
▁daunting	-10.8721
▁dynamism	-10.8721
▁polarization	-10.8721
▁staggering	-10.8721
▁worries	-10.8721
▁arsenal	-10.8721
▁fragmented	-10.8721
▁deterrence	-10.8721
▁meanwhile	-10.8721
▁yes	-10.8721
▁trump	-10.8722
▁Basel	-10.8722
▁proud	-10.8723
▁unknown	-10.8724
▁judicial	-10.8725
▁IPCC	-10.8726
▁isolated	-10.8726
▁mine	-10.8726
▁discovery	-10.8726
▁interpretation	-10.8726
▁diagnosis	-10.8728
▁safer	-10.8736
▁$50	-10.8737
▁acquired	-10.8738
▁relied	-10.8738
▁traders	-10.8751
▁appointed	-10.8757
▁eliminated	-10.8759
▁governed	-10.876
▁losers	-10.8761
▁lifted	-10.8762
▁characteristics	-10.8768
."	-10.8771
▁incomplete	-10.8774
▁arrested	-10.8774
▁shrinking	-10.8775
▁gathering	-10.8775
▁recessions	-10.8778
▁Hollande	-10.878
▁obligation	-10.878
▁tariff	-10.8789
▁prudent	-10.88
▁odds	-10.8805
▁grows	-10.8815
taking	-10.8816
▁defaults	-10.8819
industrial	-10.8827
▁watching	-10.8827
▁cards	-10.8835
▁€1	-10.8836
▁sit	-10.8838
▁introduc	-10.8842
▁ensu	-10.8845
▁provinces	-10.886
▁flag	-10.8873
its	-10.8878
▁disappear	-10.8884
under	-10.8886
ically	-10.8888
value	-10.8889
speed	-10.8893
set	-10.89
▁ha	-10.8901
▁interpret	-10.8913
▁disruptions	-10.8914
▁courage	-10.8916
INCE	-10.8917
▁Freedom	-10.8917
▁Next	-10.8917
▁Prize	-10.8917
▁advertising	-10.8917
▁bulk	-10.8917
▁empirical	-10.8917
▁privatization	-10.8917
▁territories	-10.8917
▁aggression	-10.8917
▁drain	-10.8917
▁taught	-10.8917
▁transnational	-10.8917
▁oversight	-10.8917
▁grasp	-10.8917
▁expectancy	-10.8917
▁hide	-10.8917
▁sake	-10.8918
▁occurring	-10.8918
▁chairman	-10.8918
▁workplace	-10.8918
▁disarmament	-10.8918
▁evolutionary	-10.8919
▁mess	-10.8919
▁100,000	-10.8919
▁origin	-10.892
▁medicines	-10.8922
mar	-10.8922
▁Qu	-10.8923
▁Sha	-10.8932
▁coin	-10.8937
cross	-10.8938
▁repay	-10.8941
▁soaring	-10.8941
▁Nicola	-10.8943
▁forge	-10.8943
▁door	-10.8944
▁Cup	-10.8948
ini	-10.895
▁Us	-10.895
▁generals	-10.8951
▁welcomed	-10.8956
▁ethics	-10.8956
▁alarming	-10.8967
▁audience	-10.8979
▁pound	-10.898
▁mother	-10.898
▁governor	-10.8983
▁preferences	-10.8992
▁spreading	-10.8993
cal	-10.901
▁Representatives	-10.9011
▁r	-10.9014
▁undermines	-10.9015
▁Cha	-10.9016
X	-10.9026
▁excessively	-10.9027
▁difficulty	-10.9034
▁predecessors	-10.9058
▁touch	-10.906
▁oceans	-10.9061
▁Syrias	-10.9074
▁financially	-10.9074
▁rang	-10.9074
▁tens	-10.9077
induced	-10.9085
▁notable	-10.9088
▁construct	-10.9091
management	-10.9091
▁premature	-10.9092
fifth	-10.9092
flow	-10.9093
▁teams	-10.9094
ification	-10.9099
▁Chiles	-10.9103
▁el	-10.9104
▁floods	-10.9107
▁peripher	-10.9109
▁chose	-10.9109
ush	-10.911
▁$6	-10.9111
▁clash	-10.9112
▁abundant	-10.9117
▁contagion	-10.9117
▁equities	-10.9117
▁happiness	-10.9117
▁paradigm	-10.9117
▁schedule	-10.9117
▁Ghana	-10.9117
▁entities	-10.9117
▁excuse	-10.9117
▁keen	-10.9117
▁tiny	-10.9117
▁angry	-10.9117
▁compact	-10.9117
▁unpopular	-10.9117
▁night	-10.9117
▁pride	-10.9117
▁barrel	-10.9118
▁Liberal	-10.9118
▁Senator	-10.9119
▁statistical	-10.912
▁deployment	-10.912
▁lag	-10.9121
▁unstable	-10.9122
▁buildings	-10.9124
▁midst	-10.9125
▁controlling	-10.9127
▁height	-10.9128
▁indebted	-10.9129
form	-10.9129
▁indicates	-10.913
▁commentators	-10.9138
▁Sri	-10.9143
▁burning	-10.9153
▁fees	-10.9155
entrepreneurship	-10.9159
▁solved	-10.9161
▁insisted	-10.917
▁describe	-10.9172
▁trained	-10.9177
▁enjoyed	-10.9178
▁village	-10.9182
▁parallel	-10.9182
▁connection	-10.9186
▁migrant	-10.9189
▁cell	-10.9191
hard	-10.9196
▁delayed	-10.9197
▁benefiting	-10.9201
▁Rome	-10.9211
▁dam	-10.9211
performing	-10.9214
▁seeing	-10.9217
▁Pu	-10.9218
era	-10.9223
▁scenarios	-10.923
▁35	-10.9232
▁authors	-10.9238
▁winners	-10.9239
▁h	-10.9244
▁treating	-10.9258
▁bar	-10.9277
▁exceeding	-10.9287
▁dismiss	-10.9287
how	-10.9293
defense	-10.9296
good	-10.9296
oc	-10.9298
▁respected	-10.9305
▁pois	-10.9319
▁climb	-10.9321
RLIN	-10.9321
▁Bitcoin	-10.9321
▁exclusion	-10.9321
▁fragmentation	-10.9321
▁fraud	-10.9321
▁guidance	-10.9321
▁injustice	-10.9321
▁significance	-10.9321
▁sluggish	-10.9321
▁wife	-10.9321
▁Chief	-10.9321
▁boundaries	-10.9322
▁11%	-10.9322
▁Would	-10.9322
▁disruptive	-10.9323
▁ballot	-10.9323
▁normalization	-10.9325
makers	-10.9326
▁contend	-10.9326
▁profitable	-10.9327
▁endorsed	-10.9328
▁breakup	-10.9328
▁exemplifie	-10.9329
▁concerted	-10.933
▁corner	-10.9332
▁accumulated	-10.9332
▁BoE	-10.9332
▁bloody	-10.9338
▁oversee	-10.934
▁downside	-10.934
▁behalf	-10.934
▁inspiration	-10.9342
ould	-10.9344
▁Age	-10.9347
▁surrounding	-10.9355
▁accelerated	-10.9357
▁disputed	-10.9357
▁th	-10.9358
▁Brothers	-10.9359
▁recommendations	-10.9365
▁Ge	-10.9368
▁film	-10.9385
▁Pakistani	-10.9391
▁newspaper	-10.9392
▁ecosystem	-10.9392
▁application	-10.9392
▁dividend	-10.9393
▁aggressively	-10.9395
▁scholars	-10.9397
▁expert	-10.9397
▁prevailed	-10.9399
▁promoted	-10.9404
▁blocked	-10.9405
▁Sen	-10.9407
▁collectively	-10.9419
▁Bu	-10.9424
ult	-10.943
▁historically	-10.9436
▁debtors	-10.9443
▁uphold	-10.9469
▁dictate	-10.9471
arian	-10.9475
rop	-10.9476
▁appoint	-10.9488
▁select	-10.9492
▁Ju	-10.9493
▁miss	-10.9493
▁enact	-10.9495
ov	-10.9499
economy	-10.9504
added	-10.9506
▁highlight	-10.9518
▁elect	-10.9518
▁Anti	-10.952
▁1994	-10.9529
▁Ahmadinejad	-10.9529
▁Corporation	-10.9529
▁Darfur	-10.9529
▁Lehman	-10.9529
▁bureaucrats	-10.9529
▁discontent	-10.9529
▁racial	-10.9529
▁suicide	-10.9529
▁troubling	-10.9529
▁upheaval	-10.9529
▁urgency	-10.9529
Claud	-10.9529
▁timing	-10.9529
▁Lanka	-10.9529
▁disregard	-10.9529
▁Index	-10.9529
▁cloud	-10.9529
▁connectivity	-10.9529
▁unclear	-10.9529
▁distrust	-10.953
▁automatically	-10.953
▁rebound	-10.953
▁Johnson	-10.953
▁comfortable	-10.9531
▁rivals	-10.9532
▁acceptance	-10.9535
▁fairness	-10.9538
▁undertaken	-10.9539
▁entrenched	-10.9541
▁pivot	-10.9542
▁soared	-10.9544
▁deliberately	-10.9546
▁houses	-10.9548
▁End	-10.9549
▁fifth	-10.9555
▁Had	-10.9556
▁excluded	-10.9557
ois	-10.9567
▁hike	-10.9605
▁norm	-10.9605
▁dimension	-10.9611
▁hearing	-10.9611
▁gene	-10.9614
lay	-10.9618
▁Again	-10.9618
▁socially	-10.9619
ther	-10.9619
▁vis	-10.962
▁damaged	-10.9622
▁liquid	-10.9625
▁warnings	-10.9634
▁marks	-10.9635
60	-10.9637
▁reconcile	-10.964
iness	-10.9644
▁socialist	-10.9648
▁scene	-10.9657
▁grip	-10.9661
▁victim	-10.9673
▁rebuild	-10.9682
▁shrink	-10.9682
▁mount	-10.9683
ett	-10.9695
▁phones	-10.9698
In	-10.9698
▁1,	-10.9705
▁recommend	-10.9706
▁complain	-10.9708
▁accomplish	-10.9708
▁jump	-10.9709
▁speaking	-10.971
▁belong	-10.9715
wage	-10.9724
friendly	-10.9726
▁discourage	-10.9727
▁arrive	-10.9727
lt	-10.9732
▁consolidate	-10.9737
▁bridge	-10.9738
▁stark	-10.9739
▁quest	-10.974
onald	-10.974
▁Agenda	-10.9742
▁Kazakhstan	-10.9742
▁Project	-10.9742
▁Together	-10.9742
▁genome	-10.9742
▁harness	-10.9742
▁maneuver	-10.9742
▁philosopher	-10.9742
▁phrase	-10.9742
▁polio	-10.9742
▁possibilities	-10.9742
▁reconsider	-10.9742
▁reluctance	-10.9742
▁stabilizing	-10.9742
▁upgrading	-10.9742
▁tumor	-10.9742
▁emulate	-10.9742
▁misleading	-10.9742
▁Haiti	-10.9742
▁biological	-10.9742
▁Marine	-10.9743
▁theoretical	-10.9744
▁feet	-10.9744
▁overcapacity	-10.9745
▁Near	-10.9745
▁terrible	-10.9745
▁Long	-10.9745
▁blockchain	-10.9746
▁fertilizer	-10.9746
▁impoverished	-10.9746
▁qua	-10.9747
▁savers	-10.9747
▁refusal	-10.9747
▁prisoners	-10.9747
▁Up	-10.9749
▁mega	-10.9749
▁alive	-10.9749
▁plus	-10.9749
▁fluctuations	-10.9749
▁healthier	-10.975
▁replacement	-10.975
▁portion	-10.9751
pping	-10.9763
▁worker	-10.9766
▁condemned	-10.9772
head	-10.9782
▁Vik	-10.9783
▁manufacturers	-10.9786
▁Web	-10.9787
▁deadly	-10.9792
25	-10.9798
▁wear	-10.9804
▁jurisdiction	-10.9821
▁professor	-10.9822
▁parent	-10.9825
net	-10.9829
▁lender	-10.9833
▁forever	-10.9848
states	-10.9849
▁logical	-10.9851
▁Fac	-10.9854
unt	-10.9855
▁visited	-10.9864
▁ring	-10.9867
▁suffers	-10.987
▁dividends	-10.9884
▁inherent	-10.9891
▁passing	-10.9892
elect	-10.9896
▁whi	-10.9901
▁droughts	-10.9911
▁tested	-10.9911
▁fl	-10.9912
pur	-10.9915
▁protections	-10.9928
world	-10.9934
specific	-10.9934
▁exclusive	-10.9935
▁postpone	-10.9945
ust	-10.9945
▁assumes	-10.9948
▁Cor	-10.9948
▁superior	-10.9957
▁tragic	-10.9958
polar	-10.9959
▁rock	-10.9959
▁Companies	-10.9959
▁Himalaya	-10.9959
▁Shinz	-10.9959
▁Swiss	-10.9959
▁dubious	-10.9959
▁gravity	-10.9959
▁impunity	-10.9959
▁journey	-10.9959
▁literally	-10.9959
▁penalty	-10.9959
▁pervasive	-10.9959
▁pretty	-10.9959
▁scrutiny	-10.9959
▁Belarus	-10.9959
▁flourish	-10.9959
▁illusion	-10.9959
▁minimal	-10.9959
▁denial	-10.9959
▁Brexiteers	-10.9959
▁River	-10.9959
▁cognitive	-10.9959
▁Thatcher	-10.9959
▁protracted	-10.9959
▁miles	-10.9959
▁divergence	-10.996
▁Panel	-10.996
▁hostile	-10.996
▁window	-10.996
▁FARC	-10.9961
▁countless	-10.9961
▁conviction	-10.9963
▁unfold	-10.9963
▁grim	-10.9965
▁illiberal	-10.9965
▁liability	-10.9966
▁Army	-10.9967
▁disappointing	-10.9968
▁fake	-10.9971
▁mini	-10.9972
▁Tibetan	-10.9973
▁accommodate	-10.9974
▁Poor	-10.9975
▁Too	-10.9978
TA	-10.998
▁cited	-10.9981
▁situations	-10.9985
▁sacrifice	-10.9987
▁overthrow	-10.999
tory	-10.999
▁degrees	-10.9992
▁NGOs	-11
order	-11.0001
▁images	-11.0005
▁overwhelmingly	-11.0006
▁star	-11.0008
▁handle	-11.0014
▁sun	-11.0019
▁assessments	-11.0027
▁earned	-11.0029
▁diminishing	-11.003
▁Banking	-11.0032
▁booming	-11.0035
ks	-11.0039
arry	-11.0044
▁breakthrough	-11.0045
▁extremist	-11.0045
▁vehicle	-11.0045
▁hundred	-11.0045
▁Balkans	-11.0046
▁facilitated	-11.0047
▁storm	-11.0051
▁interconnected	-11.0051
▁peer	-11.0056
▁manufacture	-11.0061
▁efficiently	-11.008
▁gather	-11.0089
70	-11.0093
▁11,	-11.0107
▁2011.	-11.0113
bu	-11.0118
▁intensify	-11.0121
Almost	-11.0122
capital	-11.014
▁prohibit	-11.0141
born	-11.0142
▁install	-11.0148
▁opt	-11.0153
profit	-11.0155
Z	-11.0157
▁eventual	-11.0157
▁alleged	-11.0162
▁sees	-11.0164
pecifically	-11.0166
▁erode	-11.0167
▁iron	-11.0171
▁semi	-11.0172
rous	-11.0176
▁municipal	-11.0181
▁Catholic	-11.0181
▁Krugman	-11.0181
▁Polish	-11.0181
▁box	-11.0181
▁censorship	-11.0181
▁cumulative	-11.0181
▁escalating	-11.0181
▁explosion	-11.0181
▁harvest	-11.0181
▁irresponsible	-11.0181
▁personnel	-11.0181
▁premium	-11.0181
▁slump	-11.0181
▁spike	-11.0181
▁unnecessary	-11.0181
▁skeptical	-11.0181
▁Sanders	-11.0182
▁provincial	-11.0182
▁cohesion	-11.0182
▁Charl	-11.0182
▁continuous	-11.0182
▁steep	-11.0182
▁Common	-11.0182
▁clout	-11.0182
▁immunization	-11.0182
▁2025	-11.0183
▁mindset	-11.0184
▁Director	-11.0185
▁observation	-11.0185
cious	-11.0185
▁Fear	-11.0185
▁da	-11.0192
▁strengths	-11.0194
▁God	-11.0196
put	-11.02
▁officially	-11.0201
▁representation	-11.0202
▁experiments	-11.0203
▁detailed	-11.0206
▁techniques	-11.0208
▁Asians	-11.0208
▁approaching	-11.0211
ups	-11.0222
▁determin	-11.0223
▁constantly	-11.0223
▁charged	-11.0225
▁filled	-11.0235
▁diplomats	-11.0236
▁readi	-11.0243
▁functions	-11.0246
▁Vi	-11.025
▁acted	-11.0256
▁(1	-11.0261
fired	-11.0263
▁underpinning	-11.0269
▁investigation	-11.0271
▁reference	-11.0272
▁street	-11.0272
▁Science	-11.0272
▁thousand	-11.0272
▁outsize	-11.0274
▁dozen	-11.0275
▁Right	-11.0276
▁founded	-11.0277
▁winner	-11.0277
▁expectation	-11.0285
▁Go	-11.0297
▁settlements	-11.03
-7	-11.0301
▁Man	-11.0302
▁orderly	-11.0309
▁dozens	-11.0318
▁covered	-11.0318
crat	-11.0319
▁hikes	-11.0327
▁newspapers	-11.033
▁remov	-11.0334
▁Lee	-11.0335
▁towns	-11.0346
▁sums	-11.0348
▁bargain	-11.0349
▁em	-11.0357
▁ignor	-11.0359
▁favored	-11.0362
chi	-11.0365
port	-11.0373
▁pioneer	-11.0375
▁giants	-11.038
▁boards	-11.0381
are	-11.0381
member	-11.0381
▁spectacular	-11.0384
▁entails	-11.0384
political	-11.0384
development	-11.0384
supply	-11.0384
▁Similar	-11.0384
▁virtual	-11.0386
▁urge	-11.0393
▁wary	-11.0401
▁coordinate	-11.0406
▁Fisc	-11.0409
▁Brett	-11.0409
▁Chair	-11.0409
▁Affairs	-11.0409
▁Declaration	-11.0409
▁Square	-11.0409
▁approximate	-11.0409
▁brink	-11.0409
▁declaring	-11.0409
▁indigenous	-11.0409
▁intensified	-11.0409
▁miracle	-11.0409
▁reassure	-11.0409
▁refrain	-11.0409
▁silent	-11.0409
▁spark	-11.0409
▁Major	-11.0409
▁divert	-11.0409
▁plain	-11.0409
▁video	-11.0409
▁movie	-11.0409
▁assertive	-11.0409
▁dissent	-11.0409
▁Sachs	-11.0409
▁Thom	-11.0409
▁interview	-11.0409
▁Protection	-11.041
▁superpower	-11.041
▁75%	-11.041
▁unequal	-11.041
▁deregulation	-11.041
▁12%	-11.0411
▁crack	-11.0412
▁partisan	-11.0413
▁pa	-11.0414
▁Four	-11.0416
▁socio	-11.0418
▁CCP	-11.0418
▁persons	-11.0419
▁incremental	-11.0421
▁Bay	-11.0422
▁nets	-11.0422
ians	-11.0422
▁worsen	-11.0426
RA	-11.0428
▁infected	-11.0429
OK	-11.0429
▁clinical	-11.043
▁attraction	-11.0432
▁allocated	-11.0434
▁Constitutional	-11.0438
▁continental	-11.0444
▁processing	-11.0451
▁demonstrates	-11.0451
▁whenever	-11.0458
▁conservation	-11.0463
fully	-11.0472
▁completed	-11.0473
▁suppliers	-11.0474
▁inputs	-11.0485
tier	-11.0486
den	-11.049
▁overlook	-11.0492
▁Lo	-11.0495
resumably	-11.0496
▁cor	-11.0497
▁median	-11.0499
▁portfolio	-11.0504
▁river	-11.0504
▁restored	-11.0504
▁grid	-11.0518
▁Ali	-11.0534
▁Ne	-11.0535
▁attribute	-11.0538
▁inaction	-11.0542
▁pillars	-11.0542
▁rivers	-11.0545
▁ca	-11.0545
▁breakthroughs	-11.0551
▁stream	-11.0557
▁connections	-11.0565
hu	-11.057
▁suppress	-11.0579
▁condemn	-11.0606
▁unite	-11.0608
▁alarm	-11.061
resistant	-11.0616
seekers	-11.0616
enhancing	-11.0616
Year	-11.0616
insurance	-11.0617
needed	-11.0617
▁margins	-11.062
▁boosted	-11.0622
even	-11.0622
▁card	-11.0625
▁entitle	-11.0634
▁Arm	-11.0637
▁paradox	-11.064
▁spill	-11.0641
▁Civil	-11.0641
▁absent	-11.0641
▁Chávez	-11.0641
▁Franç	-11.0641
▁Official	-11.0641
▁Twenty	-11.0641
▁Yanukovych	-11.0641
▁cliff	-11.0641
▁daughter	-11.0641
▁divorce	-11.0641
▁embracing	-11.0641
▁imminent	-11.0641
▁methane	-11.0641
▁stagnant	-11.0641
▁subsidiaries	-11.0641
▁unpredictable	-11.0641
▁verdict	-11.0641
▁Stalin	-11.0641
▁praise	-11.0641
▁Amazon	-11.0641
▁Yellen	-11.0641
▁steer	-11.0641
▁hidden	-11.0641
▁Emmanuel	-11.0641
▁rain	-11.0642
▁Franco	-11.0642
▁livestock	-11.0642
▁storage	-11.0642
▁Exchange	-11.0642
▁offshore	-11.0642
▁twin	-11.0642
▁fought	-11.0642
▁capability	-11.0642
▁16%	-11.0642
▁Look	-11.0643
▁located	-11.0644
▁Fight	-11.0644
▁Se	-11.0645
▁Environmental	-11.0645
▁destination	-11.0645
▁dedicated	-11.0646
▁tap	-11.0646
▁intensity	-11.0646
▁mainland	-11.0647
▁stems	-11.0648
▁Oil	-11.0649
▁Globalization	-11.0651
▁voluntary	-11.0652
▁appointment	-11.0652
▁Post	-11.0654
▁partial	-11.0654
ries	-11.0655
▁Summers	-11.0656
▁Costa	-11.0657
▁underestimated	-11.0659
▁depressed	-11.0666
▁enhancing	-11.0666
aged	-11.0671
▁counterpart	-11.0674
▁unilaterally	-11.0674
DR	-11.0675
fall	-11.0676
too	-11.0677
▁negotiators	-11.0679
▁disturbing	-11.0684
Y	-11.0697
▁perfectly	-11.0702
▁2009.	-11.0702
▁Colombias	-11.0707
tre	-11.0707
▁worsening	-11.0708
▁strain	-11.0711
▁hate	-11.0725
log	-11.0726
big	-11.0732
▁narratives	-11.0732
nom	-11.0732
▁permanently	-11.0734
ques	-11.0736
▁Arabs	-11.0737
▁errors	-11.0738
▁flooding	-11.0739
▁article	-11.0741
▁piece	-11.0742
▁pillar	-11.0742
▁aspect	-11.0743
win	-11.0743
▁stressed	-11.0748
▁panel	-11.0748
▁fines	-11.0749
▁association	-11.0751
▁sale	-11.0758
▁episodes	-11.0767
▁react	-11.0777
▁transforming	-11.0778
▁defin	-11.0781
▁Dr	-11.0782
▁paint	-11.0782
OS	-11.0793
▁Im	-11.0793
ient	-11.0799
rated	-11.0817
▁records	-11.0818
▁authoriz	-11.082
▁compromises	-11.0821
▁fish	-11.0824
public	-11.085
school	-11.0853
prime	-11.0854
—	-11.0854
▁roles	-11.0856
zero	-11.0856
▁notice	-11.0857
mark	-11.0862
ou	-11.0863
▁disadvantage	-11.0865
▁plunge	-11.0865
▁anticipate	-11.0865
▁expose	-11.0865
▁perceive	-11.0865
etic	-11.0867
generation	-11.0869
▁prosper	-11.0877
▁minor	-11.0877
▁rigid	-11.0877
▁Francis	-11.0878
▁outrage	-11.0879
▁1945	-11.0879
▁Joseph	-11.0879
▁Micha	-11.0879
▁Moldova	-11.0879
▁disparities	-11.0879
▁facility	-11.0879
▁footprint	-11.0879
▁grievances	-11.0879
▁misguided	-11.0879
▁sick	-11.0879
▁wield	-11.0879
▁afflict	-11.0879
▁Brown	-11.0879
▁arrival	-11.0879
▁overnight	-11.0879
▁ratify	-11.0879
▁stabilization	-11.0879
▁Dodd	-11.088
▁admission	-11.088
▁Large	-11.088
▁mountain	-11.088
▁Friedman	-11.088
FORD	-11.088
▁Old	-11.088
AL	-11.0881
▁1,000	-11.0881
▁humiliation	-11.0881
▁consent	-11.0881
▁100%	-11.0881
▁favorite	-11.0881
▁extract	-11.0881
▁intra	-11.0882
cho	-11.0883
▁Mik	-11.0883
that	-11.0883
▁gotten	-11.0884
▁Chi	-11.0884
▁Belt	-11.0886
▁indefinitely	-11.0886
▁entitlement	-11.0887
▁protesters	-11.0888
▁disposal	-11.0888
▁irony	-11.0888
▁hint	-11.0889
▁Former	-11.0889
▁tactical	-11.0891
▁industrialized	-11.0891
▁checks	-11.0892
9%	-11.0909
rk	-11.0915
▁recommended	-11.0917
▁dismissed	-11.0918
▁Area	-11.0919
▁algorithms	-11.0923
▁tipp	-11.0926
▁undercut	-11.0933
▁derivatives	-11.0938
dding	-11.0942
rry	-11.0945
▁east	-11.095
ana	-11.0962
▁environmentally	-11.0972
ice	-11.0973
▁revision	-11.0977
▁drone	-11.0986
▁fruit	-11.0987
▁indicator	-11.0987
▁negotiation	-11.0987
▁interaction	-11.0989
▁Time	-11.099
▁customer	-11.099
▁symbol	-11.0992
▁defeated	-11.0992
▁globalized	-11.1
nic	-11.1
▁surveys	-11.1
well	-11.1005
▁symbolic	-11.1008
▁drones	-11.1015
▁answers	-11.1027
▁2017.	-11.1028
ire	-11.1029
▁mu	-11.1037
▁author	-11.1044
where	-11.1065
▁caution	-11.1074
▁--	-11.1077
▁shocking	-11.1077
gang	-11.1087
▁pump	-11.1089
▁warrant	-11.109
▁CEOs	-11.1093
Frank	-11.1098
private	-11.1099
–	-11.1099
▁precise	-11.1099
board	-11.1099
election	-11.1101
▁heed	-11.1104
▁cease	-11.1109
▁spoke	-11.1116
▁prop	-11.112
▁hazard	-11.1123
etween	-11.1123
cryptocurrencies	-11.1123
’	-11.1123
▁1973	-11.1123
▁Open	-11.1123
▁appetite	-11.1123
▁bacteria	-11.1123
▁blunt	-11.1123
▁democrats	-11.1123
▁enthusiasm	-11.1123
▁identities	-11.1123
▁malaise	-11.1123
▁obesity	-11.1123
▁opposing	-11.1123
▁outweigh	-11.1123
▁proposition	-11.1123
▁recipe	-11.1123
▁spectrum	-11.1123
▁stalemate	-11.1123
▁tweet	-11.1123
▁vacuum	-11.1123
▁baby	-11.1123
▁insolvent	-11.1123
▁assembly	-11.1123
▁augment	-11.1123
▁sectarian	-11.1123
▁Ironically	-11.1123
▁Kurdis	-11.1123
▁instance	-11.1123
▁Franklin	-11.1123
▁BOJ	-11.1123
▁Debt	-11.1123
▁Markets	-11.1124
▁tourism	-11.1124
▁deteriorating	-11.1124
▁bondholders	-11.1124
▁1995	-11.1124
▁breast	-11.1124
▁brave	-11.1124
▁deforestation	-11.1124
▁(“	-11.1124
▁allocate	-11.1125
▁soccer	-11.1125
▁concentrate	-11.1126
▁anchor	-11.1127
▁secretary	-11.1127
▁assist	-11.1128
▁TPP	-11.1129
▁optimal	-11.113
▁Action	-11.1132
▁justification	-11.1132
▁sink	-11.1133
▁dry	-11.1138
▁eroded	-11.1139
▁bailouts	-11.1151
▁rid	-11.1152
▁upper	-11.1152
▁Labor	-11.1152
▁regulated	-11.1155
▁clients	-11.1163
▁broker	-11.1165
40	-11.1168
▁freedoms	-11.117
▁Venezuelan	-11.1172
▁formation	-11.1174
▁hurricanes	-11.1176
▁ride	-11.118
▁violate	-11.1181
▁teaching	-11.1182
▁integr	-11.1185
▁breaking	-11.119
▁demonstrations	-11.1194
▁teach	-11.1196
▁belt	-11.1198
▁prize	-11.12
▁fires	-11.1205
▁infections	-11.1215
▁graduates	-11.1221
▁judge	-11.1222
▁Pre	-11.1223
▁80	-11.1228
▁materialize	-11.1231
▁rebel	-11.1237
▁insight	-11.1241
▁Ja	-11.1241
▁Fin	-11.1244
ker	-11.1247
▁radically	-11.125
▁feared	-11.1252
mired	-11.1256
▁constrain	-11.1274
▁empower	-11.1278
80	-11.128
quarters	-11.1281
▁genes	-11.1284
▁fostering	-11.1284
IS	-11.1293
▁Sp	-11.1294
balancing	-11.1296
ologist	-11.1299
▁engineers	-11.1321
hand	-11.1327
xi	-11.1328
▁nationalists	-11.1331
ja	-11.1332
▁Jo	-11.1333
▁spends	-11.1334
ook	-11.1337
ological	-11.1339
▁interesting	-11.1339
▁unleash	-11.134
▁web	-11.134
ax	-11.1357
▁decrease	-11.1359
▁respective	-11.1361
tz	-11.1364
▁loud	-11.1367
regulating	-11.1373
▁1993	-11.1373
▁1996	-11.1373
▁Administration	-11.1373
▁Digital	-11.1373
▁Hussein	-11.1373
▁Medvedev	-11.1373
▁Regulator	-11.1373
▁Tokyo	-11.1373
▁affluent	-11.1373
▁cholera	-11.1373
▁erosion	-11.1373
▁invariably	-11.1373
▁offensive	-11.1373
▁proposing	-11.1373
▁spell	-11.1373
▁succumb	-11.1373
▁traction	-11.1373
▁vague	-11.1373
▁Canadian	-11.1373
▁floor	-11.1373
▁magic	-11.1373
▁Liberia	-11.1373
▁invented	-11.1373
▁mild	-11.1373
▁mandatory	-11.1373
▁Kennedy	-11.1373
▁bullet	-11.1374
▁broadcast	-11.1374
▁linger	-11.1374
▁troubles	-11.1374
▁displacement	-11.1374
▁referred	-11.1374
▁1.5%	-11.1374
▁complaints	-11.1374
▁45%	-11.1374
▁breakdown	-11.1375
▁resume	-11.1376
▁winter	-11.1377
iz	-11.1378
▁Jim	-11.1378
▁marginalized	-11.1379
▁WWII	-11.1379
▁guess	-11.138
▁removal	-11.1381
▁distinction	-11.1381
▁backward	-11.1382
▁trapped	-11.1383
▁democratically	-11.1385
▁colonial	-11.1385
elected	-11.1387
citing	-11.1387
▁founder	-11.1391
▁prone	-11.1391
▁advocated	-11.1395
▁tougher	-11.1396
▁stalled	-11.1402
tempted	-11.1409
▁traditions	-11.141
▁revelations	-11.141
▁publish	-11.1411
▁overlooked	-11.1412
▁Koreans	-11.1417
▁holders	-11.1418
▁Woods	-11.1419
fr	-11.1422
prudential	-11.1424
▁grouping	-11.1426
▁surprised	-11.1429
▁Egyptians	-11.1431
▁minutes	-11.1431
▁decisively	-11.1432
▁performed	-11.1441
▁Bas	-11.1447
▁occasional	-11.1449
▁underscores	-11.1456
▁Camerons	-11.1464
▁Clintons	-11.1481
▁Equal	-11.1487
▁advisers	-11.1489
▁formally	-11.149
▁episode	-11.1492
▁normally	-11.1503
▁depending	-11.1507
▁coast	-11.1515
▁inward	-11.1516
▁FDI	-11.1518
-8	-11.152
riad	-11.1537
▁rent	-11.1549
▁blocking	-11.156
za	-11.1563
▁grants	-11.1581
▁craft	-11.1597
EC	-11.1598
dollar	-11.1605
10	-11.1605
▁65	-11.1605
face	-11.1609
▁journalist	-11.1614
▁Romania	-11.1618
ina	-11.1619
cut	-11.1619
▁devise	-11.162
▁nav	-11.1622
▁pi	-11.1623
▁arm	-11.1626
road	-11.1626
▁attacked	-11.1627
▁Mac	-11.1627
▁irrational	-11.1628
▁Senkaku	-11.163
▁convey	-11.163
▁Alibaba	-11.163
▁Politics	-11.163
▁autocratic	-11.163
▁benign	-11.163
▁celebration	-11.163
▁complacency	-11.163
▁composition	-11.163
▁contact	-11.163
▁evasion	-11.163
▁fierce	-11.163
▁insolvency	-11.163
▁ministries	-11.163
▁turbulence	-11.163
▁universe	-11.163
▁variable	-11.163
▁demise	-11.163
▁clearinghouse	-11.163
▁discourse	-11.163
▁uncertainties	-11.163
▁trace	-11.163
▁History	-11.1631
▁color	-11.1633
▁text	-11.1635
▁foresee	-11.1636
▁probability	-11.1636
▁assured	-11.1636
▁revised	-11.1636
▁accessible	-11.1637
▁businessmen	-11.1637
▁lifetime	-11.1639
▁strategically	-11.1641
▁engines	-11.1641
▁solving	-11.1644
▁longstanding	-11.1644
▁Austrian	-11.1649
▁consumed	-11.1653
▁proclaimed	-11.1656
▁ice	-11.1658
▁settled	-11.166
▁developers	-11.166
▁Australian	-11.1665
▁sad	-11.1666
▁fleeing	-11.1667
ati	-11.1668
▁seized	-11.1671
▁selected	-11.1671
▁hole	-11.1676
▁metrics	-11.1678
▁fronts	-11.168
▁projections	-11.1686
▁friendly	-11.1696
▁exclude	-11.1697
▁named	-11.1697
▁bargaining	-11.1699
AN	-11.1702
▁suggestion	-11.1705
▁Leaders	-11.1723
wi	-11.1727
Assad	-11.1729
▁conclusions	-11.173
▁Car	-11.1747
▁historian	-11.1755
▁fe	-11.1758
▁headline	-11.1758
▁restraint	-11.1759
▁navigate	-11.1765
thing	-11.1778
▁stra	-11.1782
ied	-11.1786
▁packages	-11.1787
▁Chen	-11.1793
▁presum	-11.1794
▁dams	-11.1805
▁Success	-11.1807
▁receives	-11.1811
▁ports	-11.1817
15	-11.1817
▁planets	-11.1819
No	-11.1822
▁obscure	-11.1832
fund	-11.1838
▁broke	-11.1841
▁bus	-11.1848
resa	-11.1848
▁doors	-11.1849
▁doubl	-11.1851
house	-11.1863
disproportionate	-11.1864
roll	-11.1864
cyclical	-11.1867
▁strange	-11.1867
Western	-11.1868
▁flowing	-11.1876
▁depreciate	-11.1878
▁accumulate	-11.1878
▁tolerate	-11.188
▁sounds	-11.1891
▁expects	-11.1891
▁traffic	-11.1893
bviously	-11.1893
▁Article	-11.1893
▁Einstein	-11.1893
▁Guantánamo	-11.1893
▁Investors	-11.1893
▁Jiabao	-11.1893
▁Netanyahu	-11.1893
▁Poverty	-11.1893
▁Zealand	-11.1893
▁aircraft	-11.1893
▁bleak	-11.1893
▁boast	-11.1893
▁club	-11.1893
▁destabilize	-11.1893
▁irreversible	-11.1893
▁ratified	-11.1893
▁replacing	-11.1893
▁Bolivia	-11.1893
▁backdrop	-11.1893
▁repeal	-11.1893
▁contributor	-11.1893
▁residential	-11.1893
▁scarcity	-11.1893
▁suspicious	-11.1893
▁disclosure	-11.1893
▁predominant	-11.1893
▁correlation	-11.1893
▁western	-11.1893
▁mistrust	-11.1893
▁Thai	-11.1893
▁Q	-11.1893
▁feedback	-11.1894
▁CIA	-11.1894
▁illness	-11.1894
▁bitter	-11.1895
▁Vienna	-11.1895
▁2019	-11.1895
▁frustrated	-11.1896
▁Gore	-11.1896
▁Independence	-11.1896
▁tolerance	-11.1897
▁Warren	-11.1897
▁certainty	-11.1898
▁standoff	-11.1898
▁undertaking	-11.19
▁beliefs	-11.19
▁forgotten	-11.1904
▁evaluate	-11.1904
being	-11.1905
▁discredited	-11.1906
▁sweeping	-11.1908
▁crude	-11.1908
▁hence	-11.1909
▁Put	-11.1909
hood	-11.1911
now	-11.1912
▁Was	-11.1914
▁disconnect	-11.1914
▁excesses	-11.1916
array	-11.1917
▁Sal	-11.1918
▁Land	-11.1922
▁allegedly	-11.1922
▁reflection	-11.1926
▁Fe	-11.1934
▁autonomous	-11.1937
rising	-11.1937
▁150	-11.1948
▁Socialist	-11.1951
▁capitalize	-11.1953
get	-11.1955
▁officers	-11.196
▁imagined	-11.1962
ham	-11.1968
amin	-11.1969
blown	-11.1972
efficient	-11.1974
▁habits	-11.1985
▁roots	-11.1997
▁cleaner	-11.2001
▁names	-11.2005
▁farms	-11.2008
▁propose	-11.2011
tick	-11.2016
▁fu	-11.2025
▁scientist	-11.2027
▁shareholder	-11.2028
▁Reserves	-11.2035
▁-2.	-11.2042
▁Ten	-11.2047
▁aged	-11.2054
ium	-11.2063
▁maintains	-11.2068
▁jeopardize	-11.207
▁describes	-11.2075
▁Wars	-11.2085
▁emphasizes	-11.21
▁opinions	-11.2102
▁print	-11.2104
nard	-11.2108
▁demonstrat	-11.2112
han	-11.2114
▁discover	-11.2124
ware	-11.2128
▁ship	-11.2133
▁leak	-11.2133
▁Kongs	-11.2134
trust	-11.2137
immigrant	-11.2138
Soviet	-11.2138
World	-11.2138
▁conservatives	-11.2141
▁cr	-11.2142
ank	-11.2148
▁devote	-11.2149
▁examine	-11.2149
If	-11.2151
▁bearing	-11.2152
▁luck	-11.2155
▁sympath	-11.2155
track	-11.2161
▁triple	-11.2161
▁culminat	-11.2163
▁reaffirm	-11.2163
▁Agriculture	-11.2163
▁Gaulle	-11.2163
▁Movement	-11.2163
▁Politicians	-11.2163
▁Romney	-11.2163
▁Sierra	-11.2163
▁abstract	-11.2163
▁ambassador	-11.2163
▁centrist	-11.2163
▁civic	-11.2163
▁cushion	-11.2163
▁despair	-11.2163
▁fiction	-11.2163
▁studied	-11.2163
▁tangible	-11.2163
▁transcend	-11.2163
▁unintended	-11.2163
▁vibrant	-11.2163
▁Martin	-11.2163
▁nightmare	-11.2163
▁Thanks	-11.2163
▁linkages	-11.2163
▁respondents	-11.2163
▁arbitrary	-11.2163
▁0.5%	-11.2163
▁Eurozone	-11.2163
▁hoping	-11.2164
▁native	-11.2164
▁1940	-11.2164
▁flat	-11.2164
▁13%	-11.2165
▁interdependence	-11.2165
▁gear	-11.2165
▁profitability	-11.2165
▁Nothing	-11.2165
▁dirty	-11.2165
ek	-11.2166
▁execution	-11.2166
▁redistribution	-11.2166
▁trafficking	-11.2167
▁Mark	-11.2167
▁Wests	-11.2167
▁republic	-11.2167
▁fever	-11.2167
▁prohibition	-11.217
▁inherited	-11.2174
▁exhausted	-11.2178
ency	-11.218
▁oldest	-11.2181
ulat	-11.2182
▁domestically	-11.2186
▁witnessed	-11.2187
▁Du	-11.2188
▁criticize	-11.2194
▁rage	-11.2197
▁violated	-11.2199
▁reasoning	-11.2204
▁arent	-11.2208
▁suspected	-11.221
▁strictly	-11.2211
▁printing	-11.2223
dependent	-11.223
▁concessions	-11.2238
▁prosecutors	-11.2241
▁remembered	-11.2242
▁restricted	-11.2251
▁signaled	-11.2256
real	-11.2257
▁document	-11.2268
▁lifting	-11.2268
▁scores	-11.2283
▁refus	-11.2285
▁dictator	-11.2304
bas	-11.2307
bust	-11.2315
▁withstand	-11.232
▁burdens	-11.2326
late	-11.2345
top	-11.2348
▁flu	-11.2351
▁starts	-11.2354
▁presents	-11.2357
▁tighten	-11.2358
▁Iranians	-11.2368
▁exporter	-11.2378
▁persists	-11.2398
▁lacked	-11.2405
▁relax	-11.2407
German	-11.2408
just	-11.2413
▁brief	-11.2416
proliferation	-11.2416
reduction	-11.2416
green	-11.2416
human	-11.2417
▁scandals	-11.2417
▁publication	-11.2418
action	-11.2423
lock	-11.2425
▁manifest	-11.2425
▁explore	-11.2426
▁celebrate	-11.2426
▁swing	-11.2428
▁cite	-11.2428
lie	-11.2439
▁thin	-11.244
▁Bulgaria	-11.2441
▁Celsius	-11.2441
▁Consumer	-11.2441
▁Earlier	-11.2441
▁Eurobonds	-11.2441
▁Fatah	-11.2441
▁Geneva	-11.2441
▁MIT	-11.2441
▁Mechanism	-11.2441
▁Tobacco	-11.2441
▁alcohol	-11.2441
▁clarity	-11.2441
▁decentralized	-11.2441
▁elusive	-11.2441
▁extension	-11.2441
▁formidable	-11.2441
▁hybrid	-11.2441
▁inequalities	-11.2441
▁psychology	-11.2441
▁qualified	-11.2441
▁remarkably	-11.2441
▁hiring	-11.2441
▁overhang	-11.2441
▁Building	-11.2441
▁bipartisan	-11.2441
▁outdated	-11.2441
▁participating	-11.2441
▁evolving	-11.2441
▁infant	-11.2441
▁consequential	-11.2441
▁-3.	-11.2441
▁outlets	-11.2441
▁Abbas	-11.2441
▁determinant	-11.2442
▁hostility	-11.2442
▁2.5%	-11.2442
▁underground	-11.2443
▁sitting	-11.2443
▁imagination	-11.2444
▁believ	-11.2444
▁Never	-11.2444
▁WHO	-11.2444
▁‘	-11.2444
▁preparation	-11.2445
▁compliance	-11.2446
▁exploitation	-11.2446
▁dual	-11.2446
▁interim	-11.2447
▁ruin	-11.2447
▁nobody	-11.2451
▁privileged	-11.2451
▁Coal	-11.2451
▁Th	-11.2453
▁withdrawn	-11.2455
harm	-11.2457
▁defer	-11.2459
Ch	-11.246
▁fatal	-11.246
▁profile	-11.2463
▁debtor	-11.2464
▁succession	-11.2469
▁9%	-11.2469
uff	-11.2474
▁Ph	-11.2476
▁hardest	-11.2477
▁Colombian	-11.2482
▁employ	-11.2483
▁Chilean	-11.2484
▁spreads	-11.2485
ittle	-11.2487
▁dragg	-11.249
▁disorderly	-11.2492
▁drives	-11.2497
▁segments	-11.2498
▁subsequently	-11.25
▁Mer	-11.2503
▁obtained	-11.2505
▁Air	-11.2508
▁struggled	-11.2519
▁$8	-11.2524
▁encourages	-11.2535
▁$60	-11.2538
▁Abu	-11.2541
▁30-	-11.2543
▁$20	-11.2543
armed	-11.2547
▁barr	-11.256
▁ordered	-11.2563
▁Dam	-11.2567
▁bases	-11.2567
▁quit	-11.2573
▁forecasting	-11.2576
cat	-11.258
▁dictators	-11.2581
▁mayor	-11.2581
ternal	-11.2582
▁Out	-11.2586
▁revolt	-11.2587
▁rises	-11.2588
▁pipeline	-11.2589
▁Representative	-11.2589
▁affair	-11.259
some	-11.2591
▁explanations	-11.2601
▁panels	-11.2604
▁emission	-11.2605
ching	-11.2609
wn	-11.2613
ont	-11.2623
ray	-11.2628
▁-0.	-11.2631
non	-11.2645
▁hu	-11.2655
ended	-11.2655
▁comfort	-11.2663
▁identifying	-11.2665
cul	-11.2671
▁knowing	-11.2679
CP	-11.2682
10,000	-11.269
▁stretch	-11.2693
UL	-11.2696
can	-11.2697
cycle	-11.2702
especially	-11.2702
lines	-11.2702
paid	-11.2704
▁Rica	-11.2709
▁Conservatives	-11.2715
▁length	-11.2719
▁sole	-11.2719
▁Ni	-11.2721
▁bright	-11.2722
▁Ver	-11.2727
▁Britons	-11.2727
▁Caribbean	-11.2727
▁Catalonia	-11.2727
▁Gordon	-11.2727
▁Jerusalem	-11.2727
▁Maastricht	-11.2727
▁Orbán	-11.2727
▁Private	-11.2727
▁Society	-11.2727
▁Swedish	-11.2727
▁Thaksin	-11.2727
▁advocating	-11.2727
▁blueprint	-11.2727
▁broadband	-11.2727
▁elimination	-11.2727
▁fragility	-11.2727
▁gasoline	-11.2727
▁illicit	-11.2727
▁indicating	-11.2727
▁license	-11.2727
▁literacy	-11.2727
▁luxury	-11.2727
▁mirror	-11.2727
▁muscle	-11.2727
▁worrisome	-11.2727
▁Baltic	-11.2727
▁Christmas	-11.2727
▁buffer	-11.2727
▁diversify	-11.2727
▁headwinds	-11.2727
▁knock	-11.2727
▁trivial	-11.2727
▁domain	-11.2727
▁cement	-11.2727
▁entity	-11.2727
▁greed	-11.2727
▁stimulating	-11.2727
▁Santos	-11.2727
▁tilt	-11.2727
▁EEA	-11.2727
▁emphasizing	-11.2727
▁innovators	-11.2727
▁bipolar	-11.2727
▁disinformation	-11.2727
▁ballistic	-11.2727
▁potent	-11.2727
▁spillover	-11.2727
▁blog	-11.2727
▁collaborative	-11.2727
▁lethal	-11.2728
▁journalism	-11.2728
▁democratization	-11.2728
▁coefficient	-11.2728
▁poet	-11.2728
anuel	-11.2728
▁17%	-11.2728
▁groundwork	-11.2728
▁intelligent	-11.2728
▁hang	-11.2729
▁forthcoming	-11.2729
▁Ever	-11.273
▁experimentation	-11.2731
Henry	-11.2731
▁Soon	-11.2732
▁mitigation	-11.2732
▁Che	-11.2733
▁occupied	-11.2733
▁Maybe	-11.2734
▁homeowners	-11.2742
▁Leone	-11.2742
▁stunning	-11.2743
▁liberalism	-11.2747
▁preceded	-11.2751
▁Han	-11.2754
▁warn	-11.2756
▁Home	-11.2762
▁corresponding	-11.2766
▁floating	-11.2769
▁squeeze	-11.2776
▁Low	-11.2777
▁Recently	-11.2778
▁attended	-11.2781
▁conferences	-11.279
▁enforced	-11.2792
defined	-11.2805
▁rationale	-11.2805
▁stations	-11.2807
ica	-11.2809
▁Bar	-11.2818
▁deploying	-11.2818
▁games	-11.2826
▁plagu	-11.2829
8%	-11.2839
▁calculations	-11.2846
looking	-11.2846
▁Pe	-11.2854
▁Los	-11.2858
▁traded	-11.2863
▁exceeded	-11.2863
hal	-11.2868
▁prescription	-11.2882
▁spot	-11.2883
▁disagreement	-11.2884
rawing	-11.2887
▁interactions	-11.2891
ties	-11.2894
worthy	-11.2912
▁Year	-11.2916
▁mothers	-11.2927
▁bi	-11.2933
▁lit	-11.2944
reach	-11.2949
▁fir	-11.295
▁foot	-11.2976
▁beat	-11.2978
ley	-11.2988
▁stall	-11.2989
thy	-11.2992
▁jail	-11.2992
liberal	-11.2993
▁wild	-11.2995
skill	-11.2997
▁Comp	-11.3003
iest	-11.3003
▁initiate	-11.3006
▁restructure	-11.3007
▁trick	-11.301
▁educate	-11.301
▁Hun	-11.3014
▁leg	-11.3014
▁feelings	-11.3018
▁coincide	-11.302
▁Kyi	-11.302
moon	-11.302
▁advent	-11.302
▁converge	-11.302
▁counsel	-11.3021
▁crippl	-11.3021
▁discount	-11.3021
▁Arafat	-11.3021
▁Challenge	-11.3021
▁Chicago	-11.3021
▁Control	-11.3021
▁Ecuador	-11.3021
▁Empire	-11.3021
▁SANTIAGO	-11.3021
▁Schengen	-11.3021
▁Scott	-11.3021
▁Support	-11.3021
▁beneficiaries	-11.3021
▁cynical	-11.3021
▁discern	-11.3021
▁drift	-11.3021
▁frequency	-11.3021
▁friction	-11.3021
▁influx	-11.3021
▁penalties	-11.3021
▁philosophy	-11.3021
▁physics	-11.3021
▁pundits	-11.3021
▁reconstruction	-11.3021
▁rigorous	-11.3021
▁tribal	-11.3021
▁Smith	-11.3021
▁durable	-11.3021
▁gamble	-11.3021
▁loop	-11.3021
▁massacre	-11.3021
▁empty	-11.3021
▁newcomers	-11.3021
▁premise	-11.3021
▁forefront	-11.3021
▁textbook	-11.3021
▁peso	-11.3021
▁skeptics	-11.3021
▁subtle	-11.3021
▁Drug	-11.3021
▁Lula	-11.3021
▁mining	-11.3022
▁competence	-11.3022
YO	-11.3022
matic	-11.3022
▁plight	-11.3023
▁24%	-11.3023
▁leap	-11.3023
▁Belgium	-11.3023
▁resignation	-11.3024
▁DNA	-11.3025
▁derive	-11.3025
▁delegation	-11.3025
▁genocide	-11.3025
▁woes	-11.3025
▁manipulate	-11.3025
▁BRI	-11.3026
▁amendment	-11.3026
▁overly	-11.3027
▁powerhouse	-11.303
▁anyway	-11.3036
▁stone	-11.3037
vy	-11.3037
▁permitted	-11.3038
▁invited	-11.3038
raft	-11.3038
▁defenses	-11.304
▁manageable	-11.3042
▁speeches	-11.305
▁perceptions	-11.305
▁helpful	-11.3053
proportionately	-11.3053
▁hopeless	-11.3058
financed	-11.3062
▁Ku	-11.3066
▁accomplished	-11.3067
▁Kenyan	-11.3069
3,000	-11.3076
▁channeled	-11.3077
!”	-11.3081
▁plastics	-11.3085
▁geographical	-11.3089
▁feels	-11.3101
▁symptoms	-11.311
▁watched	-11.3113
▁academics	-11.3116
▁technocrats	-11.3119
.9%	-11.3121
▁Mis	-11.3125
▁functional	-11.3127
▁quotas	-11.3131
AM	-11.3135
ched	-11.3136
▁detail	-11.3155
▁talents	-11.3155
▁Indians	-11.3156
uthoritarianism	-11.3159
▁Years	-11.3161
▁safely	-11.3166
rey	-11.3168
▁documents	-11.3169
▁$40	-11.317
▁convert	-11.318
▁listed	-11.3181
▁incident	-11.3185
▁recipient	-11.3186
▁adult	-11.3187
▁implication	-11.3188
lecommunications	-11.3189
▁adviser	-11.319
▁Nu	-11.319
▁shorter	-11.3193
▁prediction	-11.3199
erto	-11.3225
▁appeals	-11.3232
▁Compar	-11.3233
▁cancers	-11.3238
▁respects	-11.3244
pla	-11.3255
▁sm	-11.326
arrow	-11.3261
▁gra	-11.327
ular	-11.3271
▁maximiz	-11.3272
▁qui	-11.3281
▁Mali	-11.3283
edge	-11.329
18	-11.3291
lov	-11.3299
Chinese	-11.3299
fiscal	-11.3299
resource	-11.3301
▁emerges	-11.3304
soft	-11.3305
offs	-11.3305
▁deserves	-11.3318
▁drops	-11.332
▁epidemics	-11.332
Semitism	-11.3324
centric	-11.3324
▁Academy	-11.3324
▁Alternative	-11.3324
▁Failure	-11.3324
▁Fifth	-11.3324
▁Historically	-11.3324
▁Imagine	-11.3324
▁Inflation	-11.3324
▁Michel	-11.3324
▁Modern	-11.3324
▁Snowden	-11.3324
▁autocrats	-11.3324
▁automated	-11.3324
▁capacities	-11.3324
▁controversy	-11.3324
▁defensive	-11.3324
▁deputy	-11.3324
▁enlightened	-11.3324
▁globe	-11.3324
▁guerrilla	-11.3324
▁husband	-11.3324
▁marine	-11.3324
▁session	-11.3324
▁skepticism	-11.3324
▁uranium	-11.3324
▁unchanged	-11.3324
▁Royal	-11.3324
▁invention	-11.3324
▁Microsoft	-11.3324
▁Risk	-11.3324
UNIC	-11.3324
▁Boston	-11.3324
▁Medicare	-11.3324
▁incursion	-11.3324
▁Moham	-11.3324
▁confusion	-11.3324
▁entrepreneurial	-11.3324
▁accusations	-11.3324
▁purge	-11.3324
▁1.5	-11.3324
▁Goldman	-11.3324
▁rampant	-11.3324
▁insistence	-11.3324
▁lagging	-11.3325
▁repressive	-11.3325
▁ignorance	-11.3325
▁empowerment	-11.3325
▁spect	-11.3326
▁unresolved	-11.3326
▁Jong	-11.3326
▁Election	-11.3327
▁Doha	-11.3327
▁enthusiastic	-11.3327
▁tenure	-11.3327
▁pour	-11.3327
▁vaccination	-11.3328
▁nomination	-11.3328
▁pretend	-11.3328
▁operates	-11.3328
▁radio	-11.3329
▁TTIP	-11.3329
▁insurgency	-11.333
▁bets	-11.3332
▁doom	-11.3333
▁somewhere	-11.3337
▁2.5	-11.3338
▁asymmetric	-11.334
handed	-11.334
▁spoken	-11.3341
▁Southern	-11.3341
hen	-11.3345
▁ranked	-11.3345
▁fan	-11.3347
▁distorted	-11.3354
▁incorporate	-11.3355
▁fallout	-11.3362
▁empowered	-11.3365
▁Roman	-11.3365
▁thinks	-11.3371
▁considers	-11.3372
▁emotions	-11.3374
Ma	-11.3375
▁operators	-11.3377
▁echo	-11.3378
▁Judg	-11.3379
balance	-11.3381
fledg	-11.3382
fect	-11.3385
▁footing	-11.3386
▁agendas	-11.3388
▁reformers	-11.34
▁repayment	-11.3403
▁2005.	-11.3406
fence	-11.3411
▁institute	-11.3427
▁missions	-11.3436
▁stages	-11.344
▁valid	-11.3446
▁neutral	-11.3466
▁insisting	-11.3471
▁wasted	-11.3479
▁score	-11.3485
▁Democrat	-11.3486
step	-11.3491
▁prevails	-11.3496
▁sport	-11.3499
▁odd	-11.3499
▁doctor	-11.35
▁confin	-11.3507
▁organize	-11.3513
TO	-11.3515
▁exceptions	-11.3519
tric	-11.3532
▁hearts	-11.3541
▁spurr	-11.3542
▁1.3	-11.3548
▁occupations	-11.3559
▁reformed	-11.3559
▁reviv	-11.3569
▁swap	-11.3572
▁manipulat	-11.358
▁bin	-11.3582
finance	-11.3594
▁erupt	-11.3599
▁resign	-11.3599
bad	-11.36
America	-11.3604
▁Alas	-11.3607
▁monthly	-11.3609
▁chart	-11.3611
found	-11.3611
yield	-11.3611
Islam	-11.3611
great	-11.3612
▁deliberate	-11.3612
social	-11.3612
lived	-11.3612
▁reinforces	-11.3624
▁lesser	-11.3629
▁shake	-11.3629
▁peg	-11.3634
▁Euroskeptic	-11.3635
▁fool	-11.3635
▁chess	-11.3636
▁blue	-11.3636
▁underestimate	-11.3636
▁Budget	-11.3636
▁Chernobyl	-11.3636
▁College	-11.3636
▁Khamenei	-11.3636
▁Madrid	-11.3636
▁Rousseff	-11.3636
▁Standard	-11.3636
▁Wilders	-11.3636
▁activism	-11.3636
▁blunder	-11.3636
▁escalate	-11.3636
▁excellent	-11.3636
▁fisheries	-11.3636
▁fortunate	-11.3636
▁legislators	-11.3636
▁maintenance	-11.3636
▁memories	-11.3636
▁militarily	-11.3636
▁nervous	-11.3636
▁nominee	-11.3636
▁ostensibl	-11.3636
▁procurement	-11.3636
▁protocol	-11.3636
ayyi	-11.3636
▁spearhead	-11.3636
▁Data	-11.3636
▁accommodation	-11.3636
▁assign	-11.3636
▁concede	-11.3636
▁thriving	-11.3636
▁helicopter	-11.3636
▁Darwin	-11.3636
▁pilot	-11.3636
▁audit	-11.3636
▁surging	-11.3637
▁maximum	-11.3637
▁textile	-11.3637
▁revert	-11.3637
▁hack	-11.3637
▁famine	-11.3637
▁Region	-11.3637
▁perspectives	-11.3637
▁label	-11.3638
▁21%	-11.3638
▁Creat	-11.3638
▁machinery	-11.3639
▁complementary	-11.3639
▁orthodoxy	-11.3639
▁2,000	-11.364
▁limitations	-11.364
▁insult	-11.364
▁stepped	-11.364
▁insulat	-11.364
▁renewal	-11.3641
▁explaining	-11.3642
▁passive	-11.3642
▁AKP	-11.3643
▁tries	-11.3645
▁indirect	-11.3645
▁calculated	-11.3648
▁wishes	-11.3653
▁outset	-11.3654
▁sky	-11.3658
▁suspended	-11.366
▁registered	-11.3662
▁burned	-11.3669
▁tightened	-11.3674
▁mistaken	-11.3676
▁gathered	-11.3684
▁witnessing	-11.3685
▁disappeared	-11.369
▁motives	-11.3701
▁accurately	-11.3702
LE	-11.3705
▁realm	-11.3706
▁pockets	-11.3709
▁organizational	-11.3715
bil	-11.3716
▁bu	-11.3718
▁upside	-11.3718
▁du	-11.3719
▁collected	-11.3721
▁wo	-11.3744
▁tanks	-11.3745
▁jeopardiz	-11.3746
▁picking	-11.3758
▁Olympics	-11.3758
▁lab	-11.3763
▁fixing	-11.3765
▁privately	-11.3774
▁downgrade	-11.3774
▁mitigat	-11.3774
▁sports	-11.3776
▁Kenyas	-11.3778
▁coalitions	-11.378
▁submitt	-11.3783
▁emit	-11.3796
▁tape	-11.3801
▁vo	-11.3809
▁mentioned	-11.3813
fu	-11.3819
▁Service	-11.3821
▁schooling	-11.3821
▁barrier	-11.3823
▁struggles	-11.3825
▁portfolios	-11.3825
▁seed	-11.3832
▁tradeoff	-11.3833
▁storms	-11.3834
▁peers	-11.3834
gui	-11.3847
▁immigrant	-11.3852
▁metal	-11.3853
▁burn	-11.3867
▁stores	-11.3875
▁90	-11.3889
▁Ukrainians	-11.3897
▁disturb	-11.39
▁rewards	-11.3904
▁widen	-11.3907
▁Force	-11.3911
▁ideals	-11.3915
view	-11.3916
▁trusted	-11.3918
▁hamper	-11.3925
▁embark	-11.3925
Europe	-11.393
▁Marx	-11.3933
▁safeguards	-11.3933
affected	-11.3933
▁abrupt	-11.3933
profile	-11.3934
competitive	-11.3934
▁slight	-11.3936
▁shortfalls	-11.3938
month	-11.3941
▁irre	-11.3943
▁Mexicos	-11.3947
▁confronts	-11.3948
▁random	-11.3958
▁compel	-11.3958
ontrary	-11.3958
ecutive	-11.3958
rine	-11.3958
▁bankrupt	-11.3959
▁Wolf	-11.3959
embodied	-11.3959
▁1962	-11.3959
▁1982	-11.3959
▁Cairo	-11.3959
▁Caucasus	-11.3959
▁Guinea	-11.3959
▁Iceland	-11.3959
▁Ministry	-11.3959
▁Rowhani	-11.3959
▁Transatlantic	-11.3959
▁absurd	-11.3959
▁accompany	-11.3959
▁capturing	-11.3959
▁catalyst	-11.3959
▁culprit	-11.3959
▁essence	-11.3959
▁football	-11.3959
▁incapable	-11.3959
▁junta	-11.3959
▁lofty	-11.3959
▁morning	-11.3959
▁nicotine	-11.3959
▁obsolete	-11.3959
▁persecution	-11.3959
▁prejudice	-11.3959
▁radiation	-11.3959
▁satellite	-11.3959
▁separation	-11.3959
▁shelter	-11.3959
▁shield	-11.3959
▁substance	-11.3959
▁impasse	-11.3959
▁subdued	-11.3959
▁Meeting	-11.3959
▁Way	-11.3959
▁Children	-11.3959
guiding	-11.3959
▁ceasefire	-11.3959
▁slack	-11.396
▁eradication	-11.396
▁Congo	-11.396
▁dependency	-11.396
▁14%	-11.3961
▁FTA	-11.3961
▁farmland	-11.3961
▁€2	-11.3961
▁motor	-11.3961
▁rivalry	-11.3961
▁incorporat	-11.3961
▁18%	-11.3962
▁heritage	-11.3962
▁Marshall	-11.3963
▁passage	-11.3963
weapons	-11.3964
▁Rece	-11.3964
▁appearance	-11.3964
▁statehood	-11.3966
▁FOMC	-11.3966
▁underlie	-11.3967
▁ODA	-11.3968
▁cigarette	-11.3968
▁multilateralism	-11.3971
▁unfortunately	-11.3974
▁convenient	-11.3974
▁executed	-11.3975
▁Care	-11.3976
room	-11.3976
▁careers	-11.3978
▁booms	-11.398
▁proof	-11.398
▁distribute	-11.3985
▁summits	-11.3992
▁fathers	-11.3992
▁doomed	-11.3995
▁34	-11.3995
▁resistant	-11.3997
▁realization	-11.4012
▁Har	-11.4012
▁nu	-11.4015
▁revived	-11.4023
95	-11.4027
rule	-11.4028
▁$300	-11.4039
▁supportive	-11.404
▁languages	-11.404
▁leveraged	-11.4041
▁counted	-11.4047
▁illustrates	-11.4048
▁eradicate	-11.4055
▁tie	-11.4057
▁breach	-11.4063
▁Bio	-11.4063
stitution	-11.4064
▁correctly	-11.4072
▁units	-11.4075
▁suited	-11.4083
▁narrowly	-11.4085
igh	-11.4086
▁swaps	-11.4102
AI	-11.4112
▁relate	-11.4117
▁depress	-11.412
▁swings	-11.4122
▁proposes	-11.4127
▁clearer	-11.4136
nnual	-11.4138
▁rebels	-11.4139
stitut	-11.4145
tant	-11.4146
rill	-11.4147
▁calculation	-11.4154
▁activist	-11.4155
▁error	-11.4156
▁violation	-11.4157
▁forth	-11.4162
▁unc	-11.4163
▁writer	-11.4167
▁sentiments	-11.4187
cil	-11.4188
azi	-11.4201
▁voter	-11.4207
lessness	-11.4211
self	-11.422
▁pen	-11.4223
▁containing	-11.4232
arm	-11.4242
source	-11.4256
▁distort	-11.4256
▁Northeast	-11.4261
▁staying	-11.4262
▁declarations	-11.4266
correct	-11.4267
commerce	-11.4267
Japanese	-11.4268
establishment	-11.4268
QE	-11.4268
▁committ	-11.4271
asset	-11.4271
▁proclaim	-11.4274
play	-11.4278
▁mode	-11.4284
▁($2	-11.4288
wind	-11.4288
▁outbreaks	-11.4289
▁endure	-11.429
▁Univers	-11.429
▁Sad	-11.4291
▁systematic	-11.4291
▁Angola	-11.4292
▁Calderón	-11.4292
▁Corbyn	-11.4292
▁Credit	-11.4292
▁FBI	-11.4292
▁League	-11.4292
▁Mahmoud	-11.4292
▁Pradesh	-11.4292
▁Strategic	-11.4292
▁Studies	-11.4292
▁Xinjiang	-11.4292
▁Zedong	-11.4292
▁analytics	-11.4292
▁bread	-11.4292
▁categories	-11.4292
▁clarify	-11.4292
▁deciding	-11.4292
▁detention	-11.4292
▁divisive	-11.4292
▁geography	-11.4292
▁gesture	-11.4292
▁maternal	-11.4292
▁pessimism	-11.4292
▁relevance	-11.4292
▁repercussions	-11.4292
▁reversing	-11.4292
▁signatories	-11.4292
▁tuberculosis	-11.4292
▁unthinkable	-11.4292
▁Bureau	-11.4292
▁Money	-11.4292
▁metaphor	-11.4292
▁remedy	-11.4292
▁ruthless	-11.4292
▁surrender	-11.4292
▁hesitate	-11.4292
▁duties	-11.4292
▁Disease	-11.4292
▁cocaine	-11.4292
▁disclose	-11.4292
▁BRIC	-11.4292
▁dismal	-11.4292
▁title	-11.4293
▁wholesale	-11.4293
▁adversaries	-11.4293
▁proactive	-11.4293
reliant	-11.4293
▁95%	-11.4293
▁desert	-11.4294
▁necessity	-11.4294
raising	-11.4295
▁payroll	-11.4295
▁equation	-11.4296
▁Overall	-11.4296
▁deadline	-11.4296
▁guilty	-11.4297
▁Annan	-11.4297
▁exile	-11.4297
▁illnesses	-11.4298
▁dust	-11.4299
▁copy	-11.43
▁hostage	-11.43
▁Rio	-11.43
▁usher	-11.4301
▁Around	-11.4302
▁lament	-11.4303
▁overdue	-11.4305
▁outsiders	-11.4308
case	-11.431
going	-11.431
▁examined	-11.431
lest	-11.4312
lung	-11.4313
▁intellectuals	-11.4313
▁buyers	-11.4313
▁hero	-11.4318
▁loosen	-11.4328
▁fighters	-11.433
▁gay	-11.4332
▁leftist	-11.4333
▁quas	-11.4335
▁jumped	-11.4345
▁passion	-11.4347
▁cop	-11.4349
NE	-11.435
▁seekers	-11.4353
▁NCDs	-11.4356
▁pages	-11.4361
ET	-11.4364
▁Shi	-11.4367
▁favors	-11.4373
▁socialism	-11.4374
herently	-11.4384
▁aversion	-11.4386
ku	-11.4388
▁cont	-11.4395
”?	-11.4397
▁pin	-11.4399
▁offend	-11.44
▁transitions	-11.4406
▁privileges	-11.4409
▁tear	-11.4424
tress	-11.4445
ivity	-11.4446
▁Take	-11.445
11	-11.4452
ery	-11.4452
sponsored	-11.4453
▁instruct	-11.4458
▁Jane	-11.4464
DA	-11.4478
lot	-11.4479
▁stifle	-11.448
▁performing	-11.4497
▁Balkan	-11.45
▁opponent	-11.4501
▁graduate	-11.4502
▁debated	-11.4503
▁imperatives	-11.4505
▁distribut	-11.4512
▁crossed	-11.4522
▁diet	-11.4523
▁$12	-11.4526
▁ignores	-11.4527
▁governors	-11.4529
changing	-11.4533
▁hydro	-11.4536
integrating	-11.4542
posit	-11.4548
fair	-11.4554
▁citys	-11.4559
▁bombs	-11.4569
▁cool	-11.4583
dise	-11.4585
▁commissions	-11.4588
▁player	-11.4597
developed	-11.4607
fire	-11.4608
▁adapting	-11.4611
▁swift	-11.4612
Qaeda	-11.4612
efficiency	-11.4612
▁quiet	-11.4613
globalization	-11.4613
Russian	-11.4618
ili	-11.4626
▁convention	-11.4628
clined	-11.4635
▁responsive	-11.4635
▁imposes	-11.4635
▁Progress	-11.4635
▁regret	-11.4636
▁loyal	-11.4636
▁automatic	-11.4636
▁inhibit	-11.4636
▁affirm	-11.4637
▁1967	-11.4637
▁1978	-11.4637
▁Achiev	-11.4637
▁Amendment	-11.4637
▁BRCA	-11.4637
▁Bundesbank	-11.4637
▁CTBT	-11.4637
▁Chirac	-11.4637
▁Dream	-11.4637
▁Fillon	-11.4637
▁Gandhi	-11.4637
▁Rumsfeld	-11.4637
▁UNESCO	-11.4637
▁William	-11.4637
▁category	-11.4637
▁curve	-11.4637
▁diabetes	-11.4637
▁escalation	-11.4637
▁hatred	-11.4637
▁identification	-11.4637
▁immune	-11.4637
▁indifference	-11.4637
▁irrigation	-11.4637
▁opium	-11.4637
▁quantity	-11.4637
▁referenda	-11.4637
▁silver	-11.4637
▁solvency	-11.4637
▁speculators	-11.4637
▁tribunal	-11.4637
▁vivid	-11.4637
▁volunteer	-11.4637
▁yellow	-11.4637
▁sterling	-11.4637
▁swath	-11.4637
▁merchan	-11.4637
▁allegations	-11.4637
▁kilometers	-11.4637
▁biology	-11.4637
▁Trust	-11.4637
▁battlefield	-11.4637
▁Singh	-11.4637
▁ghost	-11.4638
▁railway	-11.4638
▁exert	-11.4638
▁Peter	-11.4638
▁shop	-11.4638
▁systematically	-11.4638
▁Nature	-11.4638
▁milk	-11.4638
▁Life	-11.4638
▁derail	-11.4638
▁contentious	-11.4638
▁6.5%	-11.4638
▁transformative	-11.4638
▁3.5%	-11.4638
▁Young	-11.4639
▁wealthiest	-11.4639
▁hunt	-11.4639
▁everybody	-11.464
▁superiority	-11.464
▁Hungarian	-11.464
▁garment	-11.464
▁rebalance	-11.4641
▁watershed	-11.4641
▁maturity	-11.4642
▁betting	-11.4643
▁400	-11.4643
▁reasonably	-11.4644
▁Youth	-11.4645
▁notwithstanding	-11.4645
▁truck	-11.4646
▁Has	-11.4646
open	-11.4647
hail	-11.4649
ridden	-11.465
bar	-11.4652
▁banned	-11.4655
▁depreciated	-11.4656
▁outstanding	-11.4658
▁derived	-11.4659
▁urged	-11.4659
90	-11.4662
▁imped	-11.4664
▁indirectly	-11.4665
▁Which	-11.4665
▁anytime	-11.467
▁lobbying	-11.4676
▁Cuban	-11.4679
▁unleashed	-11.4684
▁complained	-11.4692
▁please	-11.4695
▁depressing	-11.47
▁aligned	-11.4701
▁survived	-11.4701
▁compromised	-11.4703
▁cents	-11.4708
▁artificially	-11.471
▁inspiring	-11.4712
▁transitional	-11.4713
▁districts	-11.4713
▁desired	-11.4717
▁organiz	-11.472
▁rip	-11.472
▁Aid	-11.473
▁journals	-11.4731
▁breath	-11.4734
CO	-11.4735
lash	-11.4737
▁upholding	-11.4742
▁peacefully	-11.4749
▁resisted	-11.4754
than	-11.4761
uch	-11.4763
▁west	-11.4765
curred	-11.4766
▁trillions	-11.4777
▁collaborate	-11.4777
▁confine	-11.4782
▁Forces	-11.4787
▁modernize	-11.4787
▁dismantl	-11.479
▁Services	-11.479
▁recipients	-11.4797
▁Securiti	-11.4799
▁tapp	-11.4806
▁exported	-11.4806
▁agreeing	-11.481
LO	-11.4811
▁ships	-11.4813
▁secured	-11.4827
▁attest	-11.4836
▁strains	-11.4842
▁heating	-11.4856
▁Olympic	-11.4856
▁regulator	-11.4857
▁preference	-11.4859
▁procedure	-11.486
▁dreams	-11.4863
▁lifestyle	-11.4865
lier	-11.4872
▁sn	-11.4872
▁proves	-11.4876
▁upend	-11.4891
▁rests	-11.4907
▁commissioner	-11.4911
▁settings	-11.4912
▁hyper	-11.4923
▁designat	-11.4933
▁Nazis	-11.4934
▁surround	-11.4935
▁X	-11.4946
▁Interest	-11.4947
sky	-11.495
▁champions	-11.4951
body	-11.4953
bat	-11.4958
▁trans	-11.496
▁encounter	-11.496
grade	-11.4968
▁relentless	-11.4969
Arab	-11.4969
regional	-11.4969
giving	-11.4969
productivity	-11.4969
weight	-11.497
Israeli	-11.4971
▁steal	-11.498
payments	-11.4983
▁pack	-11.4991
▁Syrians	-11.4991
-2008	-11.4993
▁deteriorati	-11.4994
▁drama	-11.4994
▁1929	-11.4994
▁Comprehensive	-11.4994
▁Dubai	-11.4994
▁Financing	-11.4994
▁Liberation	-11.4994
▁Osborne	-11.4994
▁Oxford	-11.4994
▁PLA	-11.4994
▁Peninsula	-11.4994
▁Rouhani	-11.4994
▁dampen	-11.4994
▁explosive	-11.4994
▁hinder	-11.4994
▁paralysis	-11.4994
▁reassuring	-11.4994
▁restaurant	-11.4994
▁stubborn	-11.4994
▁unconditional	-11.4994
▁unlimited	-11.4994
▁Information	-11.4994
▁geopolitics	-11.4994
▁impediment	-11.4994
▁vacation	-11.4994
▁Current	-11.4994
▁sister	-11.4994
▁sugar	-11.4994
▁database	-11.4994
▁reinvent	-11.4994
▁reiterat	-11.4994
▁likewise	-11.4994
▁Case	-11.4994
▁contradictory	-11.4994
▁string	-11.4994
recapitalization	-11.4994
▁rice	-11.4995
▁cheer	-11.4995
▁continuity	-11.4995
▁Sharon	-11.4995
▁copper	-11.4995
▁disappointment	-11.4995
▁prerequisite	-11.4995
▁spin	-11.4995
▁2007-2008	-11.4995
▁Pope	-11.4995
▁indoor	-11.4995
▁unavoidable	-11.4995
▁rocket	-11.4995
-2015	-11.4995
▁28%	-11.4995
▁description	-11.4995
▁courageous	-11.4996
▁tyranny	-11.4996
▁Workers	-11.4996
▁Eurasia	-11.4996
▁items	-11.4997
▁assassination	-11.4997
▁bribes	-11.4997
▁1920	-11.4998
▁therapy	-11.4999
▁misuse	-11.4999
▁confused	-11.4999
▁destiny	-11.5
▁disappointed	-11.5002
EO	-11.5003
▁everyday	-11.5004
▁Fall	-11.5005
▁differential	-11.5008
▁Million	-11.5011
▁merger	-11.5011
▁conditional	-11.5015
▁convened	-11.5017
▁wip	-11.5018
▁Well	-11.5018
▁Higher	-11.5018
▁administered	-11.5025
▁forged	-11.5027
▁embarked	-11.5031
▁intervened	-11.5032
▁Red	-11.5039
▁Nigerian	-11.504
▁Liu	-11.5041
▁lean	-11.5044
$	-11.5044
▁reacted	-11.5045
16	-11.5051
▁ranking	-11.5058
▁crossing	-11.5067
▁Short	-11.5067
▁departments	-11.5068
▁behavioral	-11.5072
▁forming	-11.5081
▁ingredients	-11.5083
▁realism	-11.5085
▁trees	-11.5088
▁scar	-11.5089
▁dealt	-11.5096
ural	-11.5103
▁comments	-11.5103
char	-11.5104
▁visits	-11.5107
▁boys	-11.5108
Re	-11.5112
▁stat	-11.5113
▁devaluations	-11.5117
▁band	-11.5118
▁exploited	-11.512
▁militants	-11.5124
▁killings	-11.5132
▁weakens	-11.5136
pped	-11.5153
zone	-11.516
▁enormously	-11.5164
▁innovate	-11.5168
▁Men	-11.5171
rov	-11.5176
▁Col	-11.5198
▁comp	-11.5201
▁prioritize	-11.5209
▁virtue	-11.5226
▁fortune	-11.5226
▁brother	-11.5226
▁jurisdictions	-11.5227
▁scholar	-11.5227
▁professors	-11.5227
▁Economist	-11.5228
▁antibiotic	-11.5228
▁infection	-11.5228
▁hub	-11.5229
▁sorts	-11.5233
▁fulfilling	-11.5235
▁constraint	-11.5236
▁nurture	-11.5239
otic	-11.5239
▁Gu	-11.524
uted	-11.5243
▁morally	-11.5259
▁Kh	-11.5259
▁quota	-11.5268
▁screen	-11.5271
▁breaks	-11.5274
managed	-11.5275
▁pledges	-11.5276
▁concepts	-11.5279
▁dare	-11.5299
▁escap	-11.5308
▁coordinat	-11.5311
aid	-11.5312
▁exempt	-11.5312
guard	-11.5313
▁await	-11.5326
nation	-11.5328
euro	-11.5339
invest	-11.534
communist	-11.534
decade	-11.534
▁simultaneous	-11.534
▁insider	-11.5342
▁beating	-11.5345
life	-11.5346
▁Armenia	-11.5349
card	-11.5349
▁frame	-11.535
▁agent	-11.535
▁Institution	-11.5351
á	-11.5355
directed	-11.5356
▁contradict	-11.5362
▁smoke	-11.5364
▁1.4	-11.5364
valence	-11.5364
-1990	-11.5365
▁Buddhist	-11.5365
▁Catalan	-11.5365
▁Framework	-11.5365
▁Hamilton	-11.5365
▁Jintao	-11.5365
▁Malaria	-11.5365
▁Piñera	-11.5365
▁Populist	-11.5365
▁Stiglitz	-11.5365
▁Texas	-11.5365
▁Uribe	-11.5365
▁Wilson	-11.5365
▁Yasukuni	-11.5365
▁anxious	-11.5365
▁communicate	-11.5365
▁eighteenth	-11.5365
▁havoc	-11.5365
▁modification	-11.5365
▁opaque	-11.5365
▁physicist	-11.5365
▁punitive	-11.5365
▁racism	-11.5365
▁sequence	-11.5365
▁steam	-11.5365
▁strides	-11.5365
▁substantive	-11.5365
▁susceptible	-11.5365
▁treasury	-11.5365
▁Delhi	-11.5365
▁Luxembourg	-11.5365
▁Think	-11.5365
▁examination	-11.5365
▁imposition	-11.5365
▁inconsistent	-11.5365
▁mask	-11.5365
▁twist	-11.5365
▁unbalanced	-11.5365
▁viability	-11.5365
▁misunderstand	-11.5365
▁website	-11.5365
▁biofuels	-11.5365
▁drilling	-11.5365
▁naive	-11.5365
▁robotics	-11.5365
▁aspire	-11.5365
▁Intelligence	-11.5365
▁breed	-11.5365
▁billionaire	-11.5365
▁Executive	-11.5365
▁Guard	-11.5365
STAN	-11.5365
▁Manag	-11.5365
▁Fischer	-11.5365
▁Jeff	-11.5365
▁email	-11.5365
▁tempting	-11.5365
▁Six	-11.5365
▁therapies	-11.5365
▁Uber	-11.5365
lip	-11.5366
▁sidelines	-11.5366
▁Later	-11.5366
▁invitation	-11.5366
▁alert	-11.5367
▁clock	-11.5367
▁Morales	-11.5367
sembl	-11.5367
core	-11.5368
▁lawmakers	-11.5369
▁anonymous	-11.5369
▁brutality	-11.5371
▁editor	-11.5371
titude	-11.5372
▁externalities	-11.5372
▁liberalizing	-11.5372
▁satisfied	-11.5372
▁cage	-11.5374
ome	-11.5376
garet	-11.5376
void	-11.5377
▁1.2	-11.5377
▁riskier	-11.5377
▁Dala	-11.538
▁endured	-11.5381
▁valued	-11.5381
▁perpetrators	-11.5383
▁factions	-11.5385
▁experimental	-11.5385
▁ju	-11.5386
▁overwhelmed	-11.5387
You	-11.5389
▁acknowledging	-11.5392
▁overtake	-11.5393
▁successive	-11.5395
▁cry	-11.5396
UR	-11.5397
▁counts	-11.5399
Americans	-11.54
▁Lu	-11.5401
▁widened	-11.5406
▁comply	-11.5408
▁flying	-11.5409
▁Working	-11.5409
▁drinking	-11.5409
▁purchased	-11.5413
▁thinkers	-11.5416
▁capitalization	-11.543
▁enforc	-11.5433
▁contractor	-11.5435
▁king	-11.5436
▁markedly	-11.5437
empt	-11.5437
▁maybe	-11.5438
▁distinguished	-11.5443
▁punished	-11.5445
▁soul	-11.5446
▁picked	-11.5446
▁deepened	-11.5448
setting	-11.5451
▁clinics	-11.5452
discretionary	-11.5458
▁unrealistic	-11.5461
▁abound	-11.5464
▁plot	-11.5464
ange	-11.5472
▁visions	-11.5475
▁rebuilding	-11.5481
▁exercises	-11.5482
▁shame	-11.5484
▁owes	-11.5489
tude	-11.5502
▁fired	-11.5503
▁handed	-11.5504
▁Venezuelas	-11.5509
▁withdrawing	-11.5512
▁existed	-11.5515
▁relat	-11.5516
▁questioned	-11.5541
▁$9	-11.5544
▁pipelines	-11.5547
far	-11.5559
rick	-11.5569
▁enjoying	-11.5573
▁etc	-11.5573
▁fruits	-11.5577
▁revealing	-11.5582
lem	-11.5582
▁Bori	-11.5583
▁pieces	-11.5585
▁dog	-11.5592
▁Sciences	-11.5595
▁proportions	-11.5608
▁offense	-11.561
▁automobile	-11.561
▁mineral	-11.5611
▁militant	-11.5611
▁Leader	-11.5614
▁messages	-11.5615
▁origins	-11.5626
IC	-11.5634
▁liberals	-11.5644
▁shed	-11.5644
▁CD	-11.5644
established	-11.5653
▁witness	-11.5656
▁Pi	-11.5658
city	-11.567
ama	-11.5677
▁Mubaraks	-11.5687
▁blocs	-11.5687
▁imagin	-11.5688
▁preced	-11.5715
▁abolish	-11.5715
dumping	-11.5724
▁rear	-11.5724
▁notorious	-11.5724
indebted	-11.5724
SOEs	-11.5724
educated	-11.5724
Brazil	-11.5724
welfare	-11.5724
South	-11.5724
mission	-11.5725
smart	-11.5726
▁aggravate	-11.5733
▁volumes	-11.5735
super	-11.5735
▁characterize	-11.5737
▁deprive	-11.5739
away	-11.5743
▁fled	-11.5745
▁pile	-11.5746
▁hegemon	-11.5746
▁forum	-11.5747
sighted	-11.5747
+	-11.5747
▁transit	-11.5748
▁trauma	-11.5749
▁Black	-11.5749
ü	-11.5749
▁Experts	-11.5749
▁FSB	-11.5749
▁Hurricane	-11.5749
▁Kissinger	-11.5749
▁Regardless	-11.5749
▁STEM	-11.5749
▁Senegal	-11.5749
▁Small	-11.5749
▁afraid	-11.5749
▁announcing	-11.5749
▁chaotic	-11.5749
▁collapsing	-11.5749
▁convenience	-11.5749
▁delusion	-11.5749
▁disparate	-11.5749
▁diversification	-11.5749
▁diversified	-11.5749
▁futile	-11.5749
▁legislature	-11.5749
▁liberties	-11.5749
▁mobilizing	-11.5749
▁patience	-11.5749
▁peculiar	-11.5749
▁plentiful	-11.5749
▁precarious	-11.5749
▁proxy	-11.5749
▁quantities	-11.5749
▁redress	-11.5749
▁roadmap	-11.5749
▁simplistic	-11.5749
▁societal	-11.5749
▁uniform	-11.5749
▁Bhutan	-11.5749
▁MILAN	-11.5749
▁Zhou	-11.5749
▁inhabitants	-11.5749
▁polarized	-11.5749
▁Member	-11.5749
▁boon	-11.5749
▁bypass	-11.5749
▁casualties	-11.5749
minisc	-11.5749
▁taste	-11.5749
▁lens	-11.5749
▁Panama	-11.5749
▁rainfall	-11.5749
▁compos	-11.5749
▁Resolution	-11.5749
▁puzzle	-11.5749
▁Facility	-11.575
▁shopping	-11.575
▁straight	-11.575
,500	-11.575
▁adventure	-11.575
▁worthwhile	-11.575
▁abide	-11.575
▁brake	-11.575
▁loyalty	-11.575
▁agro	-11.575
▁cheat	-11.575
▁drown	-11.575
▁compassion	-11.575
▁cook	-11.575
▁193	-11.5751
▁depositors	-11.5751
▁herself	-11.5752
▁unjust	-11.5753
▁understandably	-11.5754
▁branches	-11.5754
▁restoration	-11.5754
▁Lama	-11.5754
▁nuanced	-11.5755
▁visiting	-11.5755
▁freeze	-11.5755
▁inflated	-11.5756
▁SMEs	-11.5758
▁clashes	-11.5759
▁inappropriate	-11.5759
▁sympathy	-11.5761
▁hardline	-11.5763
▁owed	-11.5763
▁deteriorated	-11.5763
▁32	-11.5764
▁worldview	-11.5767
▁competent	-11.5767
▁diagnosed	-11.5767
▁Pay	-11.577
▁morality	-11.577
▁takeover	-11.5771
▁judged	-11.5772
▁enlarg	-11.5773
▁plunged	-11.5773
▁Em	-11.5773
▁banker	-11.5775
▁plummeted	-11.5775
▁advised	-11.5775
▁5,000	-11.5777
▁hurdles	-11.5785
▁peril	-11.5785
▁pav	-11.579
▁resigned	-11.5791
▁overlap	-11.5791
oil	-11.5791
hailed	-11.5792
▁bout	-11.5792
▁jailed	-11.5793
▁arises	-11.5795
▁servants	-11.5796
lf	-11.5796
▁Tea	-11.5797
▁healthcare	-11.5806
▁persuaded	-11.5811
▁evidently	-11.5812
▁earning	-11.5812
▁surged	-11.5814
▁neglected	-11.5817
dmittedly	-11.5822
▁Call	-11.5822
▁dent	-11.5823
▁clo	-11.5825
▁handled	-11.5827
▁carrier	-11.5838
▁reactions	-11.5842
▁crowded	-11.5848
▁enjoys	-11.5848
▁Reduc	-11.5854
▁Start	-11.5857
▁highlighting	-11.5861
▁propp	-11.5864
▁locations	-11.5878
▁75	-11.5889
▁brothers	-11.5895
12	-11.5896
▁pie	-11.5912
▁incidents	-11.5928
cca	-11.5932
▁habit	-11.596
▁realiz	-11.5962
▁submit	-11.5964
▁inform	-11.5968
▁visa	-11.5971
▁fad	-11.5972
▁articles	-11.5978
opt	-11.5982
▁Vo	-11.5987
bur	-11.599
gricultural	-11.5994
ducing	-11.5997
▁stars	-11.5998
▁EC	-11.5998
ux	-11.6002
▁privilege	-11.6003
▁bridges	-11.6003
VA	-11.6007
▁films	-11.6012
▁tank	-11.6013
▁reactor	-11.6015
▁offices	-11.6018
▁audiences	-11.6023
▁killer	-11.6023
▁uprising	-11.6025
▁45	-11.604
▁directors	-11.604
▁Sam	-11.605
▁circles	-11.6051
▁Italians	-11.6057
▁Tak	-11.6061
▁tip	-11.6071
rew	-11.6085
▁Am	-11.6086
▁float	-11.609
meter	-11.6091
▁inject	-11.6113
▁register	-11.6116
▁migrate	-11.6116
q	-11.6117
bsolutely	-11.6122
two	-11.6124
▁provider	-11.6124
Palestinian	-11.6124
strategic	-11.6124
normal	-11.6125
return	-11.6127
▁evaluat	-11.6128
▁provoke	-11.6135
▁deteriorate	-11.6135
▁calculate	-11.6135
▁approve	-11.6135
linked	-11.6136
▁Sun	-11.6139
▁delegat	-11.6139
▁Count	-11.6143
▁branch	-11.6144
▁mill	-11.6148
▁Improv	-11.6148
▁reign	-11.6148
▁analyze	-11.6149
Semitic	-11.6149
▁Botswana	-11.6149
▁Critics	-11.6149
▁Cultural	-11.6149
▁Cypriot	-11.6149
▁Eventually	-11.6149
▁Innovation	-11.6149
▁Kirchner	-11.6149
▁Province	-11.6149
▁Solidarity	-11.6149
▁Tiananmen	-11.6149
▁abortion	-11.6149
▁achievable	-11.6149
▁analytical	-11.6149
▁curriculum	-11.6149
▁dubbed	-11.6149
▁fertile	-11.6149
▁glut	-11.6149
▁impetus	-11.6149
▁indictment	-11.6149
▁literature	-11.6149
▁logistics	-11.6149
▁remittances	-11.6149
▁replicate	-11.6149
▁reservoir	-11.6149
▁utilities	-11.6149
▁1971	-11.6149
▁EPP	-11.6149
▁Kerry	-11.6149
▁chancellor	-11.6149
▁dairy	-11.6149
▁inferior	-11.6149
▁leveraging	-11.6149
▁thwart	-11.6149
▁utility	-11.6149
▁Promise	-11.6149
▁horse	-11.6149
▁blessing	-11.6149
quantum	-11.6149
▁cruel	-11.6149
▁gridlock	-11.6149
▁Confront	-11.6149
▁unhappy	-11.615
▁boil	-11.615
▁Normal	-11.615
▁wastewater	-11.615
▁shutdown	-11.615
▁perilous	-11.615
▁efficacy	-11.615
▁Wins	-11.615
▁citizenship	-11.615
▁classroom	-11.615
▁Single	-11.6151
▁Shell	-11.6151
▁Stern	-11.6151
▁Clos	-11.6151
▁landmark	-11.6152
▁finger	-11.6152
▁exaggerated	-11.6152
▁axis	-11.6153
▁temper	-11.6153
▁bosses	-11.6153
▁wealthier	-11.6154
▁300,000	-11.6154
▁erect	-11.6155
▁obliged	-11.6155
▁CDF	-11.6155
▁Join	-11.6156
breaking	-11.6157
▁specialists	-11.6159
▁Wang	-11.6159
▁Bern	-11.616
▁inertia	-11.616
▁strive	-11.6161
▁tailored	-11.6165
▁systemically	-11.6167
▁sizeable	-11.6171
▁personality	-11.6171
▁apartment	-11.6172
▁smarter	-11.6173
▁denounced	-11.6174
▁disadvantaged	-11.6174
▁decreased	-11.6174
▁meters	-11.6174
▁cra	-11.6175
▁seas	-11.6177
▁commerce	-11.618
▁migrat	-11.618
▁Serbian	-11.618
▁sober	-11.6183
▁masses	-11.619
ranging	-11.6191
gar	-11.6194
ix	-11.6202
▁wisely	-11.6205
21	-11.6206
▁insists	-11.621
▁opted	-11.6211
▁manipulated	-11.6212
org	-11.6213
▁hopeful	-11.6214
▁accus	-11.6215
existent	-11.6218
▁Games	-11.6221
▁questionable	-11.6227
ise	-11.6232
▁contemplate	-11.6234
▁influenc	-11.6243
▁countryside	-11.6247
▁Jac	-11.6252
precautionary	-11.6252
▁cartels	-11.6255
▁tourists	-11.6255
▁makers	-11.6258
▁disciplines	-11.6272
▁intensive	-11.6275
▁defect	-11.628
▁heading	-11.6283
▁minerals	-11.6295
▁matched	-11.6307
▁lifestyles	-11.6307
▁amend	-11.6313
▁technically	-11.6317
▁restrain	-11.6318
▁streamlin	-11.6318
▁disagreements	-11.6342
▁historians	-11.6365
▁flee	-11.6369
round	-11.6369
▁succeeds	-11.6388
▁29	-11.6388
▁1.1	-11.6389
▁lowered	-11.6392
▁chooses	-11.6398
▁Seas	-11.64
▁fed	-11.6401
▁grids	-11.6411
Ba	-11.6412
▁owe	-11.6414
▁plague	-11.6417
▁technocrat	-11.6428
▁villages	-11.6428
▁redefine	-11.6432
▁muster	-11.6436
▁scare	-11.6437
▁location	-11.6437
▁shore	-11.6439
▁exclud	-11.6443
▁fabric	-11.6451
▁judgments	-11.6452
▁internally	-11.6455
▁statu	-11.646
▁permits	-11.6472
▁Star	-11.6472
▁Dan	-11.6482
tested	-11.6489
ani	-11.6493
▁perpetuate	-11.6493
▁mature	-11.6497
▁spr	-11.6508
turn	-11.6512
▁adds	-11.6516
load	-11.6524
functioning	-11.6534
credit	-11.654
Leave	-11.6541
pivot	-11.6541
dominated	-11.6541
million	-11.6541
billion	-11.6541
▁vigorous	-11.6541
▁Silv	-11.6542
bond	-11.6544
New	-11.6544
▁rounds	-11.6545
▁Mont	-11.6547
▁diagnose	-11.6551
▁complicate	-11.6551
▁millennia	-11.6562
▁populat	-11.6564
▁Serb	-11.6565
▁drastic	-11.6565
cracy	-11.6566
▁Rich	-11.6566
Proliferation	-11.6566
▁1984	-11.6566
▁Barroso	-11.6566
▁Dialogue	-11.6566
▁Effort	-11.6566
▁Frankfurt	-11.6566
▁Management	-11.6566
▁Military	-11.6566
▁Network	-11.6566
▁Schäuble	-11.6566
▁Shenzhen	-11.6566
▁Syriza	-11.6566
▁Urban	-11.6566
▁academia	-11.6566
▁ambiguous	-11.6566
▁apparatus	-11.6566
▁chamber	-11.6566
▁circumvent	-11.6566
▁clever	-11.6566
▁combining	-11.6566
▁compatible	-11.6566
▁computing	-11.6566
▁conquer	-11.6566
▁conspiracy	-11.6566
▁cosmopolitan	-11.6566
▁critique	-11.6566
▁crunch	-11.6566
▁cyberspace	-11.6566
▁egg	-11.6566
▁exacerbating	-11.6566
▁glance	-11.6566
▁malnutrition	-11.6566
▁ominous	-11.6566
▁overarching	-11.6566
▁pronounced	-11.6566
▁rapprochement	-11.6566
▁replied	-11.6566
▁stagnating	-11.6566
▁subsidy	-11.6566
▁suffice	-11.6566
▁taboo	-11.6566
▁Break	-11.6566
▁Edward	-11.6566
▁RMB	-11.6566
▁dread	-11.6566
▁verge	-11.6566
▁CPC	-11.6566
▁Stock	-11.6566
▁arriving	-11.6566
▁undervalued	-11.6566
neath	-11.6566
▁overheating	-11.6566
▁nanotechnology	-11.6566
▁bottle	-11.6566
▁Cancer	-11.6566
▁Relations	-11.6566
▁deficiencies	-11.6566
▁xenophobic	-11.6566
▁multiply	-11.6566
▁deterrent	-11.6566
▁imprisonment	-11.6566
▁outlays	-11.6566
▁Unemployment	-11.6566
▁monopolies	-11.6566
▁hydropower	-11.6566
▁Export	-11.6566
▁Migration	-11.6566
▁stuff	-11.6566
▁bump	-11.6566
▁provocation	-11.6567
▁intractable	-11.6567
▁sample	-11.6567
▁fray	-11.6567
▁emitter	-11.6567
variant	-11.6567
▁sway	-11.6567
▁friendship	-11.6567
▁harassment	-11.6567
▁Things	-11.6567
▁subprime	-11.6567
▁Hugo	-11.6567
▁completion	-11.6567
▁1900	-11.6568
▁fantasy	-11.6568
▁undergone	-11.6568
▁36%	-11.6568
▁uncomfortable	-11.6568
▁Musharraf	-11.6569
▁Everyone	-11.6569
▁$500	-11.6569
nyone	-11.6569
▁trop	-11.6569
▁assertiveness	-11.657
▁pair	-11.657
▁Capitalism	-11.657
▁devalue	-11.6571
▁meaningless	-11.6573
▁fascist	-11.6573
LAC	-11.6574
▁papers	-11.6574
▁Chu	-11.6575
▁outlined	-11.6575
▁sand	-11.6575
▁wood	-11.6575
▁depriv	-11.6576
▁NPT	-11.6576
▁Hence	-11.6576
▁attractiveness	-11.6577
▁centered	-11.6578
▁specialized	-11.658
▁apes	-11.658
▁slide	-11.658
▁Cities	-11.6581
▁Ow	-11.6581
▁pot	-11.6581
▁hinge	-11.6582
▁hardship	-11.6583
▁messy	-11.6583
▁practitioners	-11.6587
▁vessels	-11.6593
▁soften	-11.6593
give	-11.6593
▁convicted	-11.6594
▁tripled	-11.6594
▁postponed	-11.6594
▁quietly	-11.6596
▁stopp	-11.66
▁underscore	-11.6601
▁covert	-11.6606
▁subsidized	-11.6608
▁arts	-11.6614
▁Bri	-11.6619
▁insurgents	-11.6623
▁turnout	-11.6626
▁exemption	-11.6626
▁dissidents	-11.664
▁militias	-11.664
▁alleviate	-11.6652
5,000	-11.6652
▁tightly	-11.6657
▁championed	-11.6658
¥1	-11.667
▁valuations	-11.667
▁highways	-11.667
▁escaped	-11.667
▁intensifying	-11.6681
▁onset	-11.6682
▁seal	-11.6684
IV	-11.6689
▁absorbed	-11.6701
▁Osa	-11.6707
▁demagogue	-11.6713
ailing	-11.6724
logical	-11.673
▁input	-11.6731
osni	-11.6744
post	-11.6767
ean	-11.677
erti	-11.6777
burg	-11.6783
▁load	-11.6788
manufactured	-11.679
-15	-11.6811
▁hasnt	-11.6814
▁Californias	-11.6821
▁resisting	-11.6822
▁arena	-11.6834
hur	-11.6837
▁Ger	-11.6845
▁dimensions	-11.6845
▁Price	-11.6862
▁boy	-11.6863
arc	-11.6863
▁troop	-11.6864
▁adher	-11.6875
▁sentences	-11.6876
▁commander	-11.6882
nish	-11.689
▁divid	-11.6894
hr	-11.69
▁merits	-11.6904
▁sometime	-11.6929
▁pos	-11.6932
▁sin	-11.6934
▁Bin	-11.6937
▁correspond	-11.6941
▁Pan	-11.6945
▁37	-11.696
after	-11.6964
▁enrich	-11.6967
▁slash	-11.6967
▁suspend	-11.6967
▁routes	-11.697
construct	-11.6976
conservative	-11.6976
grown	-11.6976
foreign	-11.6976
▁exact	-11.6976
equity	-11.6976
import	-11.6978
front	-11.698
▁expressions	-11.6981
▁endorse	-11.6981
▁Albania	-11.6982
gel	-11.6986
▁Environment	-11.6994
practic	-11.6996
▁GENE	-11.7001
veraging	-11.7001
▁Bachelet	-11.7001
▁Certainly	-11.7001
▁Church	-11.7001
▁Communism	-11.7001
▁Criminal	-11.7001
▁Fukushima	-11.7001
▁Insurance	-11.7001
▁Jiang	-11.7001
▁Karzai	-11.7001
▁Keqiang	-11.7001
▁Massachusetts	-11.7001
▁Natural	-11.7001
▁Nowadays	-11.7001
▁Outlook	-11.7001
▁Phelps	-11.7001
▁Structural	-11.7001
▁Tanzania	-11.7001
▁Technology	-11.7001
▁Thirty	-11.7001
▁Tocqueville	-11.7001
▁accumulating	-11.7001
▁accustomed	-11.7001
▁astonishing	-11.7001
▁balloon	-11.7001
▁coercion	-11.7001
▁coffee	-11.7001
▁conceal	-11.7001
▁diffusion	-11.7001
▁eligible	-11.7001
▁embargo	-11.7001
▁emperor	-11.7001
▁incompatible	-11.7001
▁incompetence	-11.7001
▁leisure	-11.7001
▁lucrative	-11.7001
▁lunch	-11.7001
▁minimizing	-11.7001
▁oppression	-11.7001
▁organisms	-11.7001
▁prevalent	-11.7001
▁recycling	-11.7001
▁reunification	-11.7001
▁scourge	-11.7001
▁strife	-11.7001
▁strip	-11.7001
▁voluntarily	-11.7001
▁wreck	-11.7001
▁1981	-11.7001
▁Napoleon	-11.7001
▁Philip	-11.7001
▁SINGAPORE	-11.7001
▁endemic	-11.7001
▁federation	-11.7001
▁loath	-11.7001
▁synthe	-11.7001
▁unchecked	-11.7001
▁vigilant	-11.7001
▁Address	-11.7001
▁Daily	-11.7001
▁duration	-11.7001
▁intervening	-11.7001
▁orientation	-11.7001
▁defy	-11.7001
▁xenophobia	-11.7001
▁0.7%	-11.7001
▁hypocrisy	-11.7001
▁Early	-11.7001
▁Inequality	-11.7001
▁Adam	-11.7001
▁recapitalize	-11.7001
▁backstop	-11.7001
▁slave	-11.7001
▁spotlight	-11.7001
▁Mohammed	-11.7001
▁bird	-11.7001
▁Fox	-11.7001
▁Hollywood	-11.7001
▁coincidence	-11.7001
▁signature	-11.7001
▁continuation	-11.7001
▁$800	-11.7001
▁MPs	-11.7001
▁marry	-11.7001
▁flash	-11.7001
▁moderation	-11.7001
▁drastically	-11.7002
▁insurers	-11.7002
▁bloodshed	-11.7002
▁Carter	-11.7002
▁annexation	-11.7002
▁multipolar	-11.7002
▁refinancing	-11.7002
▁supreme	-11.7002
▁charm	-11.7002
▁obsession	-11.7002
▁discoveries	-11.7003
▁42%	-11.7003
▁proceedings	-11.7003
▁compelled	-11.7003
▁unregulated	-11.7003
▁recruitment	-11.7004
ADB	-11.7004
▁extraction	-11.7004
▁polluting	-11.7005
▁liberation	-11.7006
▁poison	-11.7006
▁repaid	-11.7006
▁morph	-11.7007
▁precipitate	-11.7009
▁retired	-11.7009
▁motivate	-11.701
▁mutation	-11.701
▁offsetting	-11.7013
▁wounded	-11.7014
▁differentiat	-11.7014
▁III	-11.7014
▁avoidance	-11.7014
peer	-11.7018
65	-11.7019
▁subsidize	-11.7021
▁possession	-11.7022
▁celebrated	-11.7024
▁catalyze	-11.7024
▁buttress	-11.7025
▁Slow	-11.7025
▁Romanian	-11.7026
▁majorities	-11.7027
town	-11.7028
▁squandered	-11.7028
▁pave	-11.7029
▁lease	-11.703
▁convene	-11.703
holders	-11.7031
▁originate	-11.7031
best	-11.7035
▁transferred	-11.7035
ndra	-11.7037
▁Marxist	-11.7039
▁nurses	-11.7041
▁taxi	-11.7043
▁traits	-11.7048
▁tortured	-11.705
▁devised	-11.7052
▁mobilized	-11.7056
▁insure	-11.7058
▁reporters	-11.7059
▁bears	-11.7059
▁proteins	-11.706
▁cleaning	-11.7062
▁continual	-11.7065
▁Il	-11.7068
▁constructed	-11.7075
▁documented	-11.7075
▁36	-11.7077
▁objections	-11.708
ttering	-11.7082
▁Hard	-11.7093
media	-11.7098
termism	-11.71
▁Mayor	-11.7101
▁Wal	-11.7103
▁Qaddafis	-11.7104
inflicted	-11.7105
▁constraining	-11.7107
gene	-11.7129
▁38	-11.7136
ON	-11.7137
▁rot	-11.7138
range	-11.7139
▁sow	-11.7145
raham	-11.7148
▁visas	-11.7159
connect	-11.7166
▁fortunes	-11.7166
▁diets	-11.7183
▁stifl	-11.7203
▁shocked	-11.7206
Assads	-11.7211
▁Bur	-11.7229
hot	-11.7232
other	-11.7237
exporting	-11.7241
letting	-11.725
liver	-11.7263
▁lecture	-11.7268
▁investigations	-11.7274
▁nationalistic	-11.7283
▁violat	-11.7285
ada	-11.7286
▁crucially	-11.7288
rim	-11.729
hel	-11.7294
▁defended	-11.73
▁parallels	-11.7306
▁symptom	-11.7308
▁custom	-11.731
▁comment	-11.7316
▁clause	-11.7316
▁pandemic	-11.7316
▁consultation	-11.7318
▁resolutions	-11.732
IA	-11.7322
▁incumbents	-11.7325
▁personally	-11.733
▁user	-11.7332
je	-11.7345
vas	-11.7351
▁Ken	-11.7354
▁positively	-11.7361
▁Leave	-11.7365
▁critically	-11.7376
▁readers	-11.7379
▁$200	-11.7382
FC	-11.7383
oughly	-11.7386
ounding	-11.7388
▁reckon	-11.7395
paying	-11.741
▁bind	-11.7418
▁consult	-11.7419
▁administer	-11.7422
rational	-11.7423
people	-11.7427
▁prolong	-11.7427
▁Mala	-11.7429
ascent	-11.743
colonial	-11.743
special	-11.743
strong	-11.743
seeking	-11.743
speak	-11.7431
▁speaks	-11.7432
solve	-11.7433
ammar	-11.7438
▁destin	-11.744
▁Assads	-11.744
▁refuge	-11.744
host	-11.744
▁investigate	-11.744
▁Govern	-11.7443
▁chemicals	-11.7446
ANG	-11.7448
▁jihad	-11.7449
▁Direct	-11.7449
▁imitat	-11.745
▁boss	-11.745
ddle	-11.7451
poor	-11.7452
▁upgrade	-11.7452
thrown	-11.7453
▁inaugura	-11.7455
▁charisma	-11.7455
-1980	-11.7455
▁Establish	-11.7455
▁interrupt	-11.7455
▁reassert	-11.7455
▁repudiat	-11.7455
▁Advanc	-11.7455
▁Arctic	-11.7455
▁Arunachal	-11.7455
▁Century	-11.7455
▁Currency	-11.7455
▁Domestic	-11.7455
▁FIFA	-11.7455
▁Gorbachev	-11.7455
▁Hindu	-11.7455
▁Holocaust	-11.7455
▁Jerem	-11.7455
▁Lithuania	-11.7455
▁Mekong	-11.7455
▁OPEC	-11.7455
▁Portuguese	-11.7455
▁Sichuan	-11.7455
▁aluminum	-11.7455
▁analyses	-11.7455
▁athlete	-11.7455
▁autumn	-11.7455
▁avenue	-11.7455
▁bizarre	-11.7455
▁burgeoning	-11.7455
▁cervical	-11.7455
▁cohort	-11.7455
▁complications	-11.7455
▁compromising	-11.7455
▁debacle	-11.7455
▁delicate	-11.7455
▁discouraging	-11.7455
▁disparity	-11.7455
▁egregious	-11.7455
▁exploration	-11.7455
▁exposing	-11.7455
▁fatigue	-11.7455
▁furious	-11.7455
▁hesitation	-11.7455
▁inexpensive	-11.7455
▁landslide	-11.7455
▁married	-11.7455
▁mathematics	-11.7455
▁pessimistic	-11.7455
▁philosophical	-11.7455
▁pleasure	-11.7455
▁pragmatism	-11.7455
▁prosecution	-11.7455
▁relocate	-11.7455
▁scapegoat	-11.7455
▁spectacle	-11.7455
▁surgical	-11.7455
▁telephone	-11.7455
▁tendencies	-11.7455
▁tepid	-11.7455
▁variation	-11.7455
▁José	-11.7455
▁Kurds	-11.7455
▁Voters	-11.7455
▁abilities	-11.7455
▁blur	-11.7455
▁contingent	-11.7455
▁digest	-11.7455
▁mantra	-11.7455
▁DRC	-11.7455
▁roof	-11.7455
▁overestimate	-11.7455
▁Rico	-11.7455
▁proving	-11.7455
▁emanat	-11.7455
▁Company	-11.7455
▁1.5°	-11.7455
▁Rising	-11.7455
▁perpetual	-11.7455
▁wheat	-11.7455
▁paramount	-11.7455
▁1.7%	-11.7455
▁vocal	-11.7455
▁Terrorism	-11.7456
▁Medicine	-11.7456
▁harmonize	-11.7456
▁tale	-11.7456
▁stamp	-11.7456
▁retaliation	-11.7456
▁38%	-11.7456
▁smokers	-11.7456
▁1933	-11.7457
▁headquarters	-11.7457
▁entertainment	-11.7457
▁vain	-11.7457
▁commentary	-11.7457
▁Ensur	-11.7457
▁recourse	-11.7457
▁Left	-11.7457
▁lax	-11.7457
censor	-11.7457
▁goodwill	-11.7458
▁remedies	-11.7458
▁22%	-11.7458
▁bonuses	-11.7458
▁buck	-11.7458
▁conceptual	-11.7459
▁deliberation	-11.7459
▁hackers	-11.746
▁ESG	-11.746
▁mentality	-11.7461
▁uneven	-11.7461
lastic	-11.7462
▁scant	-11.7463
▁enrichment	-11.7463
▁invaded	-11.7464
▁siege	-11.7464
▁drac	-11.7465
▁spared	-11.7466
▁hungry	-11.7467
▁“[	-11.747
▁provoked	-11.7475
▁App	-11.7476
▁bombing	-11.7479
▁motion	-11.748
▁depleted	-11.7482
▁33	-11.7491
▁Independent	-11.7494
don	-11.7498
▁appreciated	-11.7501
▁Frank	-11.7504
▁usage	-11.7507
▁outperform	-11.7508
▁Ethiopian	-11.751
▁tenth	-11.7512
▁habitat	-11.7513
▁stabilized	-11.7514
▁consolidated	-11.7516
▁obsess	-11.7517
▁hydrocarbons	-11.7517
▁deductions	-11.7517
▁gar	-11.7519
▁campaigners	-11.7523
▁advisor	-11.7526
uck	-11.7528
▁senators	-11.753
▁Christians	-11.7535
cular	-11.7544
treat	-11.7545
▁song	-11.7551
▁fun	-11.7552
▁employing	-11.7554
▁$30	-11.7562
mini	-11.7567
▁Bad	-11.7572
▁payoff	-11.7572
▁Refugees	-11.7576
▁preoccupie	-11.7579
▁structured	-11.7584
arious	-11.7589
▁bolstered	-11.7595
▁wag	-11.7602
▁Prices	-11.7603
ection	-11.7603
▁attending	-11.7612
▁basin	-11.7617
stream	-11.7624
EN	-11.7624
49	-11.7627
▁surveyed	-11.7628
▁virtues	-11.7629
▁neoliberal	-11.7638
NI	-11.7639
▁retained	-11.7644
▁peaked	-11.765
▁spots	-11.7674
▁counting	-11.768
onian	-11.7682
▁employs	-11.7684
mile	-11.7687
▁$15	-11.7691
▁rejecting	-11.7696
▁contracting	-11.77
▁rank	-11.7705
▁recovering	-11.7719
▁dismantle	-11.7722
ancy	-11.7729
▁associations	-11.7733
▁redistribut	-11.7735
▁propell	-11.7752
▁sacrifices	-11.7753
▁belongs	-11.7758
ala	-11.7766
▁tactic	-11.7771
llen	-11.7776
bout	-11.7782
▁sham	-11.7783
▁Gra	-11.779
▁prosecutor	-11.7794
▁supplier	-11.7794
▁colleague	-11.7795
▁patents	-11.7795
▁demonstration	-11.7797
▁discretion	-11.7812
cro	-11.7815
▁kills	-11.7818
▁park	-11.7821
▁geographic	-11.7821
▁enshrin	-11.7824
64	-11.783
aro	-11.7831
24	-11.7832
▁transferr	-11.7842
think	-11.7843
▁Tel	-11.7845
▁ventures	-11.7862
▁robot	-11.7863
support	-11.7873
▁blam	-11.7874
▁quote	-11.7877
▁measur	-11.7881
▁crush	-11.7888
▁Burm	-11.7889
▁renew	-11.7905
Atlantic	-11.7906
benefit	-11.7906
earnings	-11.7906
Pakistan	-11.7907
buying	-11.7907
neutral	-11.7907
index	-11.7907
majority	-11.7907
legal	-11.7908
held	-11.7912
▁cancel	-11.7913
▁announce	-11.7913
▁file	-11.7921
▁equat	-11.7926
▁Protest	-11.7931
mnesty	-11.7931
secession	-11.7931
▁1914	-11.7931
▁1948	-11.7931
▁Abdullah	-11.7931
▁Alexander	-11.7931
▁Club	-11.7931
▁EMU	-11.7931
▁ExxonMobil	-11.7931
▁GNP	-11.7931
▁Kashmir	-11.7931
▁Koizumi	-11.7931
▁Lagarde	-11.7931
▁PISA	-11.7931
▁Pinochet	-11.7931
▁Problem	-11.7931
▁Rogoff	-11.7931
▁STOCKHOLM	-11.7931
▁Tencent	-11.7931
▁Unsurprisingly	-11.7931
▁Volcker	-11.7931
▁Yugoslavia	-11.7931
▁abundance	-11.7931
▁administrator	-11.7931
▁bloated	-11.7931
▁criterion	-11.7931
▁domination	-11.7931
▁dwarf	-11.7931
▁eschew	-11.7931
▁exploring	-11.7931
▁grassroots	-11.7931
▁harmonization	-11.7931
▁intermediaries	-11.7931
▁invaluable	-11.7931
▁libel	-11.7931
▁loophole	-11.7931
▁marshal	-11.7931
▁mathematical	-11.7931
▁predicament	-11.7931
▁presuppose	-11.7931
▁racist	-11.7931
▁resolute	-11.7931
▁rigged	-11.7931
▁seldom	-11.7931
▁servicing	-11.7931
▁stewardship	-11.7931
▁strategist	-11.7931
▁survivors	-11.7931
▁testimony	-11.7931
▁turbulent	-11.7931
▁unveil	-11.7931
▁veteran	-11.7931
▁Cross	-11.7931
▁Dilma	-11.7931
▁domino	-11.7931
▁envisage	-11.7931
▁rift	-11.7931
▁salary	-11.7931
▁unsurprising	-11.7931
▁Anglo	-11.7931
▁proverb	-11.7931
▁cleric	-11.7931
▁spiritual	-11.7931
▁Limit	-11.7931
▁Task	-11.7931
▁USSR	-11.7931
▁Commonwealth	-11.7931
▁supranational	-11.7931
▁Gender	-11.7932
▁Slovakia	-11.7932
▁Oslo	-11.7932
▁Poles	-11.7932
▁ugly	-11.7932
▁($3	-11.7932
▁smartphone	-11.7932
▁Local	-11.7932
▁chapter	-11.7932
▁resurgence	-11.7932
▁meddling	-11.7932
▁Kenne	-11.7932
▁pause	-11.7932
▁copyright	-11.7932
▁EFSF	-11.7932
▁passport	-11.7932
▁slavery	-11.7932
▁genius	-11.7932
mouth	-11.7932
▁€3	-11.7932
▁mismanagement	-11.7932
▁hardliners	-11.7932
▁peacekeeping	-11.7933
▁44%	-11.7934
▁conditionality	-11.7934
▁23%	-11.7934
▁standpoint	-11.7934
▁stature	-11.7935
▁undeniable	-11.7935
▁downstream	-11.7935
▁selective	-11.7935
▁beautiful	-11.7936
▁holiday	-11.7936
▁affiliate	-11.7936
▁unlock	-11.7937
▁polluted	-11.7937
▁denie	-11.7937
▁conscious	-11.7938
▁programming	-11.7938
▁Scandinavian	-11.7938
▁cling	-11.7939
coup	-11.7939
▁varied	-11.794
▁ravag	-11.7941
▁update	-11.7941
▁mutualization	-11.7941
▁MGI	-11.7942
▁advancement	-11.7943
▁predictability	-11.7943
▁conception	-11.7944
▁oust	-11.7945
▁consuming	-11.7946
▁lucky	-11.7946
▁haunt	-11.7946
▁20,000	-11.7947
▁paralyzed	-11.7947
▁detained	-11.795
▁articulated	-11.7951
vation	-11.7952
▁passes	-11.7959
▁defenders	-11.796
▁shy	-11.796
▁stresses	-11.7961
▁Less	-11.7963
▁endangered	-11.7964
▁relentlessly	-11.7965
▁shooting	-11.7968
▁banner	-11.7969
▁charter	-11.7971
▁unraveling	-11.7971
▁abolished	-11.7973
specified	-11.7975
▁grab	-11.798
▁tant	-11.7982
▁anymore	-11.7983
▁freed	-11.7988
▁occupying	-11.7989
▁constituents	-11.799
▁reckoning	-11.7995
urging	-11.7995
EM	-11.8
▁installed	-11.8005
▁dumping	-11.8006
▁ball	-11.8008
▁councils	-11.801
race	-11.8011
▁Medic	-11.8019
aving	-11.8022
▁soar	-11.8024
▁jihadists	-11.8025
▁asserted	-11.8026
▁demo	-11.8027
▁impeded	-11.8028
▁rewarded	-11.8032
▁generational	-11.8039
▁disrupted	-11.8046
▁39	-11.805
▁architects	-11.8051
▁heroic	-11.8052
▁IT	-11.8053
bro	-11.8068
▁cooperat	-11.807
gh	-11.8075
▁clauses	-11.8079
▁pandemics	-11.8079
▁importers	-11.808
gram	-11.8081
atal	-11.8082
▁Basic	-11.8084
▁listening	-11.809
▁fleet	-11.8091
part	-11.8096
▁uprisings	-11.81
▁fulfilled	-11.81
▁reactors	-11.8101
▁automobiles	-11.8107
ua	-11.8111
75	-11.8114
To	-11.8117
▁longest	-11.8118
▁filling	-11.8124
▁traveled	-11.8131
▁polling	-11.8133
▁assessed	-11.8133
▁writers	-11.8139
▁bother	-11.8152
▁magnet	-11.8154
▁fade	-11.8154
▁scaled	-11.8168
▁thank	-11.8175
hat	-11.8176
▁Gul	-11.8188
▁rents	-11.8196
▁havens	-11.8202
▁symbols	-11.8209
ogged	-11.8209
designed	-11.8215
▁backfire	-11.822
▁underscor	-11.8225
eep	-11.823
▁references	-11.8232
▁handl	-11.8233
stability	-11.8253
starve	-11.8263
▁illustrate	-11.8279
▁Hollandes	-11.8283
▁concession	-11.8294
▁corporation	-11.8295
▁searching	-11.8295
▁earths	-11.8295
▁relation	-11.8297
▁observer	-11.8302
▁station	-11.8305
thinking	-11.8306
▁proceeds	-11.832
▁reformist	-11.8327
▁changer	-11.8327
UN	-11.8331
▁Main	-11.8334
▁wing	-11.8337
▁plummet	-11.8337
▁sat	-11.8338
there	-11.8346
▁tall	-11.8351
illa	-11.8352
cited	-11.8358
▁subsidiz	-11.8358
▁Work	-11.8369
▁embarrass	-11.8371
▁occupy	-11.8371
▁drink	-11.8371
▁wasnt	-11.8378
▁complet	-11.8379
▁convict	-11.8389
▁Nar	-11.8397
▁endanger	-11.8398
emission	-11.8398
connected	-11.8402
personal	-11.8405
▁feat	-11.8405
▁Cal	-11.8406
field	-11.8406
foot	-11.8406
tradable	-11.8406
transfer	-11.8406
PBOC	-11.8406
nuclear	-11.8406
Great	-11.8407
increasing	-11.8407
natural	-11.8407
consumption	-11.8407
democracy	-11.8407
ranking	-11.8407
whatever	-11.8407
group	-11.8407
What	-11.8407
President	-11.8407
from	-11.8408
fake	-11.8413
check	-11.8414
▁successors	-11.8414
AGO	-11.8415
▁dominates	-11.8416
One	-11.8416
▁formulate	-11.8419
engineering	-11.842
stage	-11.8421
▁extraordinar	-11.8423
hour	-11.8424
▁dysfunction	-11.8425
fail	-11.8425
lasting	-11.8426
went	-11.8429
▁Protect	-11.8429
°	-11.8431
▁transmit	-11.8431
▁congress	-11.8431
ticipation	-11.8431
ecognizing	-11.8431
▁cricket	-11.8431
▁filter	-11.8431
▁knee	-11.8431
▁naïve	-11.8431
▁plug	-11.8431
▁ponder	-11.8431
▁spoil	-11.8431
▁telecom	-11.8431
THEN	-11.8431
ttorney	-11.8431
▁1972	-11.8431
▁Abdel	-11.8431
▁Alzheimers	-11.8431
▁Baghdad	-11.8431
▁CBO	-11.8431
▁Chechnya	-11.8431
▁Columbia	-11.8431
▁Croatia	-11.8431
▁Employment	-11.8431
▁Filipino	-11.8431
▁Hayek	-11.8431
▁Household	-11.8431
▁Maduro	-11.8431
▁Nexus	-11.8431
▁Nicholas	-11.8431
▁Opportunity	-11.8431
▁Ottoman	-11.8431
▁Pandora	-11.8431
▁Renzi	-11.8431
▁SWFs	-11.8431
▁Solutions	-11.8431
▁Threat	-11.8431
▁Turks	-11.8431
▁Yukos	-11.8431
▁amplify	-11.8431
▁antioxidant	-11.8431
▁apartheid	-11.8431
▁atrocities	-11.8431
▁babies	-11.8431
▁commensurate	-11.8431
▁egalitarian	-11.8431
▁encompass	-11.8431
▁explode	-11.8431
▁harbor	-11.8431
▁impulse	-11.8431
▁inclination	-11.8431
▁intuition	-11.8431
▁league	-11.8431
▁legacies	-11.8431
▁oxygen	-11.8431
▁panacea	-11.8431
▁pessimists	-11.8431
▁proliferate	-11.8431
▁psychologist	-11.8431
▁ratification	-11.8431
▁sacred	-11.8431
▁satisfaction	-11.8431
▁scratch	-11.8431
▁sensitivity	-11.8431
▁shaky	-11.8431
▁subsistence	-11.8431
▁supremacy	-11.8431
▁surrogacy	-11.8431
▁tycoon	-11.8431
▁untenable	-11.8431
▁virtuous	-11.8431
▁wreak	-11.8431
▁wrought	-11.8431
▁Karl	-11.8431
▁LDP	-11.8431
▁appalling	-11.8431
▁erratic	-11.8431
▁hiding	-11.8431
collar	-11.8431
▁essay	-11.8431
▁Gavi	-11.8431
▁overvalued	-11.8431
▁prostitute	-11.8431
▁abnormal	-11.8431
▁outdoor	-11.8431
▁varieties	-11.8431
▁Medicaid	-11.8431
▁specify	-11.8431
▁modified	-11.8432
▁0.0	-11.8432
▁Biden	-11.8432
▁Self	-11.8432
▁conscience	-11.8432
▁sleep	-11.8432
▁predator	-11.8432
▁Eurogroup	-11.8432
▁versa	-11.8432
▁1968	-11.8432
▁Castro	-11.8432
▁Corruption	-11.8432
▁1986	-11.8432
▁petty	-11.8432
▁foe	-11.8432
▁acid	-11.8432
▁Laden	-11.8432
▁conform	-11.8432
▁misery	-11.8432
▁epic	-11.8432
▁sterilization	-11.8432
▁Charlie	-11.8432
▁Haram	-11.8432
▁emitted	-11.8432
▁exciting	-11.8432
▁demonstrators	-11.8432
▁Round	-11.8433
▁ironically	-11.8433
▁arose	-11.8433
▁deterred	-11.8433
▁depletion	-11.8433
▁disappearance	-11.8433
▁swell	-11.8433
▁airlines	-11.8434
▁Journal	-11.8434
▁hegemonic	-11.8435
▁retirees	-11.8435
▁myself	-11.8435
▁Trap	-11.8435
▁assembled	-11.8436
▁ironic	-11.8436
▁surgery	-11.8437
▁Grow	-11.8437
▁endorsement	-11.8437
▁zombie	-11.8437
▁­	-11.8437
▁spat	-11.8437
▁invisible	-11.844
omics	-11.844
▁manifesto	-11.8441
▁skewed	-11.8441
▁Morgan	-11.8441
▁stagnated	-11.8442
▁solvent	-11.8442
supported	-11.8442
▁hoc	-11.8443
▁Abenomics	-11.8446
▁filed	-11.8447
ilton	-11.8447
▁investigated	-11.8448
▁alignment	-11.8448
▁Mass	-11.8448
▁vow	-11.8448
▁homeland	-11.845
▁selfish	-11.8452
▁semina	-11.8454
▁prostate	-11.8454
▁elevated	-11.8455
▁sorry	-11.8455
▁denounce	-11.8456
▁Paradoxical	-11.8456
▁vitality	-11.8458
▁evaluation	-11.8458
▁Iron	-11.846
▁vigorously	-11.8462
▁nearby	-11.8462
▁believers	-11.8464
▁discouraged	-11.8466
▁canceled	-11.8467
die	-11.8468
▁pathogens	-11.8471
▁Needle	-11.8473
▁smallholder	-11.8473
▁wildly	-11.8475
aga	-11.8477
▁riots	-11.8478
▁BP	-11.8481
▁stranger	-11.8482
▁midterm	-11.8484
▁finished	-11.8485
pot	-11.8486
▁hell	-11.8488
active	-11.849
▁Aung	-11.8491
▁plummeting	-11.8492
▁shoes	-11.8493
▁clusters	-11.8493
▁compensated	-11.8494
eutic	-11.8506
ugh	-11.8506
▁preventable	-11.8507
▁antimicrobial	-11.851
▁Libyan	-11.8531
▁contested	-11.8539
▁diamonds	-11.8543
▁requested	-11.855
▁pale	-11.8552
▁suppressing	-11.8564
▁peasants	-11.8565
shot	-11.8566
HIC	-11.8567
▁journal	-11.857
▁sponsor	-11.8575
▁staged	-11.8581
▁bombings	-11.8588
very	-11.8589
7,000	-11.8604
▁propel	-11.8627
▁Indo	-11.8627
drew	-11.8631
▁redistribute	-11.8638
▁fans	-11.8661
▁Amid	-11.869
▁poster	-11.8691
▁See	-11.8694
rent	-11.8694
▁restraints	-11.8705
AV	-11.8729
elind	-11.8731
▁$11	-11.8745
loaded	-11.8748
▁ME	-11.8749
ega	-11.8762
solving	-11.8765
bert	-11.877
▁log	-11.8773
▁relieve	-11.8783
settling	-11.8786
motion	-11.8787
▁pounds	-11.8792
payment	-11.8793
hill	-11.8802
▁accuse	-11.8814
▁Lui	-11.8814
▁acquisition	-11.8818
▁peasant	-11.8818
▁Refugee	-11.8819
▁cartel	-11.8819
▁tree	-11.8819
▁oligarch	-11.882
▁device	-11.8821
▁contradiction	-11.8821
▁taxpayer	-11.8821
▁hotel	-11.8822
▁chip	-11.8825
▁teacher	-11.8836
▁Barr	-11.8837
▁tourist	-11.885
▁technologically	-11.8861
▁importer	-11.8868
▁Van	-11.8872
▁manager	-11.888
▁distract	-11.8888
▁consolidat	-11.8897
▁lobby	-11.8897
nder	-11.891
▁finish	-11.8924
▁squander	-11.8924
Russia	-11.8924
Asia	-11.8925
regulation	-11.893
Q	-11.8931
global	-11.8932
through	-11.8932
documented	-11.8932
fulfilling	-11.8933
convenient	-11.8933
amount	-11.8933
▁unfortunate	-11.8933
Keynesian	-11.8933
cultural	-11.8933
continent	-11.8933
built	-11.8933
8,000	-11.8933
business	-11.8933
This	-11.8933
▁resembl	-11.8934
terrorism	-11.8934
particularly	-11.8934
spending	-11.8935
positive	-11.8935
secular	-11.894
▁COP	-11.8941
Asian	-11.8941
▁isolate	-11.8943
▁admire	-11.8945
▁depict	-11.8945
twithstanding	-11.8946
▁nominat	-11.895
▁resent	-11.8953
▁visib	-11.8953
▁democratiz	-11.8956
sided	-11.8956
Obamacare	-11.8956
▁crypto	-11.8957
cientific	-11.8957
▁0.3	-11.8958
▁Provid	-11.8958
yatollah	-11.8958
▁1985	-11.8958
▁Affordable	-11.8958
▁Bashir	-11.8958
▁Carbon	-11.8958
▁Citizens	-11.8958
▁Continent	-11.8958
▁Decade	-11.8958
▁Friday	-11.8958
▁Hague	-11.8958
▁Mogherini	-11.8958
▁Mozambique	-11.8958
▁PBC	-11.8958
▁Reinhart	-11.8958
▁Trichet	-11.8958
▁acquiring	-11.8958
▁brilliant	-11.8958
▁confusing	-11.8958
▁constituencies	-11.8958
▁curious	-11.8958
▁devastation	-11.8958
▁diarrhea	-11.8958
▁diaspora	-11.8958
▁embassy	-11.8958
▁eroding	-11.8958
▁excitement	-11.8958
▁glaring	-11.8958
▁hollow	-11.8958
▁impartial	-11.8958
▁injured	-11.8958
▁magazine	-11.8958
▁mobilization	-11.8958
▁monks	-11.8958
▁paraphrase	-11.8958
▁polite	-11.8958
▁prudence	-11.8958
▁recurrence	-11.8958
▁registration	-11.8958
▁rupture	-11.8958
▁secrecy	-11.8958
▁shark	-11.8958
▁stipulat	-11.8958
▁stupid	-11.8958
▁trilateral	-11.8958
▁unequivocal	-11.8958
▁unwitting	-11.8958
▁yesterday	-11.8958
Diaoyu	-11.8958
stricken	-11.8958
▁Model	-11.8958
▁Optim	-11.8958
▁buoy	-11.8958
▁expel	-11.8958
▁indices	-11.8958
▁interior	-11.8958
▁intolerable	-11.8958
▁Gamal	-11.8958
▁dress	-11.8958
▁milestone	-11.8958
▁Estonia	-11.8958
▁invasive	-11.8958
▁premier	-11.8958
▁metropolitan	-11.8958
▁arbitrage	-11.8958
▁speculate	-11.8958
▁tolerant	-11.8958
▁resonate	-11.8958
▁Jobs	-11.8958
▁remarks	-11.8958
▁woeful	-11.8958
▁spy	-11.8958
▁scaling	-11.8958
▁zeal	-11.8958
▁conundrum	-11.8958
▁contempt	-11.8958
▁planners	-11.8958
▁wheel	-11.8958
andMe	-11.8958
▁donations	-11.8958
▁Princeton	-11.8958
▁roil	-11.8958
▁dawn	-11.8958
▁refine	-11.8958
▁Turn	-11.8958
▁victories	-11.8958
▁Leadership	-11.8958
▁helm	-11.8958
▁fester	-11.8958
▁hubris	-11.8958
Saxon	-11.8958
▁dissolve	-11.8958
▁1975	-11.8958
▁disaffected	-11.8959
▁foolish	-11.8959
▁Albert	-11.8959
▁37%	-11.896
▁Laos	-11.896
▁circulation	-11.896
▁Skill	-11.896
▁issuance	-11.896
▁Zuckerberg	-11.896
▁cult	-11.896
▁Strait	-11.896
▁2040	-11.896
▁CDS	-11.896
▁19%	-11.8961
▁colonialism	-11.8961
▁jet	-11.8962
▁disability	-11.8962
▁ESDP	-11.8962
▁Zone	-11.8963
bots	-11.8963
▁VI	-11.8963
▁recoveries	-11.8964
▁pathway	-11.8964
fusion	-11.8964
▁marketplace	-11.8965
▁disabled	-11.8965
▁Gett	-11.8966
▁Sein	-11.8967
▁nice	-11.8968
▁Wide	-11.8968
▁tired	-11.8968
▁1.6	-11.8969
▁brighter	-11.8969
▁mentor	-11.8969
batter	-11.897
▁invoked	-11.897
▁Andrew	-11.8974
▁conceived	-11.8975
▁Bear	-11.8975
▁Avoid	-11.8976
say	-11.8976
▁grain	-11.8978
▁instrumental	-11.8978
▁framed	-11.8979
▁fearful	-11.8981
▁Bi	-11.8981
▁rape	-11.8981
uke	-11.8983
▁financiers	-11.8984
▁2.0	-11.8985
▁cable	-11.8986
▁substitut	-11.8992
▁halved	-11.8993
▁vowed	-11.8993
aj	-11.8995
▁1.7	-11.8997
▁Test	-11.8997
▁modernity	-11.8999
▁creators	-11.9
▁sail	-11.9002
▁Have	-11.9002
▁pesticides	-11.9007
▁proponents	-11.9007
current	-11.901
▁rescued	-11.9014
▁vegetables	-11.9015
▁simpler	-11.9018
▁starkly	-11.9021
▁wounds	-11.9023
▁reshape	-11.9028
▁unexpectedly	-11.9035
vian	-11.9035
▁prohibited	-11.9039
▁Christ	-11.9039
▁row	-11.904
skilled	-11.9042
cation	-11.9053
▁establishes	-11.9059
▁Nationalist	-11.906
▁medications	-11.9061
▁rolled	-11.9069
▁monitored	-11.9075
▁airports	-11.9076
▁setbacks	-11.9076
▁Don	-11.9076
▁intends	-11.9076
defeating	-11.9078
▁enshrine	-11.9078
▁promptly	-11.9084
▁adversely	-11.9084
▁pet	-11.9088
▁shun	-11.9088
hol	-11.9091
path	-11.9095
▁oligarchs	-11.9097
▁chips	-11.9099
▁hotels	-11.9099
▁Ram	-11.9103
pic	-11.9104
▁contracted	-11.9117
▁consultations	-11.9122
▁reshap	-11.9125
▁geo	-11.913
▁shores	-11.9138
▁murdered	-11.9141
▁broadening	-11.9144
version	-11.9152
▁offenses	-11.9153
working	-11.9154
▁killers	-11.9154
▁jointly	-11.9163
▁pit	-11.9166
▁cede	-11.9167
▁gripp	-11.9194
▁infect	-11.9203
▁prescriptions	-11.9215
vol	-11.922
▁revolts	-11.9222
rash	-11.9225
▁Outside	-11.9234
▁normalize	-11.924
equi	-11.9248
▁warns	-11.9252
AGU	-11.9257
earl	-11.9265
▁publications	-11.9266
▁Commissioner	-11.927
▁collaborat	-11.9285
▁choke	-11.929
▁44	-11.9296
▁diplomat	-11.9309
▁Jam	-11.9311
▁loom	-11.9314
note	-11.9318
▁Fo	-11.933
▁51	-11.9331
▁flaw	-11.9346
grid	-11.9348
siders	-11.9349
▁evade	-11.9363
oke	-11.9366
▁physician	-11.9373
▁instinct	-11.9374
▁architect	-11.9374
▁valuation	-11.9375
▁ingredient	-11.9375
▁derivative	-11.9376
▁SOE	-11.9377
▁characteristic	-11.9377
▁statist	-11.9382
▁sour	-11.9385
▁sanction	-11.9385
uk	-11.9393
▁moderniz	-11.9397
mail	-11.9397
▁highway	-11.9403
▁reside	-11.9418
▁overwhelm	-11.942
▁legitimiz	-11.9422
▁rob	-11.9441
▁melt	-11.9456
€	-11.946
pay	-11.9464
▁useless	-11.9468
ccommodat	-11.9475
urg	-11.9477
▁criticiz	-11.9478
▁entrench	-11.948
▁devis	-11.9485
employment	-11.9485
game	-11.9486
SDG	-11.9488
tariff	-11.9488
technology	-11.9488
voluntary	-11.9488
neighbor	-11.9488
except	-11.9488
shadow	-11.9488
targeting	-11.9488
Muslim	-11.9488
bottom	-11.9488
property	-11.9488
system	-11.9488
confidence	-11.9488
climate	-11.9488
shock	-11.9488
general	-11.9489
iao	-11.9489
middle	-11.9489
week	-11.9489
independence	-11.949
▁deplet	-11.949
treatment	-11.949
larger	-11.949
▁rap	-11.949
having	-11.9491
type	-11.9493
▁suppose	-11.9499
▁31	-11.95
▁redirect	-11.9503
deep	-11.9504
▁mismatch	-11.9508
▁brib	-11.951
▁implicat	-11.9511
▁circulat	-11.9511
▁percent	-11.9512
▁superconduct	-11.9513
▁descend	-11.9513
-2014	-11.9513
ACH	-11.9513
AGEN	-11.9513
adequacy	-11.9513
creditworthiness	-11.9513
nunciation	-11.9513
▁1974	-11.9513
▁1988	-11.9513
▁9/11	-11.9513
▁AIPAC	-11.9513
▁Adviser	-11.9513
▁AfDB	-11.9513
▁Aleppo	-11.9513
▁Bethlehem	-11.9513
▁Carney	-11.9513
▁Competition	-11.9513
▁DPJ	-11.9513
▁Deutsche	-11.9513
▁Elsewhere	-11.9513
▁Eritrea	-11.9513
▁Exchequer	-11.9513
▁Guatemala	-11.9513
▁Hirohito	-11.9513
▁Hundred	-11.9513
▁Ibrahim	-11.9513
▁Istanbul	-11.9513
▁KGB	-11.9513
▁Lincoln	-11.9513
▁Mandela	-11.9513
▁Measure	-11.9513
▁Plenum	-11.9513
▁Resistance	-11.9513
▁Salvador	-11.9513
▁Scientists	-11.9513
▁Settlements	-11.9513
▁accuracy	-11.9513
▁advocacy	-11.9513
▁communiqué	-11.9513
▁complacent	-11.9513
▁conservatism	-11.9513
▁constituency	-11.9513
▁curricula	-11.9513
▁decreasing	-11.9513
▁definitive	-11.9513
▁enrollment	-11.9513
▁espionage	-11.9513
▁glimpse	-11.9513
▁glory	-11.9513
▁hemoglobin	-11.9513
▁humiliating	-11.9513
▁infighting	-11.9513
▁laboratories	-11.9513
▁levers	-11.9513
▁mosquito	-11.9513
▁piecemeal	-11.9513
▁populous	-11.9513
▁prestige	-11.9513
▁proximity	-11.9513
▁receipts	-11.9513
▁relinquish	-11.9513
▁skyrocket	-11.9513
▁stolen	-11.9513
▁stomach	-11.9513
▁submarines	-11.9513
▁tainted	-11.9513
▁utopia	-11.9513
▁BAT	-11.9513
▁Continu	-11.9513
▁Nepal	-11.9513
▁dismay	-11.9513
▁dynasti	-11.9513
▁frank	-11.9513
▁thick	-11.9513
▁Atomic	-11.9513
▁IDB	-11.9513
▁Prior	-11.9513
▁crossroads	-11.9513
▁harmony	-11.9513
▁patrol	-11.9513
▁verify	-11.9513
▁Citigroup	-11.9513
▁slaughter	-11.9513
▁Therefore	-11.9513
▁Latvia	-11.9513
▁Yale	-11.9513
▁Persian	-11.9513
▁geostrategic	-11.9513
▁Ryan	-11.9513
▁Patient	-11.9513
▁Athens	-11.9513
▁optimiz	-11.9513
▁2.3%	-11.9513
▁penalize	-11.9513
▁0.3%	-11.9514
▁blackmail	-11.9514
▁cryptocurrency	-11.9514
▁herald	-11.9514
▁exhibit	-11.9514
▁retrenchment	-11.9514
▁2°	-11.9514
▁Grand	-11.9514
▁bode	-11.9514
▁horrific	-11.9514
▁properties	-11.9514
▁Income	-11.9514
▁resettlement	-11.9514
▁holdouts	-11.9514
▁1949	-11.9514
▁Governance	-11.9514
▁discard	-11.9514
THA	-11.9514
ILA	-11.9515
▁Centr	-11.9515
▁digitiz	-11.9515
▁frozen	-11.9515
▁Port	-11.9515
▁Half	-11.9515
▁wholly	-11.9515
▁43%	-11.9515
CBD	-11.9515
▁Deput	-11.9515
▁countercyclical	-11.9515
▁41%	-11.9516
▁unease	-11.9516
▁$2.5	-11.9516
▁Progressive	-11.9516
▁armies	-11.9516
▁groundwater	-11.9516
▁Scar	-11.9516
▁27%	-11.9516
▁brightest	-11.9516
▁diverg	-11.9517
▁tune	-11.9517
▁eve	-11.9517
▁classified	-11.9517
▁Press	-11.9518
▁condemnation	-11.9518
▁Death	-11.9518
▁nationwide	-11.9518
▁€50	-11.9519
▁charity	-11.9519
▁isolationism	-11.952
▁Bond	-11.952
▁delegates	-11.952
any	-11.9521
▁ministerial	-11.9522
▁restrictive	-11.9522
▁200,000	-11.9522
▁malign	-11.9523
▁secularism	-11.9523
▁50,000	-11.9523
▁Jack	-11.9524
▁Eight	-11.9524
▁wiser	-11.9526
▁Allow	-11.9528
▁overturn	-11.9528
▁forcibl	-11.9528
▁preferable	-11.9529
▁ICT	-11.9531
▁navy	-11.9531
▁Weak	-11.9534
▁travelers	-11.9534
▁denominat	-11.9534
▁frontline	-11.9536
▁$1.4	-11.9538
▁wire	-11.954
▁tail	-11.9543
disciplinary	-11.9544
mates	-11.9545
▁Val	-11.9547
▁Sovereign	-11.9547
▁notoriously	-11.955
▁newborn	-11.9552
▁assertion	-11.9553
▁frightening	-11.9553
tail	-11.9553
▁originated	-11.9556
key	-11.9556
Do	-11.9556
▁invite	-11.9557
▁youngest	-11.9563
▁noble	-11.9564
▁lip	-11.9564
▁incite	-11.9566
▁infamous	-11.9566
▁intolerance	-11.9566
▁Paper	-11.9569
▁outward	-11.9569
▁buildup	-11.9571
▁greener	-11.9572
▁hectares	-11.9574
▁plead	-11.9576
▁dot	-11.9577
▁lawsuits	-11.9582
▁relaxed	-11.9582
▁prematurely	-11.9585
▁Algerian	-11.9585
▁lobbies	-11.959
▁arch	-11.9591
▁pumped	-11.9592
▁animat	-11.9595
▁strained	-11.9595
▁prophe	-11.9596
▁pioneered	-11.9598
▁injections	-11.9599
▁eradicat	-11.9604
▁fairy	-11.9605
▁rumors	-11.9606
▁fold	-11.9614
▁slippe	-11.9615
▁loosening	-11.9616
yman	-11.9617
▁Meles	-11.9617
▁Westerners	-11.9621
▁separatists	-11.9622
▁horrors	-11.963
▁assurances	-11.963
▁acutely	-11.9631
▁separately	-11.9643
▁fundamentalists	-11.9645
▁obscur	-11.9645
▁Mitt	-11.9649
▁empowering	-11.9652
▁instincts	-11.9655
▁looms	-11.9656
▁contradictions	-11.9664
▁bag	-11.9668
ID	-11.9669
▁proportional	-11.9672
▁boldly	-11.9676
▁menu	-11.9677
▁parks	-11.968
▁halted	-11.9682
▁prey	-11.9686
lane	-11.9693
▁sins	-11.9696
maker	-11.97
▁fly	-11.9711
▁BO	-11.9716
▁cheaply	-11.972
▁attain	-11.9721
▁rolling	-11.9725
▁hubs	-11.9728
▁forums	-11.9732
▁Understand	-11.9761
ndowment	-11.9767
▁55	-11.977
anti	-11.9773
▁($5	-11.9786
▁alien	-11.9789
▁reconcil	-11.979
▁scramble	-11.9802
rebate	-11.9809
▁narrowed	-11.9813
▁Joe	-11.9818
eff	-11.9822
fits	-11.9822
▁magn	-11.9832
▁Stu	-11.9832
keeping	-11.9833
▁48	-11.9834
wire	-11.984
▁validate	-11.9861
▁Maria	-11.9864
59	-11.9866
▁interfere	-11.9868
mulating	-11.9879
fashioned	-11.9898
gent	-11.9903
▁$23	-11.9906
▁clinic	-11.9908
complete	-11.9914
▁lure	-11.9928
mina	-11.9929
▁Missi	-11.9936
▁$22	-11.9943
▁Mae	-11.9944
bound	-11.9947
ctic	-11.9947
production	-11.9948
wan	-11.996
▁ICC	-11.9961
▁girl	-11.9965
▁pocket	-11.9973
▁sens	-11.9977
▁minute	-11.9977
▁exhaust	-11.9977
▁employer	-11.9977
▁compar	-11.998
▁Qaddafi	-11.9988
▁incur	-11.9991
▁SDG	-11.9991
▁slip	-11.9995
half	-12.0023
▁$18	-12.0024
97	-12.0025
▁officer	-12.003
unskilled	-12.005
friend	-12.0052
▁Antarctic	-12.0052
2.5	-12.0053
place	-12.0062
safe	-12.0067
product	-12.0071
regulated	-12.0073
protect	-12.0075
Qaddafi	-12.0076
finished	-12.0076
military	-12.0077
wealth	-12.0077
deflation	-12.0077
second	-12.0077
because	-12.0077
meaning	-12.0077
culture	-12.0077
author	-12.0078
phone	-12.008
proof	-12.008
prone	-12.0081
about	-12.0085
▁muddle	-12.0087
▁revise	-12.0087
moving	-12.0089
▁assure	-12.009
▁bull	-12.0093
▁guilt	-12.0093
volution	-12.0094
scribe	-12.0095
learning	-12.0096
▁Leban	-12.0096
▁divergen	-12.0097
share	-12.0097
▁phenomena	-12.0097
▁stoke	-12.0098
ilateral	-12.0099
Cold	-12.0099
▁opportun	-12.0099
▁totalitarian	-12.01
dip	-12.01
echnological	-12.0101
▁consequent	-12.0101
▁0.5	-12.0101
▁inhabit	-12.0101
▁repatriat	-12.0101
▁shrug	-12.0101
-2007	-12.0101
▁Ahtisaari	-12.0101
▁BJP	-12.0101
▁Coalition	-12.0101
▁Commodity	-12.0101
▁Corporate	-12.0101
▁Cristina	-12.0101
▁Curtain	-12.0101
▁Daoud	-12.0101
▁Deflation	-12.0101
▁Effective	-12.0101
▁Emirates	-12.0101
▁Fannie	-12.0101
▁Florida	-12.0101
▁Fundamental	-12.0101
▁Hensarling	-12.0101
▁Individual	-12.0101
▁Kerala	-12.0101
▁Muhammad	-12.0101
▁Navalny	-12.0101
▁Nicaragua	-12.0101
▁Politburo	-12.0101
▁Regulation	-12.0101
▁SNB	-12.0101
▁Stanford	-12.0101
▁Suppose	-12.0101
▁Vaccine	-12.0101
▁analogy	-12.0101
▁atmospheric	-12.0101
▁calorie	-12.0101
▁ceremony	-12.0101
▁childbirth	-12.0101
▁comprehend	-12.0101
▁confess	-12.0101
▁conquest	-12.0101
▁contamination	-12.0101
▁cultivating	-12.0101
▁defiance	-12.0101
▁dominating	-12.0101
▁elephant	-12.0101
▁embodies	-12.0101
▁epoch	-12.0101
▁evoke	-12.0101
▁flames	-12.0101
▁frenzy	-12.0101
▁galvanize	-12.0101
▁grandparents	-12.0101
▁hukou	-12.0101
▁identical	-12.0101
▁illiteracy	-12.0101
▁implosion	-12.0101
▁incidence	-12.0101
▁incipient	-12.0101
▁indiscriminate	-12.0101
▁interlocutor	-12.0101
▁intimidate	-12.0101
▁intrusion	-12.0101
▁juncture	-12.0101
▁library	-12.0101
▁mandarins	-12.0101
▁palpable	-12.0101
▁persuasive	-12.0101
▁pitfalls	-12.0101
▁preclude	-12.0101
▁precursor	-12.0101
▁primacy	-12.0101
▁rebellion	-12.0101
▁rogue	-12.0101
▁salaries	-12.0101
▁singular	-12.0101
▁sophistication	-12.0101
▁subordinate	-12.0101
▁syndrome	-12.0101
▁ticket	-12.0101
▁tumultuous	-12.0101
▁underwrite	-12.0101
▁unethical	-12.0101
▁unforesee	-12.0101
▁unnecessarily	-12.0101
▁virulent	-12.0101
▁Confucian	-12.0101
▁Implement	-12.0101
▁advertisement	-12.0101
▁franc	-12.0101
▁gravitat	-12.0101
▁intermediation	-12.0101
▁meager	-12.0101
▁radar	-12.0101
fracking	-12.0101
▁battery	-12.0101
▁elicit	-12.0101
▁accommodative	-12.0101
▁neat	-12.0102
▁Standing	-12.0102
▁mechanical	-12.0102
▁Valls	-12.0102
▁orchestrat	-12.0102
▁stok	-12.0102
Reconstruction	-12.0102
▁cornerstone	-12.0102
▁engulf	-12.0102
▁detainees	-12.0102
▁lapse	-12.0102
▁ICTY	-12.0102
▁Leap	-12.0102
▁conclusive	-12.0102
▁starvation	-12.0102
Friend	-12.0102
▁Study	-12.0102
▁embody	-12.0102
▁omission	-12.0102
▁thorn	-12.0102
▁reneg	-12.0102
▁scrap	-12.0102
▁extinction	-12.0102
▁precondition	-12.0102
▁rivalries	-12.0102
▁deadlock	-12.0102
▁abyss	-12.0102
▁severity	-12.0102
▁unimaginable	-12.0102
▁$700	-12.0103
enchant	-12.0103
▁quantifi	-12.0103
▁unprepared	-12.0103
▁1.8%	-12.0103
▁illiquid	-12.0103
▁unconscious	-12.0103
▁depart	-12.0103
▁Return	-12.0103
▁windfall	-12.0103
▁Fast	-12.0103
▁nostalgia	-12.0103
▁graft	-12.0103
▁defus	-12.0103
▁Farmers	-12.0103
▁randomized	-12.0104
▁ignorant	-12.0104
▁7.5%	-12.0104
▁Dmitr	-12.0104
▁token	-12.0104
▁definite	-12.0104
▁awarded	-12.0105
▁Francisco	-12.0105
▁inadvertently	-12.0105
▁mold	-12.0106
▁hover	-12.0106
▁Rice	-12.0106
▁Play	-12.0106
▁Farage	-12.0106
▁abduction	-12.0107
▁suppression	-12.0107
▁flare	-12.0107
▁hierarchy	-12.0107
▁Carl	-12.0107
▁showdown	-12.0108
▁correlated	-12.011
▁imprisoned	-12.0111
▁prescribed	-12.0111
▁underdeveloped	-12.0111
▁undemocratic	-12.0111
▁overshoot	-12.0111
▁deportation	-12.0111
▁Fred	-12.0112
▁stepping	-12.0113
▁Path	-12.0115
▁thoughtful	-12.0115
▁pitch	-12.0115
▁advise	-12.0116
atomic	-12.0116
▁shaken	-12.0116
▁passionate	-12.0116
▁childcare	-12.0116
▁earners	-12.0117
▁1.8	-12.0117
▁Guo	-12.0118
▁ethnicity	-12.0119
▁entertain	-12.012
▁fitting	-12.0123
▁radicalism	-12.0123
▁roller	-12.0124
▁manifestation	-12.0124
▁bone	-12.0127
▁linear	-12.0127
▁speakers	-12.0128
▁confrontational	-12.0129
▁Asset	-12.013
▁restructured	-12.0131
▁Make	-12.0133
▁Gold	-12.0133
▁ceased	-12.0138
▁bullying	-12.014
earch	-12.0144
▁affirmative	-12.0146
▁slashed	-12.0148
▁enriched	-12.0148
▁stoked	-12.015
▁outpace	-12.0152
▁ramp	-12.0153
▁briefly	-12.0156
▁kids	-12.0157
▁ancestors	-12.0157
▁encountered	-12.0158
▁faltering	-12.0159
▁smallest	-12.016
▁grade	-12.0165
▁someday	-12.0166
▁melting	-12.0166
▁Dar	-12.017
▁converted	-12.017
▁Tunisian	-12.0174
▁leaked	-12.0177
▁crafted	-12.0181
▁measurement	-12.0181
▁stretched	-12.0182
▁reinvigorate	-12.0182
▁smoothly	-12.0182
▁warranted	-12.0185
▁stimulated	-12.0192
▁plat	-12.0202
▁perpetuat	-12.0206
▁cooling	-12.0207
▁viewers	-12.0208
IP	-12.0219
grids	-12.0227
▁comforting	-12.0229
dded	-12.0231
▁boats	-12.0235
▁regained	-12.0235
▁altered	-12.0239
▁publishing	-12.0245
▁shi	-12.0251
▁sacrific	-12.0251
▁physicians	-12.0252
▁sponsors	-12.0255
▁reacting	-12.0256
▁acquisitions	-12.0261
▁Mai	-12.0266
▁painfully	-12.0266
▁lur	-12.0269
▁Jan	-12.027
hydr	-12.0278
▁sincere	-12.0284
zza	-12.0286
labor	-12.029
▁freer	-12.0292
▁nurtur	-12.0306
name	-12.0311
immer	-12.0317
cum	-12.033
▁regress	-12.034
macroprudential	-12.0343
▁Chang	-12.035
imposed	-12.0364
rating	-12.0365
▁appease	-12.0366
▁reproduc	-12.0371
inter	-12.0385
heel	-12.0385
▁Vol	-12.0389
▁navigat	-12.0396
▁northeast	-12.0401
WI	-12.0407
▁68	-12.0419
▁Romer	-12.0439
fact	-12.045
▁permitt	-12.0453
lade	-12.0454
rdin	-12.0468
eastern	-12.0473
▁accrue	-12.0495
▁overrid	-12.0515
itter	-12.0528
focused	-12.0535
▁Pat	-12.0538
▁intend	-12.0556
▁retaliate	-12.056
▁observ	-12.0567
rou	-12.0571
▁upset	-12.0577
▁elaborate	-12.0586
▁boat	-12.0587
▁diamond	-12.0587
▁district	-12.0588
▁hurricane	-12.0589
▁lawyer	-12.0589
▁plastic	-12.059
▁airport	-12.059
▁recommendation	-12.0595
▁setback	-12.0599
▁plea	-12.0607
owners	-12.0628
▁fixat	-12.0628
▁Christin	-12.0629
▁conduc	-12.0635
▁releas	-12.0644
▁optimist	-12.0666
▁falter	-12.0666
jam	-12.0679
exist	-12.0685
measure	-12.0687
▁Addi	-12.0689
holder	-12.0693
ground	-12.0698
Japan	-12.0701
overdue	-12.0701
science	-12.0701
purchase	-12.0701
sensitive	-12.0702
ASEAN	-12.0702
enabled	-12.0702
when	-12.0704
creating	-12.0704
surge	-12.0704
▁instant	-12.0706
Iran	-12.0706
▁Matte	-12.071
▁cultivate	-12.0712
▁invoke	-12.0712
▁spare	-12.0712
measured	-12.0716
chain	-12.0718
▁betray	-12.072
▁vaccinat	-12.0722
▁therap	-12.0722
▁impress	-12.0722
▁deport	-12.0723
▁crony	-12.0725
▁patron	-12.0725
▁Fried	-12.0726
▁0.2	-12.0726
▁cherish	-12.0726
▁hijack	-12.0726
▁revamp	-12.0726
-1945	-12.0726
communicable	-12.0726
fetched	-12.0726
â	-12.0726
▁1977	-12.0726
▁1997-1998	-12.0726
▁Ababa	-12.0726
▁Apparently	-12.0726
▁Assistance	-12.0726
▁CRISPR	-12.0726
▁Concertación	-12.0726
▁Economies	-12.0726
▁Haldane	-12.0726
▁Jonathan	-12.0726
▁Rapid	-12.0726
▁Recovery	-12.0726
▁Seoul	-12.0726
▁Statistics	-12.0726
▁Stockholm	-12.0726
▁Stream	-12.0726
▁Survey	-12.0726
▁Taylor	-12.0726
▁Tuberculosis	-12.0726
▁YouTube	-12.0726
▁airspace	-12.0726
▁allegiance	-12.0726
▁ammunition	-12.0726
▁amplifie	-12.0726
▁applaud	-12.0726
▁bankruptcies	-12.0726
▁beleaguered	-12.0726
▁blatant	-12.0726
▁boycott	-12.0726
▁celebrating	-12.0726
▁chemotherapy	-12.0726
▁collision	-12.0726
▁colossal	-12.0726
▁convertibility	-12.0726
▁credentials	-12.0726
▁descent	-12.0726
▁elegant	-12.0726
▁eligibility	-12.0726
▁endeavor	-12.0726
▁enrolled	-12.0726
▁entrants	-12.0726
▁excellence	-12.0726
▁expansive	-12.0726
▁fascism	-12.0726
▁fishermen	-12.0726
▁fraught	-12.0726
▁glass	-12.0726
▁hallmark	-12.0726
▁hypothesis	-12.0726
▁ideologies	-12.0726
▁inconceivable	-12.0726
▁indifferent	-12.0726
▁intact	-12.0726
▁intimidation	-12.0726
▁literary	-12.0726
▁lump	-12.0726
▁misconception	-12.0726
▁misplaced	-12.0726
▁modify	-12.0726
▁molecular	-12.0726
▁photo	-12.0726
▁pluralism	-12.0726
▁pneumonia	-12.0726
▁policing	-12.0726
▁precipitous	-12.0726
▁pronouncements	-12.0726
▁qualify	-12.0726
▁reassess	-12.0726
▁remorse	-12.0726
▁responsibly	-12.0726
▁royal	-12.0726
▁simplify	-12.0726
▁smuggling	-12.0726
▁spontaneous	-12.0726
▁steadfast	-12.0726
▁stroke	-12.0726
▁suspension	-12.0726
▁terrain	-12.0726
▁thrust	-12.0726
▁uneasy	-12.0726
▁unfettered	-12.0726
▁unpleasant	-12.0726
▁unreliable	-12.0726
▁vulture	-12.0726
▁wrenching	-12.0726
▁BCB	-12.0726
▁Class	-12.0726
▁Hebdo	-12.0726
▁Skeptic	-12.0726
▁Truth	-12.0726
▁laboratory	-12.0726
▁lottery	-12.0726
▁rainforest	-12.0726
▁revisit	-12.0726
▁traffickers	-12.0726
▁Mauric	-12.0726
▁appointees	-12.0726
▁guest	-12.0726
▁implode	-12.0726
▁incarnat	-12.0726
▁overshadowed	-12.0726
▁scorn	-12.0726
Enough	-12.0726
▁Immigration	-12.0726
▁clothes	-12.0726
▁dispel	-12.0726
▁fringe	-12.0727
▁Solar	-12.0727
▁forgiveness	-12.0727
▁AAA	-12.0727
▁biomedic	-12.0727
▁bribery	-12.0727
▁Geert	-12.0727
▁welcoming	-12.0727
▁idle	-12.0727
▁Ordinar	-12.0727
▁apology	-12.0727
▁waning	-12.0727
centered	-12.0727
▁clothing	-12.0727
▁eminent	-12.0727
▁refute	-12.0727
▁caliphate	-12.0727
▁garner	-12.0727
▁consistency	-12.0727
▁directives	-12.0727
▁lone	-12.0727
▁hook	-12.0727
▁defamation	-12.0727
▁Hous	-12.0727
▁petroleum	-12.0727
▁entrust	-12.0727
▁transmitted	-12.0727
▁trail	-12.0727
▁Lord	-12.0727
▁accomplishments	-12.0727
▁inauguration	-12.0727
▁deficient	-12.0727
▁gentle	-12.0727
▁1964	-12.0727
▁Warsaw	-12.0728
▁dogma	-12.0728
▁upswing	-12.0728
▁shipping	-12.0728
▁municipalities	-12.0728
▁snow	-12.0728
▁lions	-12.0728
▁ruler	-12.0728
▁forego	-12.0728
▁chor	-12.0728
▁Orwell	-12.0728
▁addiction	-12.0728
▁skin	-12.0728
▁fluid	-12.0728
▁demonetization	-12.0728
▁2021	-12.0728
▁51%	-12.0729
▁lining	-12.0729
▁3.5	-12.0729
▁65%	-12.0729
▁85%	-12.0729
▁Equit	-12.0729
▁arable	-12.0729
▁topple	-12.073
ía	-12.073
▁excel	-12.073
▁binge	-12.073
▁contaminated	-12.0731
▁phenomenal	-12.0731
▁slim	-12.0731
▁Broad	-12.0731
▁realistically	-12.0731
▁weekend	-12.0731
pegged	-12.0731
▁murderous	-12.0732
▁artists	-12.0732
▁neuro	-12.0732
Zero	-12.0732
▁visitors	-12.0733
▁unilateralism	-12.0733
▁gut	-12.0734
▁devastated	-12.0734
▁hardware	-12.0734
▁imperialism	-12.0734
▁displace	-12.0735
parliamentarians	-12.0735
Tech	-12.0736
▁conversion	-12.0736
▁viewpoint	-12.0736
▁Bomb	-12.0737
▁dense	-12.0737
▁posture	-12.0738
▁bombers	-12.0738
▁anybody	-12.0738
▁pop	-12.0739
▁suburb	-12.0739
▁Lower	-12.074
▁30,000	-12.074
▁Read	-12.0741
▁radicalization	-12.0741
▁momentous	-12.0741
▁cashless	-12.0742
▁possesses	-12.0743
▁strongmen	-12.0744
▁Lack	-12.0744
▁closure	-12.0745
▁Anwar	-12.0745
▁biases	-12.0745
▁Total	-12.0745
▁illustrated	-12.0746
▁usefulness	-12.0747
▁aggravat	-12.0752
wal	-12.0755
▁swan	-12.0756
▁Yi	-12.0758
▁humanities	-12.0761
▁wane	-12.0761
▁Apart	-12.0762
▁PM	-12.0762
▁tolerated	-12.0763
▁Matt	-12.0765
pressed	-12.0765
▁distracted	-12.0766
▁protective	-12.0767
▁fundamentalism	-12.0771
FOR	-12.0771
▁allied	-12.0771
▁businessman	-12.0775
▁cow	-12.0777
▁Monti	-12.0781
▁Child	-12.0787
▁$1.5	-12.0791
▁hampered	-12.0794
▁—	-12.0795
▁hens	-12.0796
▁spectacularly	-12.0798
▁Along	-12.0802
▁fairer	-12.0804
▁moon	-12.0806
▁allocat	-12.0807
clean	-12.0808
▁wonderful	-12.081
▁stockpiles	-12.0813
move	-12.0814
tta	-12.0815
▁participated	-12.0818
averse	-12.0821
PEN	-12.0826
▁matur	-12.083
▁strikingly	-12.0834
▁worsened	-12.0834
spirational	-12.0835
Cas	-12.0842
▁sto	-12.0844
▁renegotiate	-12.0847
inspir	-12.0867
▁biased	-12.087
▁centrality	-12.0874
often	-12.0878
▁aides	-12.0886
evin	-12.0892
chen	-12.09
▁nationality	-12.0903
▁flex	-12.0906
▁expire	-12.0914
▁publicized	-12.0916
▁Bankers	-12.0935
▁$13	-12.0936
▁moderately	-12.0943
hai	-12.0959
▁pitt	-12.0967
▁Liv	-12.0968
▁Hami	-12.0986
▁Mill	-12.0997
▁Come	-12.1017
respect	-12.102
diagnosis	-12.1029
bod	-12.1048
▁stumble	-12.1062
hak	-12.1064
▁ameliorate	-12.1073
hitting	-12.1094
ichi	-12.1096
▁neutraliz	-12.1111
▁$16	-12.1137
leaning	-12.1158
liable	-12.1187
sufficient	-12.1205
▁ethic	-12.1213
taining	-12.1238
▁halv	-12.1239
▁horror	-12.1253
▁segment	-12.1255
▁alleviat	-12.1255
▁department	-12.1256
▁assurance	-12.1261
▁cent	-12.1264
azar	-12.1264
▁manufacturer	-12.1267
▁Wood	-12.1271
▁motive	-12.1273
▁misse	-12.1274
▁page	-12.128
1.3%	-12.1281
▁Cur	-12.1287
▁deb	-12.1292
▁projection	-12.13
bak	-12.1314
keep	-12.1315
ratory	-12.1316
equal	-12.1317
▁Fai	-12.132
represented	-12.1322
▁conclud	-12.1325
▁dump	-12.1334
▁Accord	-12.1334
▁abolition	-12.1352
last	-12.1354
▁repress	-12.1356
shoot	-12.1356
▁gri	-12.1357
India	-12.1359
Africa	-12.1361
▁discredit	-12.1361
▁timeline	-12.1361
till	-12.1362
while	-12.1366
usual	-12.1366
▁unanimous	-12.1368
dioxide	-12.1368
Palestine	-12.1368
enforcement	-12.1368
fragile	-12.1368
violent	-12.1368
planning	-12.1368
population	-12.1368
universal	-12.1368
process	-12.1368
traditional	-12.1368
significant	-12.1368
determination	-12.1369
short	-12.137
closer	-12.137
book	-12.1371
▁commemorat	-12.1374
toxic	-12.1374
African	-12.1376
Indian	-12.1378
▁prosecute	-12.1378
▁unacceptabl	-12.1382
▁qualit	-12.1384
Our	-12.1388
entry	-12.1388
smic	-12.1389
▁Moral	-12.1389
▁addict	-12.139
finite	-12.1391
▁articulate	-12.1391
true	-12.1391
resumption	-12.1392
▁intrinsic	-12.1392
▁Prince	-12.1393
▁Lead	-12.1393
▁liberalize	-12.1393
▁0.8	-12.1393
▁philanthropi	-12.1393
▁interrogat	-12.1393
▁lull	-12.1393
▁replenish	-12.1393
▁resurrect	-12.1393
ö	-12.1393
▁1947	-12.1393
▁1957	-12.1393
▁1987	-12.1393
▁Austerity	-12.1393
▁Behind	-12.1393
▁Belgrade	-12.1393
▁Bismarck	-12.1393
▁Brookings	-12.1393
▁Cambridge	-12.1393
▁Ceausescu	-12.1393
▁Channel	-12.1393
▁Cutting	-12.1393
▁Design	-12.1393
▁Dublin	-12.1393
▁Guangdong	-12.1393
▁Kyrgyzstan	-12.1393
▁Monnet	-12.1393
▁Mugabe	-12.1393
▁Munich	-12.1393
▁Murdoch	-12.1393
▁OSCE	-12.1393
▁Olmert	-12.1393
▁PARP	-12.1393
▁Populism	-12.1393
▁REDD	-12.1393
▁Rodrik	-12.1393
▁Schroeder	-12.1393
▁Trouble	-12.1393
▁Turkmenistan	-12.1393
▁UBI	-12.1393
▁Uruguay	-12.1393
▁Wolfensohn	-12.1393
▁absorption	-12.1393
▁adamant	-12.1393
▁admiration	-12.1393
▁airplane	-12.1393
▁bottlenecks	-12.1393
▁calculus	-12.1393
▁chunk	-12.1393
▁collusion	-12.1393
▁compulsory	-12.1393
▁conceivabl	-12.1393
▁conspicuous	-12.1393
▁corridor	-12.1393
▁crumbling	-12.1393
▁disdain	-12.1393
▁dystopia	-12.1393
▁electrification	-12.1393
▁empathy	-12.1393
▁entrance	-12.1393
▁feminist	-12.1393
▁gambling	-12.1393
▁happily	-12.1393
▁harbinger	-12.1393
▁holistic	-12.1393
▁hormone	-12.1393
▁illegitimate	-12.1393
▁immunity	-12.1393
▁impairment	-12.1393
▁ingenuity	-12.1393
▁kilogram	-12.1393
▁ladder	-12.1393
▁laudable	-12.1393
▁measles	-12.1393
▁minus	-12.1393
▁monsoon	-12.1393
▁nasty	-12.1393
▁oppressive	-12.1393
▁outnumber	-12.1393
▁persuasion	-12.1393
▁petition	-12.1393
▁plateau	-12.1393
▁quagmire	-12.1393
▁rallied	-12.1393
▁ramifications	-12.1393
▁sabotage	-12.1393
▁separating	-12.1393
▁shattered	-12.1393
▁sinister	-12.1393
▁southwest	-12.1393
▁suicidal	-12.1393
▁superficial	-12.1393
▁tandem	-12.1393
▁toolkit	-12.1393
▁umbrella	-12.1393
▁unambiguous	-12.1393
▁vendors	-12.1393
▁vengeance	-12.1393
▁vertical	-12.1393
▁Decision	-12.1393
▁Kennan	-12.1393
▁VAT	-12.1393
▁beggar	-12.1393
▁buried	-12.1393
▁pretense	-12.1393
▁quarrel	-12.1393
▁relegat	-12.1393
▁rife	-12.1393
▁teeth	-12.1393
▁unhealthy	-12.1393
▁utilitarian	-12.1393
▁Delta	-12.1393
▁RCT	-12.1393
▁Shoal	-12.1393
▁bastion	-12.1393
▁folly	-12.1393
▁inspection	-12.1393
onversely	-12.1393
▁histories	-12.1393
▁nerve	-12.1393
▁humankind	-12.1393
▁obey	-12.1393
▁Strong	-12.1393
▁unseen	-12.1393
▁2.7%	-12.1393
▁Absent	-12.1393
▁Nasser	-12.1393
▁Legal	-12.1393
▁Surely	-12.1393
▁7.4%	-12.1393
▁spree	-12.1393
▁turbines	-12.1393
▁Besides	-12.1393
▁radioactive	-12.1393
▁warheads	-12.1393
▁unused	-12.1393
mongering	-12.1393
▁0.1%	-12.1393
▁diversion	-12.1393
▁beacon	-12.1393
▁sword	-12.1393
▁deficiency	-12.1394
▁1.6%	-12.1394
▁laugh	-12.1394
▁lent	-12.1394
▁suck	-12.1394
▁External	-12.1394
▁Navy	-12.1394
▁comfortably	-12.1394
scription	-12.1394
▁bidding	-12.1394
ggle	-12.1394
▁shining	-12.1394
▁preempt	-12.1394
▁charities	-12.1394
▁Frontier	-12.1394
▁pander	-12.1394
▁obstruction	-12.1394
▁turnaround	-12.1395
▁attainment	-12.1395
▁flock	-12.1395
▁referring	-12.1395
▁cardio	-12.1395
▁€6	-12.1395
▁interdependent	-12.1395
▁elude	-12.1395
▁stringent	-12.1395
▁shall	-12.1395
▁stave	-12.1395
▁relocation	-12.1395
▁700,000	-12.1395
▁55%	-12.1395
ESM	-12.1395
▁ambiguity	-12.1396
▁grace	-12.1396
▁barbari	-12.1396
▁Orange	-12.1396
▁classification	-12.1396
▁32%	-12.1396
▁Master	-12.1396
▁26%	-12.1397
▁dropping	-12.1398
▁headway	-12.1398
▁attached	-12.1398
▁complicity	-12.1398
▁sustainably	-12.1398
▁prohibitive	-12.1398
CPI	-12.1399
▁wasteful	-12.1399
▁Code	-12.1399
▁Saving	-12.1399
▁monarchy	-12.14
▁section	-12.14
▁indebtedness	-12.14
▁downplay	-12.14
▁Steven	-12.14
gold	-12.14
▁AIG	-12.1402
▁Import	-12.1402
▁dim	-12.1403
▁circuit	-12.1403
▁heroes	-12.1403
▁breaches	-12.1403
▁reelection	-12.1403
▁Yas	-12.1403
▁spawned	-12.1404
▁fashionable	-12.1404
▁bare	-12.1407
▁upheld	-12.1407
▁Seven	-12.1407
▁Timor	-12.1407
▁UKIP	-12.1407
▁Tories	-12.1408
▁retraining	-12.1408
▁doubtful	-12.1408
▁envisioned	-12.1408
▁louder	-12.141
▁CCS	-12.141
▁Speaker	-12.1411
deci	-12.1411
▁firsthand	-12.1412
▁inclusiveness	-12.1413
▁encouragement	-12.1416
▁conglomerates	-12.1418
▁unanimously	-12.1419
▁occupational	-12.1419
neck	-12.1419
▁restart	-12.142
▁vindicated	-12.142
▁finalized	-12.1421
▁Line	-12.1421
▁Worldwide	-12.1424
▁camera	-12.1425
cry	-12.1425
▁disarm	-12.1425
▁scored	-12.1426
full	-12.1429
▁toppled	-12.1429
▁updated	-12.143
▁repressed	-12.1431
▁ascent	-12.1432
For	-12.1432
▁Silva	-12.1433
▁editing	-12.1433
loss	-12.1434
▁unifying	-12.1437
▁wartime	-12.1439
▁bolder	-12.1441
▁$1.3	-12.1442
▁consulted	-12.1444
▁Song	-12.1456
▁Save	-12.1456
▁withdrew	-12.1456
beat	-12.1457
▁Rand	-12.1459
mostly	-12.1463
▁sharper	-12.1465
▁greatness	-12.1476
▁crushing	-12.1479
▁theater	-12.1482
▁separated	-12.1485
▁centralization	-12.1485
▁exercised	-12.1491
▁Bangladeshi	-12.1491
▁Live	-12.1492
▁$25	-12.1493
▁presid	-12.1496
▁Hor	-12.1497
▁disciplined	-12.1499
▁linguistic	-12.15
▁nationalization	-12.1503
▁legitimize	-12.1505
▁heir	-12.1508
▁periodic	-12.1509
91	-12.1548
86	-12.1549
HAI	-12.1553
▁apologize	-12.1565
▁preside	-12.1566
▁Raj	-12.1567
▁issuer	-12.1568
▁160	-12.157
▁featur	-12.1571
▁Sustain	-12.1577
▁Tom	-12.16
▁140	-12.16
▁reorganiz	-12.1625
igging	-12.1631
▁($6	-12.1638
▁damn	-12.1644
gie	-12.1644
▁$35	-12.1652
ease	-12.167
trapped	-12.1672
▁outline	-12.1674
coaster	-12.1674
amine	-12.169
▁bite	-12.1702
PL	-12.1711
!)	-12.1714
▁Mil	-12.1719
▁700	-12.1728
earned	-12.1735
cel	-12.175
ohan	-12.1753
▁grapple	-12.1758
▁preach	-12.1786
▁reallocat	-12.182
▁intimate	-12.184
trained	-12.1849
determined	-12.1872
▁Crime	-12.1875
KA	-12.1882
▁carv	-12.1931
▁shortsighted	-12.1934
▁phas	-12.1936
wash	-12.1936
▁outpac	-12.1939
cutting	-12.1939
▁separatist	-12.1968
▁medication	-12.1968
▁Brother	-12.197
▁NGO	-12.197
▁employee	-12.1971
▁stakeholder	-12.1971
▁jihadist	-12.1972
▁metric	-12.1973
▁echoe	-12.198
▁squeez	-12.1982
▁stor	-12.199
terestingly	-12.1997
▁fundamentalist	-12.2008
Go	-12.2012
break	-12.2013
grabb	-12.2041
▁loser	-12.2043
establish	-12.2044
▁unravel	-12.2047
vocation	-12.2062
what	-12.2073
▁concert	-12.2074
▁elevat	-12.2075
peace	-12.2082
emerge	-12.2082
dimension	-12.2082
plus	-12.2082
interference	-12.2083
ethnic	-12.2083
percentage	-12.2083
official	-12.2083
British	-12.2083
permanent	-12.2083
mainly	-12.2083
engage	-12.2083
revolution	-12.2084
▁Deep	-12.2085
tifying	-12.2085
▁retire	-12.2086
data	-12.2088
selling	-12.2089
▁stagnate	-12.2093
make	-12.2093
▁tire	-12.2094
▁Scandinavia	-12.2097
▁charit	-12.2098
▁harass	-12.2105
▁patriot	-12.2106
▁Leon	-12.2107
▁glamo	-12.2107
▁Coordinat	-12.2107
▁assimilat	-12.2107
▁luxuri	-12.2107
-1970	-12.2107
▁Expand	-12.2107
▁clamor	-12.2107
▁disenfranchise	-12.2107
▁languish	-12.2107
▁photograph	-12.2107
▁plumb	-12.2107
▁ratchet	-12.2107
▁rescind	-12.2107
▁swallow	-12.2107
borough	-12.2107
exorbitant	-12.2107
sanctuary	-12.2107
▁1944	-12.2107
▁1958	-12.2107
▁2035	-12.2107
▁BBC	-12.2107
▁Chennai	-12.2107
▁Czechoslovakia	-12.2107
▁Diamond	-12.2107
▁Excess	-12.2107
▁GAVI	-12.2107
▁Hadjiev	-12.2107
▁Investing	-12.2107
▁Khomeini	-12.2107
▁Kuroda	-12.2107
▁McCain	-12.2107
▁Nairobi	-12.2107
▁Pentagon	-12.2107
▁Petersburg	-12.2107
▁SGP	-12.2107
▁START	-12.2107
▁Schuman	-12.2107
▁Slovenia	-12.2107
▁Stanley	-12.2107
▁Tillerson	-12.2107
▁Virginia	-12.2107
[...]
